<unk>	0
<s>	0
</s>	0
Expression	-2.373
Reference	-2.97628
TypeElement	-3.30564
;	-3.40317
)	-3.43639
(	-3.54281
ReferenceElement	-3.5878
JavaCode	-3.59456
Method	-3.63693
,	-3.70212
Statement	-3.72147
ModifierList	-3.72998
Parameter	-3.99194
CodeBlock	-4.00411
ParameterList	-4.02698
MethodCall	-4.05349
.	-4.19183
ExpressionList	-4.19262
}	-4.19725
{	-4.21928
_	-4.43089
=	-4.44163
ReturnStatement	-4.45304
>	-4.49831
Field	-4.56363
Declaration	-4.67099
<	-4.67337
public	-4.81472
return	-4.84955
Literal	-4.87184
Annotation	-4.96064
LocalVariable	-5.04767
ImportStatement	-5.11973
IfStatement	-5.2812
@	-5.33818
private	-5.34558
final	-5.35618
var	-5.37607
static	-5.41718
e	-5.51192
String	-5.52436
BinaryExpression	-5.64617
int	-5.71181
BlockStatement	-5.72797
void	-5.75627
ReferenceList	-5.75747
import	-5.79102
Class	-5.85202
s	-5.8967
Assignment	-5.96322
if	-5.97992
NewExpression	-6.07969
get	-6.2068
new	-6.21077
class	-6.25294
boolean	-6.32776
"	-6.4214
str	-6.46937
Type	-6.504
num	-6.51677
long	-6.53972
com	-6.54285
b	-6.56841
1	-6.64252
throws	-6.69442
null	-6.69896
List	-6.71639
+	-6.75764
Override	-6.79454
this	-6.80032
LocalService	-6.80809
protected	-6.91878
2	-6.96257
ThisExpression	-6.99343
Exception	-6.99462
]	-7.01324
Persistence	-7.01674
[	-7.02179
NotNull	-7.02249
:	-7.04227
JavaFile	-7.05711
set	-7.15333
i	-7.17922
my	-7.20568
l	-7.21332
XK	-7.21856
ForeachStatement	-7.24714
name	-7.25244
ParamList	-7.32464
PrefixExpression	-7.35107
ImportStatic	-7.36577
!=	-7.36737
Service	-7.3825
context	-7.38559
r	-7.40781
==	-7.43112
component	-7.44423
add	-7.44769
for	-7.45808
Object	-7.46013
create	-7.46137
0	-7.46326
value	-7.47287
Map	-7.47372
someString	-7.49852
type	-7.49927
EnumConstant	-7.50382
o	-7.51199
TryStatement	-7.53834
else	-7.54033
test	-7.55331
project	-7.57339
T	-7.57992
file	-7.58028
is	-7.59652
result	-7.60775
&&	-7.61525
rderByComparator	-7.62194
Id	-7.6232
C	-7.62693
TypeCast	-7.62773
JavaDirectory	-7.63127
org	-7.63675
node	-7.64666
java	-7.64765
Name	-7.65276
element	-7.6552
start	-7.65884
ImportList	-7.67429
PackageStatement	-7.67745
c	-7.68168
m	-7.72493
Builder	-7.72997
!	-7.7441
Context	-7.78755
extends	-7.78866
false	-7.8026
Factory	-7.80666
TypeParameter	-7.82942
Parenthesized	-7.87682
end	-7.905
Conditional	-7.9062
ClassObject	-7.93816
AccessExpression	-7.94127
true	-7.94834
LambdaExpression	-7.94892
3	-7.95508
Polyadic	-7.95808
File	-7.95869
builder	-7.98088
->	-7.99573
try	-7.99604
Nullable	-8.00396
S	-8.00747
session	-8.01138
list	-8.0155
method	-8.02711
id	-8.03306
index	-8.03547
p	-8.03771
Request	-8.05841
request	-8.06627
key	-8.06676
ForStatement	-8.06936
NAME	-8.07343
package	-8.08119
InstanceOf	-8.10491
Manager	-8.11561
displayDate	-8.11946
length	-8.12203
Count	-8.15634
Path	-8.16036
Node	-8.17321
expression	-8.1749
Test	-8.17848
abstract	-8.18285
commerce	-8.19027
expirationDate	-8.19207
assert	-8.20188
NameValuePair	-8.20596
Value	-8.21637
implements	-8.22093
parent	-8.2478
Set	-8.25072
4	-8.25274
ErrorElement	-8.254
update	-8.2682
CPDefinition	-8.27133
companyId	-8.27474
instanceof	-8.28219
CatchSection	-8.28582
Element	-8.28699
Settings	-8.30187
Commerce	-8.30366
text	-8.30713
Key	-8.31314
assertThat	-8.31775
Action	-8.31793
Index	-8.32396
find	-8.3343
_0	-8.34087
d	-8.34648
service	-8.35327
target	-8.35801
Impl	-8.36974
Info	-8.37679
PsiElement	-8.38716
editor	-8.39553
a	-8.41237
Icon	-8.41752
||	-8.42367
Project	-8.42404
Util	-8.42975
-	-8.44103
Finder	-8.45011
With	-8.45106
size	-8.45521
E	-8.46251
cpDefinition	-8.46987
build	-8.47735
path	-8.47857
SwitchLabel	-8.48588
load	-8.4874
groupId	-8.48741
To	-8.48843
Provider	-8.48932
ArrayAccess	-8.50963
query	-8.51618
equals	-8.5183
State	-8.5211
source	-8.52633
in	-8.52639
visit	-8.52932
x	-8.52981
IOException	-8.53724
Portal	-8.54188
Component	-8.54709
ThrowStatement	-8.55805
super	-8.55955
Data	-8.5714
field	-8.57201
Configuration	-8.58744
message	-8.59854
listener	-8.61182
Response	-8.61484
state	-8.61984
O	-8.62285
reader	-8.62453
assertEquals	-8.6252
Metadata	-8.63806
put	-8.64785
Query	-8.65284
Psi	-8.65349
Listener	-8.66146
OptionValueRel	-8.66236
t	-8.66249
Result	-8.6654
uuid	-8.66772
Descriptor	-8.66913
Config	-8.67156
Collection	-8.67332
For	-8.67916
settings	-8.68912
serviceContext	-8.68972
Text	-8.69443
TestPattern	-8.69473
offset	-8.71375
Properties	-8.71746
metadata	-8.72202
myProject	-8.72271
remove	-8.73106
Specification	-8.73149
expected	-8.732
WhileStatement	-8.73659
Entry	-8.73689
In	-8.73716
ArrayInitializer	-8.73838
to	-8.74172
response	-8.74577
foo	-8.76186
user	-8.77148
count	-8.77281
model	-8.7738
double	-8.77664
Handler	-8.77731
f	-8.7801
client	-8.78273
root	-8.78417
getPersistence	-8.78993
Message	-8.79981
catch	-8.80744
A	-8.81304
check	-8.81426
VirtualFile	-8.81768
ID	-8.81974
Property	-8.82964
Long	-8.83157
Version	-8.84522
DynamicQuery	-8.85041
TYPE	-8.85045
selected	-8.85244
LOG	-8.85299
And	-8.85752
current	-8.86276
++	-8.86509
CommerceOrder	-8.86526
Definition	-8.86822
column	-8.86887
First	-8.87702
DEFAULT	-8.87864
next	-8.88312
info	-8.88482
Enabled	-8.8873
process	-8.89005
append	-8.89282
entry	-8.89458
Logger	-8.89516
dynamicQuery	-8.89676
getName	-8.89788
Boolean	-8.90487
toString	-8.90625
AssertStatement	-8.90757
version	-8.91203
Editor	-8.91288
Last	-8.91991
Date	-8.92008
document	-8.9234
className	-8.93013
Filter	-8.93239
_2	-8.93301
throw	-8.93572
map	-8.93832
module	-8.94292
has	-8.94311
Model	-8.95097
use	-8.95279
Session	-8.95834
child	-8.95842
interface	-8.95986
g	-8.9627
bar	-8.96379
default	-8.9651
Resource	-8.97017
BeanReference	-8.98161
Registry	-8.98178
y	-8.98207
filter	-8.9836
Month	-8.9859
Integer	-8.98738
CommerceDiscount	-8.98878
table	-8.99135
Notification	-8.99244
position	-8.99263
Function	-8.99369
Block	-8.99585
Minute	-8.99627
userId	-8.99823
Hour	-9.00278
Cache	-9.00377
Day	-9.00384
commerceOrder	-9.00385
Default	-9.00513
_1	-9.00595
case	-9.00841
max	-9.00899
Year	-9.01219
From	-9.01259
data	-9.01726
baz	-9.02338
item	-9.0241
action	-9.0281
parse	-9.02923
parser	-9.0312
Attribute	-9.03542
AnonymousClass	-9.03621
statement	-9.03688
BigDecimal	-9.03834
left	-9.04675
delete	-9.04718
Size	-9.05033
ClassInitializer	-9.05142
V	-9.05184
group	-9.05766
out	-9.0589
Task	-9.07171
FIELD	-9.07191
KEY	-9.07196
Optional	-9.07284
D	-9.07307
values	-9.08024
Column	-9.08354
P	-9.08526
cpInstance	-9.08562
Group	-9.08568
Inventory	-9.08688
CommercePrice	-9.08807
Range	-9.09028
Abstract	-9.09194
log	-9.0929
Gray	-9.09397
Table	-9.09597
write	-9.09692
Source	-9.10251
error	-9.1055
n	-9.1125
right	-9.11696
Scope	-9.11753
status	-9.11817
Postfix	-9.12233
Template	-9.13002
Types	-9.13063
task	-9.13698
from	-9.13906
level	-9.14174
guard	-9.14183
COLUMN	-9.14273
Operation	-9.14307
read	-9.14498
Item	-9.15567
Objects	-9.15617
Client	-9.15771
Option	-9.16001
Module	-9.16091
attribute	-9.16268
recursion	-9.1814
Availability	-9.18288
ReferenceCode	-9.18845
logger	-9.19042
R	-9.19408
config	-9.19423
buffer	-9.1943
factory	-9.19498
FINDER	-9.20058
content	-9.20105
findByUuid	-9.20118
Stats	-9.20232
line	-9.206
Status	-9.20622
resolve	-9.20818
block	-9.21675
args	-9.21705
sb	-9.21896
options	-9.22154
variable	-9.22328
raille	-9.22558
getInstance	-9.23336
scope	-9.23828
Base	-9.23864
EMPTY	-9.23888
input	-9.24006
I	-9.24057
getCommerce	-9.25017
execute	-9.25362
ed	-9.2568
Panel	-9.25831
event	-9.25838
aClass	-9.25926
other	-9.26548
dots	-9.26595
Processor	-9.26966
last	-9.27153
Offset	-9.27154
first	-9.2777
SI	-9.27824
On	-9.28246
Variable	-9.2828
Estimate	-9.28475
Internal	-9.29428
Visitor	-9.29509
Marker	-9.29936
external	-9.29993
row	-9.30084
descriptor	-9.30393
::	-9.30696
CLASS	-9.31078
Attributes	-9.31263
UUID	-9.31412
Entity	-9.31558
v	-9.3178
CPInstance	-9.32228
ing	-9.32261
MAX	-9.32298
X	-9.32548
Values	-9.3263
Supplier	-9.32699
description	-9.33025
er	-9.33455
Pattern	-9.3351
Length	-9.34089
attributes	-9.34265
url	-9.35025
Collections	-9.35115
title	-9.35524
ClassName	-9.35699
Helper	-9.35796
Options	-9.36519
Time	-9.36665
random	-9.36738
with	-9.37549
Identifier	-9.3833
while	-9.38408
Bytes	-9.38432
Ref	-9.38633
call	-9.39305
register	-9.39421
BreakStatement	-9.39829
fetchBy	-9.39881
Document	-9.401
commercePrice	-9.40246
output	-9.40263
tree	-9.40322
Target	-9.40519
findByC	-9.40636
range	-9.40637
Resolver	-9.41172
PrevAndNext	-9.41222
ctx	-9.41248
INSTANCE	-9.41756
Event	-9.41984
PsiClass	-9.42063
on	-9.42153
one	-9.42203
Content	-9.42358
G	-9.4246
Token	-9.4351
format	-9.43754
ModelNode	-9.44346
params	-9.44524
parameters	-9.44613
getService	-9.44714
Wrapper	-9.44799
commerceChannel	-9.44863
CommerceAccount	-9.45383
My	-9.45404
sql	-9.45595
All	-9.45669
ClusterState	-9.46015
resource	-9.4637
CommerceChannel	-9.46379
Actionable	-9.46497
OptionValue	-9.46673
Iterator	-9.4669
Uuid	-9.46815
property	-9.46832
FileEntry	-9.46939
CommerceShipment	-9.47289
section	-9.47541
previous	-9.4782
URL	-9.47902
token	-9.47905
commerceDiscount	-9.48274
Mode	-9.48342
apply	-9.48393
Files	-9.48884
configuration	-9.49036
FinderCache	-9.49184
Bundle	-9.493
h	-9.49494
By	-9.4951
B	-9.49682
commerceAccount	-9.49775
handler	-9.50004
VALUE	-9.50615
Color	-9.50893
contains	-9.50914
pattern	-9.51
ParameterTypes	-9.51195
Url	-9.51454
operation	-9.51457
PersistedModel	-9.51607
isEmpty	-9.52433
object	-9.52737
ubscriptionEntry	-9.52808
min	-9.5301
PsiType	-9.53025
Connection	-9.53369
Start	-9.53502
hashCode	-9.53645
Directory	-9.53905
actual	-9.53914
entityManager	-9.54416
Obj	-9.54536
of	-9.54549
handle	-9.54587
NoSuch	-9.54611
active	-9.54694
Assert	-9.54717
OptionRel	-9.54961
F	-9.55361
assertTrue	-9.55567
Array	-9.55765
old	-9.55807
delegate	-9.56062
annotation	-9.56117
Setting	-9.57063
time	-9.57425
Reader	-9.57531
original	-9.57643
array	-9.57663
Or	-9.57873
ref	-9.58127
Transaction	-9.58149
Description	-9.58163
exception	-9.58801
NONE	-9.5888
L	-9.59163
CommerceAddress	-9.59465
Update	-9.59542
Tests	-9.59581
Position	-9.59658
PsiBuilder	-9.59724
close	-9.60151
comp	-9.60234
LogMessage	-9.60439
getCPDefinition	-9.60459
reference	-9.60562
tableName	-9.6078
parameter	-9.60802
all	-9.60837
body	-9.60892
CPAttachment	-9.60935
Address	-9.60958
stream	-9.61022
finally	-9.61313
PsiFile	-9.61393
j	-9.61585
popup	-9.61628
requireNonNull	-9.62003
condition	-9.62085
hash	-9.62453
Root	-9.6251
findAll	-9.62675
cache	-9.62721
Row	-9.62892
AccountGroupRel	-9.63137
address	-9.63248
SQL	-9.63271
Consumer	-9.63337
Change	-9.63401
total	-9.63563
do	-9.63643
Bean	-9.6407
tag	-9.6409
Strategy	-9.64345
BIGINT	-9.64504
ArrayList	-9.64713
able	-9.64715
NO	-9.65179
function	-9.65383
ServiceContext	-9.65471
Executor	-9.65604
Java	-9.65824
_3	-9.65993
getValue	-9.66009
Runnable	-9.66314
fetch	-9.66325
clusterState	-9.66334
finderPath	-9.6647
_4	-9.66697
Number	-9.6679
Py	-9.66853
processor	-9.66879
Principal	-9.66974
synchronized	-9.67422
exit	-9.67539
byte	-9.67605
Container	-9.6761
Holder	-9.67881
validate	-9.67946
width	-9.67986
User	-9.68291
Stream	-9.68436
Dir	-9.68518
cluster	-9.68548
Tree	-9.68776
Names	-9.68776
owner	-9.69345
entity	-9.69657
types	-9.69705
generate	-9.69891
Call	-9.69896
enter	-9.70167
ResourceList	-9.70182
replace	-9.70234
Parser	-9.70235
cfs	-9.7024
Dependency	-9.70411
ACTION	-9.70891
Mapping	-9.71144
init	-9.71256
bounds	-9.71809
commerceShipment	-9.719
search	-9.72176
run	-9.72688
clear	-9.73122
COUNT	-9.73817
Error	-9.74025
View	-9.74034
K	-9.74075
after	-9.74228
PsiMethod	-9.74256
height	-9.74268
Page	-9.74362
dp	-9.74539
ActionListener	-9.75187
Of	-9.75214
Simple	-9.75827
show	-9.76112
IN	-9.76403
OriginalValues	-9.76741
Policy	-9.76903
Prefix	-9.7721
combo	-9.77323
iterator	-9.77487
Aggregation	-9.77507
Writer	-9.77514
collect	-9.77589
CalendarBooking	-9.77823
copy	-9.77907
WITH	-9.78039
Application	-9.78143
location	-9.78363
collection	-9.78469
getType	-9.78476
dir	-9.78662
STRING	-9.78821
our	-9.78923
bytes	-9.79074
schema	-9.79209
Line	-9.7944
ENTITY	-9.79639
change	-9.79744
writer	-9.79891
Calendar	-9.80981
PsiExpression	-9.81294
Predicate	-9.81674
connection	-9.81713
prefix	-9.82349
ire	-9.82895
U	-9.82951
Repository	-9.83065
base	-9.83125
getId	-9.83483
doc	-9.83678
neverExp	-9.83949
Output	-9.84054
properties	-9.84218
TestCase	-9.8439
Transactional	-9.84448
SwitchStatement	-9.84478
Statistics	-9.84561
descr	-9.84666
Parent	-9.84709
Restriction	-9.84793
k	-9.84798
ResourceVariable	-9.84897
Usage	-9.85057
getProject	-9.85093
mercePriceListId	-9.85495
Actions	-9.85742
javax	-9.8611
Serializable	-9.8644
break	-9.86589
INDEX	-9.86931
Double	-9.86993
ATTRIBUTE	-9.87069
Deprecated	-9.872
After	-9.87316
TABLE	-9.8747
Selection	-9.87556
TIME	-9.87562
threadPool	-9.87931
finderPathWith	-9.8822
System	-9.88468
ParseField	-9.88471
CommerceShipping	-9.88584
volatile	-9.88768
Spec	-9.88879
findBy	-9.89044
Generator	-9.89243
enum	-9.89262
manager	-9.89284
LIST	-9.89909
methodHandler	-9.9002
Step	-9.90296
second	-9.90531
Throwable	-9.9074
instance	-9.90992
Slice	-9.91112
ARRAY	-9.9113
N	-9.91181
http	-9.91239
Level	-9.91376
PARSER	-9.91443
Snapshot	-9.91589
Condition	-9.91721
shard	-9.9179
Label	-9.91849
PATH	-9.91883
debug	-9.91922
Location	-9.92057
Callback	-9.92128
CPDisplayLayout	-9.92546
psiClass	-9.92608
Synchronized	-9.92694
myEditor	-9.92765
Nodes	-9.92882
FILE	-9.93124
Utils	-9.93289
local	-9.93365
command	-9.93721
Elements	-9.93916
jobId	-9.94096
CPOptionCategory	-9.94203
VERSION	-9.94399
Classes	-9.94608
indices	-9.94702
Params	-9.94722
headers	-9.94804
mapping	-9.9496
Before	-9.95009
J	-9.95218
PMeasurementUnit	-9.95823
ClassLoader	-9.95836
page	-9.95876
provider	-9.95888
store	-9.96608
invoke	-9.96644
classPK	-9.96999
startOffset	-9.97047
Environment	-9.97306
ALL	-9.97451
commerceAddress	-9.97605
repository	-9.97647
elements	-9.9774
stats	-9.97916
nodes	-9.9802
holder	-9.98022
template	-9.98209
match	-9.98416
CommerceCatalog	-9.9923
Ids	-9.99309
Schema	-9.9936
string	-9.99404
char	-9.99485
Artifact	-9.99623
bucket	-9.99699
view	-9.99984
expr	-10.0005
Layout	-10.0012
+=	-10.0017
Dialog	-10.0035
children	-10.0056
erArgs	-10.0056
setCPDefinition	-10.0059
HashMap	-10.008
icon	-10.0093
""	-10.0097
Y	-10.0104
indexName	-10.0108
container	-10.0146
Constructor	-10.0154
accept	-10.0184
ex	-10.0187
Log	-10.0193
before	-10.0212
Dependencies	-10.0216
Search	-10.0234
ED	-10.0236
Fix	-10.0249
Header	-10.026
channel	-10.0278
lead	-10.0279
fields	-10.0293
TierPriceEntry	-10.03
Completion	-10.0315
clazz	-10.0321
End	-10.0343
cpTaxCategory	-10.0367
NOT	-10.0371
SETTING	-10.0377
propertyName	-10.0386
METHOD	-10.0395
Is	-10.0396
Tag	-10.0424
results	-10.0438
Plugin	-10.0448
Pos	-10.0464
Point	-10.0475
verify	-10.0508
fieldName	-10.0511
Constants	-10.0512
param	-10.0538
setCommerce	-10.0545
shardId	-10.0579
Http	-10.0581
CompanyId	-10.0584
MAP	-10.0594
files	-10.0599
qualifier	-10.0624
Tracker	-10.0626
Instance	-10.0628
JAVA	-10.0632
prepare	-10.0643
Child	-10.0647
bean	-10.066
discountLevel	-10.0679
TEST	-10.0685
alias	-10.0708
Counter	-10.0717
Input	-10.0719
Proxy	-10.0728
Local	-10.0768
Order	-10.077
JsonProperty	-10.0773
catalog	-10.0821
persistence	-10.0823
commerceCountry	-10.0845
Gr	-10.085
PercentageLevel	-10.0853
Lookup	-10.0873
Command	-10.0934
op	-10.0935
Locale	-10.0944
GROUP	-10.095
header	-10.0954
Timeout	-10.0954
JComponent	-10.0979
connectorId	-10.0982
join	-10.1009
cp	-10.101
statistics	-10.1053
Arrays	-10.1068
findMatches	-10.1074
ENABLED	-10.1111
Store	-10.1124
visitor	-10.1149
select	-10.1164
URI	-10.1182
ImmutableList	-10.1189
priority	-10.1222
Operator	-10.1227
Code	-10.1239
Implementor	-10.1247
Changed	-10.1258
NonNls	-10.1267
Partition	-10.1274
Build	-10.1275
Void	-10.1278
Disposable	-10.1279
Batch	-10.1279
TO	-10.128
Buffer	-10.1346
Comparator	-10.1358
enabled	-10.1361
InputStream	-10.1363
ByteBuffer	-10.1379
sort	-10.1381
switch	-10.1382
AssetListEntry	-10.1383
CP	-10.1397
Hangul	-10.1427
...	-10.1434
BOOLEAN	-10.1448
External	-10.147
findByG	-10.147
Async	-10.1476
fetchByC	-10.1483
pAttachment	-10.1485
WithTaxAmount	-10.1502
BY	-10.153
No	-10.1543
mock	-10.1572
include	-10.1586
classNameId	-10.16
cpDefinitionId	-10.1613
getParent	-10.1622
warning	-10.1627
Results	-10.1631
calendarBooking	-10.1639
Thread	-10.1653
sub	-10.1657
val	-10.1698
CommerceCountry	-10.171
ignore	-10.1712
IElementType	-10.1722
New	-10.1734
locale	-10.1747
DOUBLE	-10.176
that	-10.1763
Cyrillic	-10.1771
Indices	-10.1786
Keys	-10.1787
Empty	-10.1792
Param	-10.1825
psiFile	-10.1828
Initializer	-10.1832
Transport	-10.1833
Rectangle	-10.1841
actionRequest	-10.1848
findByCompanyId	-10.1854
empty	-10.1868
Rule	-10.1875
Access	-10.1899
Bucket	-10.1923
counter	-10.193
ELEMENT	-10.1932
Collector	-10.1936
commerceCatalog	-10.1952
existing	-10.1953
Children	-10.1954
Renderer	-10.1969
u	-10.1982
anchor	-10.1999
PREFIX	-10.2004
getText	-10.2014
Match	-10.2024
endOffset	-10.2025
extract	-10.2027
Only	-10.203
Timestamp	-10.2042
ItemLocalService	-10.2067
Process	-10.2086
If	-10.211
StringBuilder	-10.2112
TextRange	-10.2125
As	-10.2126
executor	-10.2166
columns	-10.2171
accessor	-10.2176
resolved	-10.2179
Language	-10.2188
Columns	-10.2196
Indexable	-10.2212
Execution	-10.2227
returnValue	-10.2245
host	-10.2245
reset	-10.2248
Lock	-10.2259
Extension	-10.227
Pointer	-10.2283
identity	-10.2327
calendar	-10.2331
getClass	-10.234
equalTo	-10.2359
Without	-10.2361
Matcher	-10.2378
initial	-10.2379
Configurable	-10.238
float	-10.2393
Failure	-10.2397
Entries	-10.2406
getKey	-10.2433
merge	-10.2447
partition	-10.247
save	-10.2493
price	-10.2504
trace	-10.2504
commerceShipping	-10.2505
Width	-10.2511
comment	-10.2513
transaction	-10.2521
prev	-10.2527
Join	-10.253
resolver	-10.2531
Changes	-10.2562
Connector	-10.2572
Permission	-10.2586
Script	-10.2624
ItemPersistence	-10.2626
Owner	-10.2626
it	-10.2632
At	-10.2636
Serializer	-10.2658
startTime	-10.268
setup	-10.2691
Pair	-10.2718
lookup	-10.2723
PaginationFindBy	-10.2726
ERROR	-10.273
SQLException	-10.2758
httpServlet	-10.276
snapshot	-10.2816
commerceOrderId	-10.2823
Copy	-10.2824
matcher	-10.2827
Converter	-10.2829
Deployment	-10.2836
arg	-10.2848
job	-10.285
Binding	-10.2856
Iterable	-10.2868
RelPersistence	-10.2878
Alias	-10.2883
Button	-10.2889
False	-10.2891
virtualFile	-10.2895
Xml	-10.29
Handle	-10.2922
Shard	-10.2959
Interval	-10.2959
part	-10.2973
Support	-10.2982
Null	-10.2996
directory	-10.2998
opc	-10.3013
un	-10.3022
Limit	-10.3027
doTest	-10.3042
Title	-10.3045
Armenian	-10.3047
DATE	-10.305
obj	-10.3053
M	-10.307
PriceEntry	-10.3078
split	-10.3098
Get	-10.3101
DataSize	-10.3127
CACHE	-10.3128
CPTaxCategory	-10.3143
Hash	-10.3144
GetterFunction	-10.3146
wrap	-10.3157
Localization	-10.3159
now	-10.316
timestamp	-10.3171
Library	-10.3173
VARCHAR	-10.3184
member	-10.3223
dependency	-10.3237
layout	-10.3242
Instruction	-10.3303
Server	-10.3312
Kind	-10.3322
operator	-10.3347
dot	-10.3362
json	-10.3366
ORDER	-10.3398
persist	-10.341
Queue	-10.342
Role	-10.3445
place	-10.3453
Check	-10.3454
Inspection	-10.3457
commit	-10.3462
Not	-10.3472
arguments	-10.3483
WithDynamicQuery	-10.3492
keywords	-10.3495
role	-10.3505
IndexMetadata	-10.3531
convert	-10.3549
Future	-10.3561
as	-10.3575
CPDefinitionLink	-10.359
exchange	-10.3599
getCommerceOrder	-10.3609
myFile	-10.3621
LINE	-10.3624
DATA	-10.3635
CPOptionValue	-10.3658
getDefault	-10.3673
addAll	-10.3677
code	-10.368
em	-10.3682
Fragment	-10.3683
CharSequence	-10.3688
Mock	-10.3691
keyspace	-10.3695
MetaData	-10.37
Duration	-10.3717
tab	-10.3721
initializer	-10.3721
Int	-10.3733
ContainerUtil	-10.3744
Thai	-10.375
inner	-10.3768
Custom	-10.378
Delete	-10.3782
liferay	-10.3783
Current	-10.3788
Hint	-10.3813
myCurrent	-10.3833
myIs	-10.384
clearCache	-10.3842
XContentBuilder	-10.3848
sku	-10.3851
port	-10.388
Registration	-10.388
OBJECT	-10.3883
Add	-10.3883
myModule	-10.3887
argument	-10.3903
no	-10.3911
sstable	-10.3916
primaryKey	-10.3917
Contract	-10.3955
Paths	-10.3966
OrderPayment	-10.3983
Variables	-10.3998
subscription	-10.3998
insert	-10.3999
Between	-10.4005
rows	-10.4009
TestUtil	-10.4026
SqlBaseParser	-10.407
pos	-10.4073
Authentication	-10.4074
marker	-10.4087
AccountRel	-10.4088
rs	-10.4092
Non	-10.4094
indicator	-10.4095
ventoryWarehouse	-10.4109
commerceRegion	-10.4114
Interceptor	-10.4128
RelLocalService	-10.4153
cpOption	-10.4159
persister	-10.4163
Interface	-10.4164
artifact	-10.417
Compiler	-10.419
open	-10.4193
Arabic	-10.4219
CommerceRegion	-10.4222
cacheResult	-10.4232
script	-10.4233
methodName	-10.4235
Tasks	-10.4249
Diff	-10.4251
or	-10.4263
allow	-10.4291
SimpleAttribute	-10.4295
Operations	-10.4296
Controller	-10.43
1000	-10.4336
Loader	-10.4342
clip	-10.4353
StringUtil	-10.4366
dataContext	-10.4377
Write	-10.4378
timeout	-10.4379
consumer	-10.438
res	-10.4382
Validator	-10.4388
dataSource	-10.4399
psi	-10.4403
future	-10.4413
HttpServlet	-10.442
caret	-10.445
CONTEXT	-10.4461
rule	-10.4465
delivery	-10.4472
server	-10.4507
UserPersistence	-10.4514
cpOptionValue	-10.453
setName	-10.455
12	-10.4553
Read	-10.4558
cpOptionCategory	-10.4564
CommerceS	-10.4577
q	-10.4603
Folder	-10.4609
ON	-10.4614
OSGiService	-10.4627
Signature	-10.463
databaseName	-10.4639
lock	-10.4648
stop	-10.4662
getAttribute	-10.4664
|	-10.4684
refresh	-10.4689
env	-10.4696
plugin	-10.4714
TimeValue	-10.4715
Scheme	-10.4739
EXPRESSION	-10.4741
AppBuilderApp	-10.4745
Popup	-10.475
commerceS	-10.475
Single	-10.4752
Package	-10.4765
should	-10.4768
positionCount	-10.4773
assertNotNull	-10.479
userName	-10.4824
pMeasurementUnit	-10.4825
Remote	-10.484
make	-10.4841
Validation	-10.4843
configure	-10.4854
Channel	-10.4873
Left	-10.4875
Comment	-10.488
cpDisplayLayout	-10.489
Usages	-10.4895
sCount	-10.4899
10	-10.4908
Selector	-10.4919
Greek	-10.4932
TIMEOUT	-10.4955
compare	-10.4968
finderPathCount	-10.497
BeanDefinition	-10.4982
Right	-10.4997
Doc	-10.5029
Sdk	-10.5036
skip	-10.5037
TreeNode	-10.5046
getElement	-10.5068
Adapter	-10.5095
findByPrimaryKey	-10.5102
Nls	-10.5111
callback	-10.5114
OrganizationRel	-10.5115
Presentation	-10.5132
FACTORY	-10.5136
FLAG	-10.5137
dispose	-10.5138
createDate	-10.5161
SearchResponse	-10.5171
Mapper	-10.5172
11	-10.5192
primary	-10.5199
LOGGER	-10.522
ItemFinder	-10.5242
SessionFactory	-10.5251
Caret	-10.5283
ServiceName	-10.5286
Job	-10.5289
order	-10.5304
Allocator	-10.5305
Common	-10.5307
Sub	-10.5309
getClassName	-10.531
aggregation	-10.5323
names	-10.5349
tasks	-10.5352
Ranges	-10.5381
OF	-10.5393
LONG	-10.5394
getMessage	-10.5402
ly	-10.5403
getAll	-10.5425
Window	-10.5428
Max	-10.5434
CPOption	-10.5439
JPanel	-10.5446
Format	-10.545
Details	-10.5462
Attachment	-10.5474
PROPERTY	-10.5478
w	-10.549
msg	-10.5502
TextAttributes	-10.5513
label	-10.5517
panel	-10.5518
portal	-10.552
flush	-10.5535
Identity	-10.554
step	-10.5566
indexMetadata	-10.5567
ING	-10.5571
destination	-10.5574
AccountEntry	-10.5577
substitutor	-10.5585
myTree	-10.559
Ex	-10.5616
SESSION	-10.5632
UNKNOWN	-10.5655
Image	-10.5663
cpDefinitionLink	-10.5668
password	-10.5676
top	-10.568
Subscription	-10.5687
SPACE	-10.5697
vcs	-10.57
columnBitmask	-10.5722
Items	-10.5727
compute	-10.5744
candidate	-10.575
SECURITY	-10.5759
WarehouseItem	-10.5773
selection	-10.5774
Continue	-10.5776
Constraint	-10.5777
fileName	-10.5779
authentication	-10.5783
commerceCurrency	-10.5796
beanName	-10.5798
ER	-10.5805
Argument	-10.5815
SELECT	-10.5819
record	-10.5829
Unicode	-10.5839
endpoint	-10.585
plan	-10.585
elementType	-10.5851
Vcs	-10.5853
commerceContext	-10.5854
signature	-10.5855
classLoader	-10.5861
myName	-10.5864
singleton	-10.5874
Indent	-10.5875
util	-10.5875
Maven	-10.5876
Static	-10.5879
ListAccountRel	-10.5881
modifiedDate	-10.5882
mark	-10.5884
Height	-10.5886
internal	-10.5891
Aware	-10.5903
ChannelRelFinder	-10.5904
TaxFixedRate	-10.5906
getUser	-10.5914
Return	-10.5915
st	-10.5942
END	-10.5958
allocation	-10.5961
warn	-10.5964
TAG	-10.5965
finderCache	-10.599
pair	-10.5993
Engine	-10.6004
MIN	-10.6013
UserLocalService	-10.6032
policy	-10.6045
FilePath	-10.6062
SuppressWarnings	-10.6067
cause	-10.6071
each	-10.6084
CPDefinitionId	-10.609
render	-10.6093
kana	-10.6102
Commit	-10.6118
entityName	-10.6125
MethodHandler	-10.6129
psiElement	-10.6134
fragment	-10.6137
getInteger	-10.614
application	-10.6141
Part	-10.6142
language	-10.6145
LEFT	-10.6157
Getter	-10.6168
SuperExpression	-10.6176
Stack	-10.6181
Plan	-10.6182
TableHandle	-10.6187
flags	-10.6212
Hibernate	-10.6219
Expr	-10.6227
Highlighter	-10.6253
Extractor	-10.6266
Allowed	-10.627
PATTERN	-10.6274
Body	-10.6278
Runner	-10.6286
ThreadPool	-10.6296
Aliases	-10.6301
ResultSet	-10.6307
myRoot	-10.6317
USE	-10.6318
operand	-10.6321
Arguments	-10.6327
custom	-10.633
FileType	-10.634
Mappings	-10.6343
EDITOR	-10.6343
extension	-10.6345
Port	-10.6346
mapper	-10.6347
INT	-10.6353
Next	-10.6354
getDescription	-10.6354
weight	-10.6354
AccessControl	-10.6355
getFile	-10.6363
queue	-10.6367
menu	-10.6375
Split	-10.6389
failure	-10.6398
Resolution	-10.6409
Composite	-10.6409
Person	-10.6428
Bounds	-10.6431
slice	-10.6431
Json	-10.6447
sessionFactory	-10.6452
NULL	-10.6454
PlanNode	-10.6469
IllegalArgument	-10.6473
containingClass	-10.6479
instruction	-10.6482
ToolWindow	-10.6483
AccountGroup	-10.6493
tz	-10.6496
Cluster	-10.6509
main	-10.6514
when	-10.6517
Dimension	-10.6523
createColumn	-10.6534
Checker	-10.6548
buf	-10.6559
Nested	-10.6563
fieldType	-10.6567
idx	-10.6569
remote	-10.657
ListChannelRel	-10.6572
AND	-10.658
listeners	-10.659
Merge	-10.6591
decimal	-10.6596
HashSet	-10.6604
Char	-10.6607
bind	-10.6614
Problem	-10.6614
Tab	-10.6616
CProduct	-10.6629
cProduct	-10.6635
uri	-10.6639
Terminal	-10.6639
color	-10.664
endTime	-10.6649
Transform	-10.6674
Processing	-10.669
QUERY	-10.67
When	-10.6717
batch	-10.6718
PathAddress	-10.6726
indent	-10.6744
Select	-10.6748
ALIAS	-10.676
myContext	-10.6766
sdk	-10.6784
rogressIndicator	-10.6786
Sequence	-10.6796
frame	-10.6798
Bytecode	-10.6808
descriptionMap	-10.6821
JSON	-10.6827
proxy	-10.6831
perform	-10.6831
ranges	-10.6833
force	-10.6833
keys	-10.6835
UserId	-10.6839
FileEntryFinder	-10.684
constructor	-10.6867
findByGroupId	-10.6873
XML	-10.6874
required	-10.6892
setUp	-10.6893
Aggregator	-10.69
can	-10.6907
Required	-10.6923
Headers	-10.6923
fileType	-10.6926
removeAll	-10.6936
INTEGER	-10.6947
latch	-10.6947
Term	-10.6958
xml	-10.6958
ASTNode	-10.6964
32	-10.6973
MODULE	-10.6977
Listeners	-10.6982
EXCEPTION	-10.699
One	-10.7008
Missing	-10.7009
PriceModifier	-10.7011
down	-10.7022
isEqualTo	-10.7023
Math	-10.7035
FILTER	-10.706
ROOT	-10.7061
ListCommerce	-10.7064
Atomic	-10.7069
Selected	-10.7071
interval	-10.7074
depth	-10.7074
ConnectorSession	-10.7078
library	-10.7103
Re	-10.7115
print	-10.7115
Roots	-10.7141
terminal	-10.7149
Safe	-10.715
ListDiscountRel	-10.7163
not	-10.7182
calendarId	-10.7193
XContentParser	-10.7197
chunk	-10.72
H	-10.7204
Progress	-10.7208
attributeName	-10.7217
cached	-10.7219
Args	-10.7225
OutputStream	-10.723
Groovy	-10.7234
serviceTracker	-10.7251
Invalid	-10.7255
Pool	-10.7258
re	-10.7265
Phase	-10.7269
Shards	-10.7272
FUNCTION	-10.7281
Random	-10.7286
asList	-10.729
Filters	-10.7291
date	-10.7292
Multi	-10.7294
Open	-10.7296
SetterBiConsumer	-10.7302
es	-10.733
zz	-10.7332
OPERATION	-10.7342
Sql	-10.7349
clone	-10.7356
isValid	-10.736
maximum	-10.7363
rev	-10.7369
updateCommerce	-10.7373
assignment	-10.7378
14	-10.7396
valueOf	-10.7399
shards	-10.7403
conf	-10.7405
window	-10.7411
13	-10.7416
USER	-10.7422
OR	-10.7432
numberOf	-10.7459
InBytes	-10.7463
Profile	-10.7465
Memory	-10.7471
Member	-10.7473
getPath	-10.7473
dsl	-10.7482
continue	-10.7512
Setup	-10.7512
updated	-10.7516
unit	-10.752
Refresh	-10.7527
Binary	-10.7527
Soap	-10.7528
getCommercePrice	-10.7535
writeTo	-10.7538
raw	-10.7543
tableHandle	-10.755
getCPInstance	-10.7551
ATTR	-10.7551
Tuple	-10.7561
Frame	-10.7575
nested	-10.7575
predicate	-10.7576
Constraints	-10.7586
scale	-10.7604
Available	-10.7614
subscriptionType	-10.7622
PsiReference	-10.7625
CommerceIn	-10.7646
items	-10.7658
BlogsEntry	-10.7661
ModelImpl	-10.7662
enable	-10.7665
Archive	-10.7685
merceDiscountId	-10.7688
filePath	-10.769
environment	-10.7717
changes	-10.7721
finish	-10.7724
methodCall	-10.7739
Expected	-10.7759
Revision	-10.7772
myFixture	-10.778
Create	-10.778
presentation	-10.7781
street	-10.779
CPD	-10.779
Un	-10.7802
Timer	-10.7813
Sort	-10.7817
FOR	-10.7823
ItemService	-10.7824
NUMBER	-10.7832
point	-10.7834
TEXT	-10.7837
Link	-10.7842
non	-10.7844
Branch	-10.7856
TestBean	-10.7864
CommercePricing	-10.7866
global	-10.7868
STATE	-10.7871
definition	-10.7881
deploymentUnit	-10.7884
indexSettings	-10.7901
Record	-10.7902
Bound	-10.7906
Constant	-10.7912
transform	-10.7925
Equals	-10.7939
Encoding	-10.7947
vFile	-10.7949
progress	-10.7961
getC	-10.7961
Lifecycle	-10.7962
getCurrent	-10.7972
DiscountAmount	-10.7973
countByC	-10.7976
Millis	-10.7977
inside	-10.7989
transportService	-10.7989
SOURCE	-10.7993
Management	-10.8008
Category	-10.8011
cell	-10.8016
Stub	-10.8026
tx	-10.8035
tokens	-10.8039
getData	-10.8044
limitationTimes	-10.8051
paint	-10.8054
BlockBuilder	-10.8054
Account	-10.8062
Price	-10.8062
myText	-10.8067
Chain	-10.8073
Host	-10.8076
QueryBuilder	-10.8093
waitFor	-10.8095
Terms	-10.8102
getComponent	-10.8133
toXContent	-10.8139
substring	-10.8146
Failed	-10.8151
STORE	-10.8153
Rows	-10.8155
limit	-10.8166
AnAction	-10.8175
currentFieldName	-10.8198
Closure	-10.8203
setUser	-10.8211
generator	-10.8225
EntityManager	-10.8233
CODE	-10.8241
mySettings	-10.8243
Threshold	-10.8251
Remove	-10.8251
discount	-10.8266
usages	-10.827
runnable	-10.8283
promoPrice	-10.8311
Chunk	-10.8317
ch	-10.8318
ATTRIBUTES	-10.8326
Charset	-10.8346
DiscoveryNode	-10.836
declaration	-10.8373
COLUMNS	-10.8405
myLast	-10.8418
identifier	-10.8424
Information	-10.8428
classes	-10.843
targetClass	-10.8435
DataSource	-10.8439
START	-10.8463
SET	-10.8468
Import	-10.8472
CONFIG	-10.8475
Git	-10.8491
getGroupId	-10.8495
WHERE	-10.8498
category	-10.8502
PriceModifierRel	-10.8513
Cast	-10.8513
ONE	-10.8529
indexOf	-10.8539
Infos	-10.8544
searchResponse	-10.8556
comparator	-10.8558
Global	-10.8564
myType	-10.8577
Storage	-10.8585
GET	-10.8585
Visible	-10.861
term	-10.8611
len	-10.8615
Transformer	-10.8618
dependencies	-10.8619
hot	-10.8622
Generic	-10.8623
NODE	-10.8636
calendarResource	-10.8641
Load	-10.8645
UI	-10.8646
returnType	-10.8647
Exists	-10.8648
XmlTag	-10.8651
Accessor	-10.8651
searchContext	-10.8652
Lines	-10.8656
Float	-10.8665
assetListEntry	-10.8672
STATUS	-10.8679
ERC	-10.8682
forEach	-10.8686
Active	-10.8691
kind	-10.8697
Dynamic	-10.8697
RIGHT	-10.8702
getIndex	-10.8707
&	-10.8711
HighlightInfo	-10.8712
hint	-10.8716
profile	-10.872
notification	-10.8727
Analyzer	-10.8734
Background	-10.8746
PsiMethodCall	-10.8747
Delegate	-10.8747
Started	-10.875
myDocument	-10.8759
Allocation	-10.8777
operations	-10.8798
Candidate	-10.8808
IntentionAction	-10.8811
cpd	-10.8811
20	-10.8816
GroupId	-10.8818
Var	-10.882
calculate	-10.882
Multiple	-10.883
desc	-10.8831
Up	-10.8835
transient	-10.8837
IS	-10.8838
lambda	-10.8852
buckets	-10.8861
Password	-10.8871
Replenishment	-10.8876
self	-10.8877
getDocument	-10.8885
W	-10.8891
Initialized	-10.8899
PsiVariable	-10.8903
entrySet	-10.8907
diff	-10.8912
DateTime	-10.8917
reason	-10.8918
Services	-10.8921
History	-10.8924
Graphics	-10.893
ISO	-10.8938
RemoteException	-10.8941
usage	-10.8941
LENGTH	-10.8945
ut	-10.8952
Updater	-10.8959
revision	-10.8959
setClassName	-10.8966
FromText	-10.8972
charset	-10.8973
POS	-10.8983
RowExpression	-10.8984
SERVER	-10.8992
Geometry	-10.8997
Style	-10.9
transactionId	-10.9008
Lambda	-10.9015
getChildren	-10.9019
columnIndex	-10.9024
olumnFamilyStore	-10.9039
Inner	-10.9045
getProperty	-10.9058
Managed	-10.9083
kernel	-10.9092
ouponCode	-10.9093
option	-10.91
Standard	-10.9103
Move	-10.9107
merged	-10.9108
Leaf	-10.9113
matches	-10.9127
trigger	-10.9131
OUT	-10.9133
QueryUtil	-10.9134
compile	-10.9134
defaultValue	-10.9138
Evaluator	-10.914
ColumnNames	-10.9143
ct	-10.9144
breakpoint	-10.9156
replacement	-10.9169
src	-10.9171
themeDisplay	-10.9174
etchByPrimaryKey	-10.918
destroy	-10.9185
Invocation	-10.9193
FactoryUtil	-10.92
STATIC	-10.9205
removeByC	-10.9205
spec	-10.9214
pointer	-10.922
getOriginal	-10.9224
Formatter	-10.9226
criteria	-10.9233
transport	-10.9239
createQuery	-10.924
scheme	-10.9249
getLong	-10.9253
groupIds	-10.9256
UN	-10.9258
Immutable	-10.9274
setCPInstance	-10.93
BookedQuantity	-10.9303
Variant	-10.933
single	-10.9339
KEYWORD	-10.934
PriceEntryId	-10.9344
Wrap	-10.9366
Inject	-10.9369
Shift	-10.937
ShardId	-10.9391
Font	-10.9392
methods	-10.9415
Persistent	-10.9416
ensure	-10.9434
execution	-10.9434
TableMetadata	-10.9435
Enum	-10.9443
ADDRESS	-10.945
visible	-10.9454
ckg	-10.9459
zip	-10.9464
expandoRow	-10.9465
currentState	-10.9473
TIMESTAMP	-10.9484
blockBuilder	-10.9495
myState	-10.9505
Namespace	-10.9511
RoutingTable	-10.9514
Nanos	-10.9527
BITMASK	-10.9535
nameMap	-10.9538
Messages	-10.9545
Plugins	-10.9548
Core	-10.9554
BEFORE	-10.9573
registry	-10.9576
Cached	-10.9583
Resources	-10.96
Border	-10.9604
link	-10.962
deployment	-10.9628
tail	-10.9631
and	-10.9636
getResource	-10.9639
Domain	-10.9647
newName	-10.9652
patch	-10.9653
Modules	-10.9654
highlight	-10.9655
Elasticsearch	-10.967
getString	-10.9676
Named	-10.9678
Web	-10.968
23	-10.969
schedule	-10.969
fs	-10.9692
number	-10.9694
supports	-10.9708
leaf	-10.9712
21	-10.9729
PAGINATION	-10.9733
Templates	-10.9736
SearchRequest	-10.9738
LOCAL	-10.9745
send	-10.9749
Insert	-10.9762
entries	-10.9762
compareTo	-10.9776
Graph	-10.9778
restore	-10.9782
extAttributesKey	-10.9791
Prepared	-10.9791
simple	-10.9793
onFailure	-10.9804
Metrics	-10.9807
Implementation	-10.9809
font	-10.982
actions	-10.9822
CalendarResource	-10.9831
Segment	-10.9837
toArray	-10.9846
Comparison	-10.9846
paths	-10.985
Incorrect	-10.9852
strategy	-10.9863
phase	-10.9871
suffix	-10.9871
origin	-10.9875
Hierarchy	-10.9876
consumeToken	-10.9878
Refactoring	-10.9887
randomInt	-10.9888
Errors	-10.9894
temp	-10.9909
Flush	-10.9924
etModifiedDate	-10.9924
24	-10.9924
Run	-10.9933
positions	-10.9936
actionId	-10.9939
IGNORE	-10.9954
loader	-10.9958
access	-10.9961
setCommerceOrder	-10.9968
sTo	-10.9978
CONTENT	-10.9981
Groups	-10.9986
CommerceCurrency	-10.999
QueueEntry	-10.9992
Analysis	-10.9995
LanguageId	-11.0003
filters	-11.0011
controller	-11.0017
move	-11.0022
Down	-11.0028
Existing	-11.0044
getResult	-11.0048
PASSWORD	-11.0051
Classpath	-11.0054
getTransaction	-11.0073
Histogram	-11.0087
Symbol	-11.0087
Discovery	-11.0098
deleteCommerce	-11.0105
getMax	-11.0121
ResolveResult	-11.0124
mode	-11.0126
findByCommerce	-11.0127
found	-11.0135
ui	-11.0138
delta	-11.0145
Modifier	-11.0147
z	-11.0151
ShippingMethodId	-11.0153
Cursor	-11.0156
fill	-11.0157
22	-11.0158
Security	-11.0164
ubscriptionCycle	-11.0171
Sync	-11.0173
CreateDate	-11.0175
RESOURCE	-11.0176
cur	-11.0193
EmptyStatement	-11.02
Scheduled	-11.0205
testGet	-11.0207
CouponCode	-11.0207
sum	-11.0208
RequestBuilder	-11.0211
Def	-11.0214
Raw	-11.0219
db	-11.0223
JOIN	-11.0228
ReturnType	-11.0246
region	-11.0252
actionPerformed	-11.0257
meta	-11.0257
Requests	-11.0258
highlighter	-11.0263
at	-11.0264
accountEntry	-11.027
"]	-11.0275
Separator	-11.0275
short	-11.0278
parsed	-11.0281
image	-11.0285
merceOrderItemId	-11.0286
Tokens	-11.03
BLOCK	-11.0301
converter	-11.0301
Side	-11.0302
ShardRouting	-11.0303
Meta	-11.0304
REFERENCE	-11.031
Runtime	-11.0315
Added	-11.0317
getModel	-11.0323
COMMAND	-11.0325
hasNext	-11.0328
Html	-11.0329
VirtualSetting	-11.0331
Substitutor	-11.035
Space	-11.0361
Qualifier	-11.0363
etAddressAndPort	-11.0364
Components	-11.0372
cv	-11.038
bundle	-11.038
PsiSubstitutor	-11.0385
serialize	-11.0388
UsageEntry	-11.0392
full	-11.0404
IF	-11.0406
AccountGroupId	-11.0413
UCH	-11.0431
dialog	-11.0432
PER	-11.0436
BYTES	-11.0442
checkArgument	-11.0442
setId	-11.0443
fail	-11.0446
INTERVAL	-11.0449
SSL	-11.0457
install	-11.0457
graph	-11.0474
ctCollectionId	-11.0476
ToXContent	-11.0477
StreamInput	-11.0479
Searcher	-11.0488
replicas	-11.0497
RelService	-11.0498
getSelected	-11.0513
Codec	-11.0518
SERVICE	-11.0519
peer	-11.0535
ExecutorService	-11.0537
myModel	-11.0538
catalogName	-11.0538
STREAM	-11.0547
shift	-11.0563
Detector	-11.057
wrapper	-11.0571
PAGE	-11.0575
isSelected	-11.0578
Structure	-11.0588
Keyspace	-11.0588
Descriptors	-11.059
ip	-11.0595
Persister	-11.0598
LANG	-11.0599
Roles	-11.0608
":	-11.0609
CommercePayment	-11.061
push	-11.0611
ommerceAccountId	-11.0612
ActionGroup	-11.0625
Callable	-11.0632
published	-11.0635
countAll	-11.0635
DataContext	-11.0641
Driver	-11.0641
XContent	-11.0651
Portlet	-11.0658
Super	-11.0662
EJB	-11.0668
Gradle	-11.0674
symbol	-11.0683
Byte	-11.0688
io	-11.0691
PARAMETER	-11.0692
MESSAGE	-11.0695
Weight	-11.0695
post	-11.0698
Foo	-11.0705
Pre	-11.0706
NotePersistence	-11.0706
Section	-11.0709
deserialize	-11.0712
username	-11.0719
LookupElement	-11.0719
subtotal	-11.0722
initialize	-11.0726
getUserId	-11.074
cancel	-11.0742
AnActionEvent	-11.0746
Warning	-11.0748
Resolve	-11.0752
Factories	-11.0756
Jar	-11.0762
terms	-11.0771
thread	-11.0772
EstimateService	-11.0796
CLIENT	-11.0806
Idx	-11.0813
horizontal	-11.082
statements	-11.0821
shipping	-11.0822
getRoot	-11.0826
Queries	-11.0829
jar	-11.083
RE	-11.0831
MASK	-11.0835
Any	-11.0841
Sources	-11.0845
PsiTreeUtil	-11.0853
ImmutableMap	-11.087
SyncDLObject	-11.088
failed	-11.0892
Docs	-11.0898
addCommerce	-11.0901
Realm	-11.0902
columnName	-11.0907
WRAP	-11.0918
additional	-11.0919
KW	-11.0933
localDateTime	-11.0934
expressions	-11.0934
containsKey	-11.0942
bulk	-11.0948
myElement	-11.0959
ChangeListener	-11.0968
SubscriptionType	-11.097
getPrimaryKey	-11.0977
xContent	-11.098
EventListener	-11.0982
folderId	-11.0987
cast	-11.099
modifiers	-11.0999
BASE	-11.1
Matches	-11.1003
Close	-11.1004
POPUP	-11.1009
primaryKeys	-11.1015
NEW	-11.1016
HttpRequest	-11.102
indexShard	-11.1023
FileSystem	-11.1029
assetEntry	-11.1037
PsiClassType	-11.1039
threadContext	-11.1039
Arg	-11.1056
Replace	-11.1067
bound	-11.1067
DeploymentUnit	-11.1069
tableId	-11.1071
cs	-11.1073
Show	-11.1077
repositoryId	-11.1079
connector	-11.1094
Case	-11.11
lines	-11.1102
POOL	-11.1108
report	-11.1111
Breakpoint	-11.1116
maybe	-11.112
numDocs	-11.1122
repositories	-11.1123
Extra	-11.1127
upsert	-11.1134
Unknown	-11.1136
LanguageLevel	-11.1142
Binder	-11.1143
Fetch	-11.1156
Replica	-11.1157
errors	-11.1161
ignored	-11.1163
annotations	-11.1164
AtomicInteger	-11.117
Events	-11.1175
Basic	-11.1184
acut	-11.1191
getModelClass	-11.1197
getCompanyId	-11.1205
Features	-11.1211
moduleName	-11.1218
Place	-11.1218
dest	-11.122
firstReminder	-11.1228
Tool	-11.1231
40	-11.1233
Delay	-11.1245
titleMap	-11.1248
Alarm	-11.1254
fire	-11.1255
NON	-11.1258
getColumn	-11.1261
Patterns	-11.1267
UTIL	-11.1273
WarehouseId	-11.1274
Suffix	-11.1294
InventoryAudit	-11.1296
Destination	-11.1303
Dictionary	-11.1308
CREATE	-11.131
CPDefinitionRel	-11.1312
getChild	-11.1317
Directories	-11.1329
COLOR	-11.133
PROJECT	-11.1341
expectThrows	-11.1345
notify	-11.1359
AccountUserRel	-11.136
pre	-11.1364
imitationType	-11.1368
person	-11.1369
CONNECTION	-11.1371
startsWith	-11.1373
BookmarksFolder	-11.1379
system	-11.1382
ToUse	-11.1382
Indexes	-11.1395
advance	-11.1403
ColumnHandle	-11.1405
READ	-11.1405
objectOutput	-11.1406
Georgian	-11.1421
secondReminder	-11.1433
Complete	-11.1436
def	-11.1438
usePercentage	-11.1441
Threads	-11.1442
Cell	-11.1445
persistedModel	-11.1453
keySet	-11.1464
Flag	-11.1465
ExternalSystem	-11.1468
setText	-11.1469
getVersion	-11.1471
TypeManager	-11.1484
tb	-11.1488
ebrew	-11.1498
lineNumber	-11.15
VIEW	-11.1502
probe	-11.1507
AssetEntry	-11.1507
myDefault	-11.1523
RANGE	-11.1525
getState	-11.1539
impl	-11.1544
fix	-11.1549
Metric	-11.155
Servlet	-11.1564
calc	-11.1564
tracker	-11.1572
EP	-11.1581
Compaction	-11.1584
Final	-11.1585
Stage	-11.159
ir	-11.1595
portlet	-11.1598
myPanel	-11.1598
rename	-11.16
groups	-11.161
KP	-11.1611
Agg	-11.1614
iw	-11.1615
binding	-11.1616
getBoolean	-11.1634
pending	-11.1639
HEADER	-11.1642
myResult	-11.1643
Serialization	-11.1643
searcher	-11.1646
CommandLine	-11.1656
Form	-11.1659
namespace	-11.1665
UsageInfo	-11.1676
Lazy	-11.1686
STATEMENT	-11.1693
projection	-11.17
RETURN	-11.1723
FIRST	-11.1724
searchRequest	-11.1725
openSession	-11.1734
Certificate	-11.1739
Capacity	-11.1743
company	-11.1746
exists	-11.1749
analysis	-11.175
Aggregations	-11.1752
hql	-11.1754
countByUuid	-11.1757
candidates	-11.1758
superClass	-11.1767
Has	-11.1771
setValue	-11.1773
tokenType	-11.1776
tm	-11.1778
Op	-11.1781
TEMPLATE	-11.1792
literal	-11.18
cpInstanceId	-11.181
Criteria	-11.1812
sync	-11.1815
invalid	-11.1815
rewrite	-11.1822
Toolbar	-11.1822
Endpoint	-11.1833
Scroll	-11.1833
TableName	-11.1843
isEnabled	-11.185
ObjectName	-11.1853
Created	-11.1854
Reservation	-11.1854
qualifiedName	-11.186
AS	-11.1864
PsiUtil	-11.187
Generation	-11.1875
roots	-11.1875
BYTE	-11.1895
checker	-11.1897
SSTableReader	-11.1899
Disabled	-11.1901
getBean	-11.1907
missing	-11.1914
course	-11.1915
constraint	-11.193
gavin	-11.1935
FORMAT	-11.1941
TypeDescriptor	-11.195
MethodGroupRel	-11.1951
RuntimeException	-11.1955
Deletion	-11.1958
repoName	-11.1963
ANNOTATION	-11.1964
iter	-11.1968
OperatorFactory	-11.1969
Short	-11.1976
renderer	-11.1977
charAt	-11.1982
Init	-11.1983
REQUEST	-11.1983
quantity	-11.1983
Console	-11.1987
Valid	-11.1988
PowwowMeeting	-11.1991
AssetCategory	-11.1992
JPA	-11.1996
mappings	-11.1996
println	-11.2
TreePath	-11.2
actionable	-11.2001
disable	-11.2001
Primary	-11.2002
STRICT	-11.2008
TimeUnit	-11.201
targetType	-11.2023
optional	-11.2026
Edge	-11.2039
sCache	-11.2039
UPDATE	-11.2039
SearchResult	-11.2042
selector	-11.2045
addCommercePrice	-11.2046
KEYSPACE	-11.2046
getIcon	-11.2046
SegmentsEntryRel	-11.2047
Quantity	-11.2047
modules	-11.2049
ByUuidAnd	-11.2053
Distribution	-11.2054
Hive	-11.2059
aliases	-11.2071
tuple	-11.2086
Concurrent	-11.2087
prop	-11.2088
pc	-11.2096
ADD	-11.2099
METADATA	-11.2102
DECIMAL	-11.2105
Creator	-11.2109
Ignore	-11.2119
isNull	-11.2122
contentType	-11.2125
IndexName	-11.2126
SearchContext	-11.2139
up	-11.214
setDescription	-11.214
Jdbc	-11.2142
assertNull	-11.2145
RunConfiguration	-11.2145
expand	-11.2148
Per	-11.2154
Rewriter	-11.2159
languageId	-11.2163
COMPANY	-11.2163
sequence	-11.2163
browser	-11.2164
UTF	-11.2165
PsiField	-11.2179
Uri	-11.2182
ADDED	-11.2188
ImmutableSet	-11.2191
Loaded	-11.2193
FileName	-11.2194
THREAD	-11.2197
PsiManager	-11.2197
begin	-11.2198
Based	-11.22
getSource	-11.22
Unit	-11.22
ByteArray	-11.22
NoteLocalService	-11.2203
SharedSession	-11.221
StartOffset	-11.221
getFirst	-11.2215
schemaName	-11.2225
account	-11.2228
DOC	-11.2228
InProgress	-11.2229
nodeId	-11.2229
separator	-11.2232
policyName	-11.2235
Creation	-11.2237
release	-11.2239
inputStream	-11.2247
payload	-11.2249
_12	-11.2261
mouse	-11.2262
REF	-11.2265
Checked	-11.2268
Post	-11.2277
VirtualOrderItem	-11.2279
runner	-11.2288
displayName	-11.2289
PsiStatement	-11.2297
Mutable	-11.2302
processed	-11.2304
async	-11.2307
memory	-11.2312
Privileges	-11.2319
Finished	-11.2332
success	-11.2333
cls	-11.2339
DOMAIN	-11.2342
letPreferences	-11.2348
Catalog	-11.2351
ExpandoRow	-11.2351
containingFile	-11.2352
Used	-11.2353
scroll	-11.2354
Injection	-11.2356
App	-11.236
PropertiesSet	-11.2362
engine	-11.2373
exclude	-11.2378
beanFactory	-11.238
OptionRelId	-11.2389
BUFFER	-11.2392
shardRouting	-11.2403
Splitter	-11.2405
branch	-11.2407
MODEL	-11.2412
ComboBox	-11.2419
alendarBookingId	-11.2427
work	-11.2429
ret	-11.2434
getEditor	-11.2449
myVcs	-11.2455
stat	-11.2456
IndexShard	-11.2478
Jdk	-11.2493
myParent	-11.2499
FixedOptionRel	-11.2504
Highlight	-11.2507
throwable	-11.2509
ATION	-11.251
TYPES	-11.2512
exp	-11.2513
segment	-11.2514
MavenProject	-11.2518
Rest	-11.2518
Str	-11.2527
eq	-11.2534
myBuilder	-11.2543
Stop	-11.2544
JB	-11.2551
cleanup	-11.2553
JSONObject	-11.2561
stack	-11.2568
PK	-11.2568
dynamic	-11.2572
above	-11.2579
removeBy	-11.2581
Replicas	-11.2593
AFTER	-11.2596
SECOND	-11.2597
Artifacts	-11.26
userService	-11.2604
NAMES	-11.2607
Conversion	-11.261
myManager	-11.2614
Exceptions	-11.2618
Producer	-11.2624
ManagerImpl	-11.2628
head	-11.2629
pk	-11.2632
control	-11.2636
countBy	-11.2639
myComponent	-11.2641
setC	-11.2641
math	-11.2648
AssetEntryRel	-11.2649
PaginationFind	-11.2656
Patch	-11.2658
Priority	-11.2659
getStatus	-11.2662
decoder	-11.2662
by	-11.2669
Logging	-11.2678
side	-11.2682
Fixture	-11.2684
IfNeeded	-11.2696
HTTP	-11.2701
Interrupted	-11.2704
SSTable	-11.2705
Database	-11.2709
Qualified	-11.2715
myTarget	-11.2729
readOnly	-11.2729
chars	-11.2737
Failures	-11.2739
ChangeList	-11.2741
Contributor	-11.2742
valueType	-11.2742
trim	-11.2743
getModule	-11.2748
CountDownLatch	-11.2752
configurable	-11.2757
taskContext	-11.2758
NotFound	-11.2759
QualifiedName	-11.2759
Platform	-11.2763
fetchCommerce	-11.2775
Conflict	-11.2776
cmd	-11.2778
FileCollection	-11.2782
Num	-11.2788
CURRENT	-11.2796
MediaType	-11.2798
PsiDirectory	-11.2812
ACC	-11.2814
Watch	-11.2817
col	-11.282
hippingAddressId	-11.2837
License	-11.2839
myContent	-11.2842
MILLIS	-11.2845
MANAGER	-11.2845
pack	-11.2849
tool	-11.2864
TASK	-11.2868
Control	-11.2868
ObjectInspector	-11.2869
flow	-11.287
getTable	-11.2871
ProductPrice	-11.2872
Generated	-11.2885
CPInstanceFinder	-11.2887
Mutation	-11.2888
Scheduler	-11.2892
app	-11.2897
ColumnMetadata	-11.2908
Defaults	-11.2929
Resolved	-11.2937
BasePersistence	-11.2938
Visibility	-11.2941
filtered	-11.2944
city	-11.2946
getLast	-11.2947
resultSet	-11.295
Character	-11.2952
Partitioning	-11.2956
Export	-11.2962
COMMERCE	-11.2963
IllegalState	-11.2965
Setter	-11.2966
30	-11.2967
sorted	-11.2967
Present	-11.2975
upsertCommerce	-11.2981
analyzer	-11.2982
SizeInBytes	-11.299
Area	-11.299
BaseImpl	-11.2991
DIR	-11.2992
master	-11.2994
FileEntryService	-11.2996
Put	-11.3
packageName	-11.3009
infos	-11.3013
display	-11.3022
SEPARATOR	-11.3022
CHAR	-11.3034
Folding	-11.3038
OptionRelService	-11.3042
ByName	-11.3051
TRUE	-11.3063
Functions	-11.3068
binary	-11.3072
HttpResponse	-11.3074
geometry	-11.3081
owwowParticipant	-11.309
draw	-11.3093
HttpHeaders	-11.3095
SHOW	-11.3107
PRIMARY	-11.3108
closed	-11.311
Out	-11.3112
driverContext	-11.3116
Total	-11.3127
Given	-11.3131
removeByUuid	-11.3137
ToString	-11.3138
drop	-11.3149
MouseEvent	-11.3152
Functional	-11.3166
AttributeValue	-11.3182
realm	-11.3189
Work	-11.3191
rhs	-11.3193
Testing	-11.3198
LtD	-11.32
emptyList	-11.3204
commercePricing	-11.3212
multi	-11.3213
sFor	-11.3215
CodeStyleSetting	-11.322
offsets	-11.322
increment	-11.3222
parseFrom	-11.3232
indexer	-11.3234
IDENTIFIER	-11.3236
OptionService	-11.3239
subtotalDiscount	-11.325
FROM	-11.3258
Native	-11.3261
cf	-11.3263
newValue	-11.3265
override	-11.3266
BuildOperation	-11.327
PriceList	-11.327
effective	-11.3272
assetEntryQuery	-11.3275
mapperService	-11.3275
myValue	-11.3276
clustering	-11.3279
memState	-11.3291
AddressRel	-11.3296
Pending	-11.3305
primaryTerm	-11.3306
interceptor	-11.3307
Chooser	-11.3315
NaN	-11.3318
Deleted	-11.3319
ra	-11.3329
Same	-11.3336
domain	-11.3342
Configurator	-11.3344
Over	-11.3346
Removed	-11.3352
replica	-11.3353
isIn	-11.3355
protocol	-11.3364
Tables	-11.3367
ESTestCase	-11.337
BaseModel	-11.3375
Buckets	-11.3385
myShow	-11.3387
Edit	-11.3392
Caching	-11.3397
Main	-11.3397
Comments	-11.34
SchemaTable	-11.3402
powwowMeeting	-11.3411
ClusterService	-11.3412
KEEP	-11.3413
JsonSchema	-11.3416
serializer	-11.3418
PsiAnnotation	-11.3426
validation	-11.3432
Mark	-11.3433
lhs	-11.3433
REALM	-11.3446
legacy	-11.3449
roles	-11.3451
ommerceInventory	-11.3453
encode	-11.3453
setSelected	-11.346
ElementType	-11.3463
Preview	-11.3464
Identifiable	-11.3467
Inside	-11.3467
31	-11.3472
NEXT	-11.3473
Supported	-11.3474
JOB	-11.3478
_32	-11.3482
CF	-11.3482
fetchByG	-11.3487
routingTable	-11.3488
fromXContent	-11.3492
startLine	-11.3496
suggest	-11.35
CHECK	-11.3502
principal	-11.3504
Find	-11.3505
NUM	-11.3508
API	-11.351
DO	-11.3516
myDelegate	-11.3524
Decision	-11.3526
CommerceMoney	-11.3529
SearchScope	-11.3531
GroupedEntry	-11.3537
remaining	-11.3538
TransportService	-11.3538
Pipeline	-11.3548
Region	-11.3552
getStartOffset	-11.356
button	-11.3561
beginTransaction	-11.3568
changed	-11.3576
Locator	-11.3576
totalDiscount	-11.3577
OrderItem	-11.3586
Decoder	-11.3591
Full	-11.3603
indexId	-11.3605
getSettings	-11.3619
Scale	-11.3626
Regex	-11.3627
extra	-11.3632
MODE	-11.3633
descriptors	-11.3634
equal	-11.3635
Providers	-11.3635
SELECTION	-11.3652
RowCount	-11.3659
getNode	-11.366
SINGLE	-11.3666
pipeline	-11.3667
Recovery	-11.3668
columnNames	-11.367
invocation	-11.3671
dictionary	-11.3672
entityCache	-11.3673
sConjunction	-11.3678
34	-11.3681
recovery	-11.3695
Rect	-11.3696
Nullability	-11.3696
disposable	-11.37
Jvm	-11.3704
Old	-11.3707
Ui	-11.3711
Min	-11.3719
blogsEntry	-11.372
repo	-11.3721
PricingClass	-11.3722
sstables	-11.3726
expect	-11.3728
myClass	-11.3729
ids	-11.3737
Score	-11.3738
Plain	-11.3747
Positions	-11.3755
ColumnStatistics	-11.3759
Coordinator	-11.3763
cursor	-11.377
cl	-11.3775
sample	-11.3784
Parsed	-11.3784
ChannelRel	-11.3784
Projection	-11.3788
grid	-11.379
used	-11.3792
Translog	-11.3794
Alignment	-11.3799
tempDir	-11.3799
enrolment	-11.3801
Auto	-11.3802
Flags	-11.3804
XMLStream	-11.3807
DEPLOYMENT	-11.3808
fatal	-11.381
jdbc	-11.381
Rename	-11.3811
quote	-11.3811
sessionId	-11.3818
33	-11.3819
codec	-11.3832
Contains	-11.3833
startElement	-11.384
LIMIT	-11.384
Exchange	-11.3841
merceCurrencyId	-11.3843
routing	-11.3844
onResponse	-11.3844
UserService	-11.3845
Rules	-11.3852
pool	-11.3861
COMMENT	-11.3871
Depth	-11.3872
JavaPsiFacade	-11.3884
AccountRole	-11.3886
only	-11.3889
COLLECTION	-11.3895
Variants	-11.3907
PROP	-11.3907
Shown	-11.3911
PROVIDER	-11.3918
validator	-11.392
ACCESS	-11.3923
WithoutPagin	-11.3929
Daemon	-11.3934
Top	-11.3935
Relation	-11.3935
escape	-11.3944
Equivalent	-11.3948
findByCom	-11.3949
HiveClient	-11.3949
Matching	-11.3952
setPrimaryKey	-11.3954
TokenSet	-11.3954
evaluate	-11.3955
INITIAL	-11.3956
RangeMarker	-11.3959
Anchor	-11.3966
AtomicReference	-11.3967
ModelType	-11.3967
DomElement	-11.3968
problem	-11.3974
getP	-11.3977
shippingDiscount	-11.3978
any	-11.3986
pane	-11.399
Second	-11.3992
Pass	-11.3994
PropertyName	-11.4007
Mono	-11.4017
PROPERTIES	-11.4017
fileEntryId	-11.4033
OperationContext	-11.4039
portletData	-11.404
INFO	-11.4043
Capabilities	-11.4045
--	-11.4049
SETTINGS	-11.405
Auth	-11.4055
getOutput	-11.4057
Focus	-11.4061
Unique	-11.4064
closure	-11.4067
coordinator	-11.4072
collector	-11.4073
gc	-11.4073
ActionFuture	-11.4074
console	-11.4086
below	-11.4087
Summary	-11.4087
zzUnpack	-11.4092
Success	-11.4101
ColumnBitmask	-11.4102
ArrayUtil	-11.4114
AssetDisplayPage	-11.4118
sIn	-11.4118
free	-11.4121
Unsafe	-11.4122
decode	-11.4127
wrapped	-11.4131
Construct	-11.4135
getIndexable	-11.4139
Hg	-11.4153
chain	-11.4155
ICON	-11.4158
EndOffset	-11.4162
DELETE	-11.4167
Db	-11.4169
getSession	-11.4172
IT	-11.4177
completion	-11.4178
Word	-11.4181
mBits	-11.4181
fi	-11.4182
StreamOutput	-11.4186
SCHEMA	-11.4189
PathElement	-11.4191
modifier	-11.4192
managementClient	-11.4203
Addresses	-11.4206
AtomicLong	-11.4206
IndexSettings	-11.4207
formatter	-11.4207
duration	-11.4207
Highlighting	-11.4208
WRITE	-11.4209
Cleanup	-11.4209
LEVEL	-11.4217
initValue	-11.4217
metric	-11.4219
precision	-11.4227
Monitor	-11.423
Lexer	-11.4235
Using	-11.4236
dialect	-11.4238
Bind	-11.4241
storage	-11.4242
createTable	-11.4242
taskId	-11.4242
43	-11.4245
Stamp	-11.4251
en	-11.4252
Repositories	-11.4255
await	-11.4256
UserRel	-11.4256
commercePayment	-11.426
assetListEntryId	-11.4262
dead	-11.4263
sAre	-11.4266
tooltip	-11.4273
isInitialized	-11.4277
Legacy	-11.4281
expectedValues	-11.4285
Capability	-11.4285
subject	-11.4291
auth	-11.4295
serviceRegistry	-11.4299
getTime	-11.43
Permissions	-11.4306
appBuilderApp	-11.4309
Dialect	-11.4313
loop	-11.4314
PositionCount	-11.432
Decorator	-11.4323
ServiceRegistry	-11.4324
Replacement	-11.4327
DAY	-11.4339
getTarget	-11.4345
timer	-11.4346
Offsets	-11.4347
SSTables	-11.4349
folder	-11.4349
Handlers	-11.4354
Versions	-11.4355
expectedType	-11.4355
leader	-11.4357
REMOTE	-11.436
Delta	-11.4362
CLUSTER	-11.4364
compiler	-11.4365
choice	-11.4375
getObject	-11.4376
OUTPUT	-11.4391
Annotated	-11.4396
partitioning	-11.4402
Documentation	-11.4403
FieldMapper	-11.4404
space	-11.4407
Svn	-11.4423
PrimaryKeys	-11.4431
Rate	-11.4433
HOST	-11.4437
BLANK	-11.4447
distribution	-11.4448
EntityName	-11.445
MAPPING	-11.446
notNull	-11.4461
getter	-11.4463
ResolvableType	-11.4468
CTCollection	-11.4474
VARIABLE	-11.4475
Blob	-11.4483
nfigurationEntry	-11.4486
Protocol	-11.4486
features	-11.4487
Watcher	-11.4487
Found	-11.449
Explicit	-11.4492
AssetCategoryRel	-11.4494
Home	-11.4494
assertSame	-11.4497
Preferences	-11.4498
ejb	-11.4515
FORMATTER	-11.452
BigInteger	-11.4526
ConnectorId	-11.4527
hook	-11.4531
OPEN	-11.4541
SEARCH	-11.4541
Insets	-11.4545
requestId	-11.455
RequestOptions	-11.455
accountEntryId	-11.4553
psiMethod	-11.4555
ts	-11.4563
MethodHandle	-11.4563
objectInput	-11.4567
require	-11.4567
ExtensionPoint	-11.4573
ByCompanyId	-11.4574
Configurations	-11.4576
Exact	-11.4581
tearDown	-11.4583
CheckBox	-11.4592
ParentOfType	-11.4593
MLExtendedStream	-11.4595
TARGET	-11.4595
Feature	-11.4597
OPTIONS	-11.4602
getContext	-11.4603
FileUtil	-11.4605
dep	-11.4606
Indexed	-11.4606
Channels	-11.4606
GroupCommerce	-11.4608
44	-11.4619
was	-11.4621
AT	-11.4624
FileEditor	-11.4625
DisplayContext	-11.4628
BytesReference	-11.4641
Sample	-11.4651
Rt	-11.4662
aggregations	-11.4675
determine	-11.4679
Executable	-11.468
startIndex	-11.4683
ENTRY	-11.4694
helper	-11.4694
given	-11.4704
Ignored	-11.4711
_14	-11.4714
OP	-11.4719
Synchronization	-11.472
Span	-11.4722
QueryPos	-11.4728
Modification	-11.4729
ActionRequest	-11.4729
sWith	-11.4729
grave	-11.4742
OAuthApplication	-11.4742
setting	-11.4742
Spaces	-11.4743
Amazon	-11.4743
Debugger	-11.4748
Snapshots	-11.4752
LinkPersistence	-11.4752
ommerceCountryId	-11.4752
Facet	-11.4755
LogFactory	-11.4759
_13	-11.4764
KeyStore	-11.4768
thenReturn	-11.4768
ResourceBundle	-11.477
DataStream	-11.4771
Blocks	-11.4775
resolveResult	-11.4784
sources	-11.4786
getContent	-11.4787
OPTION	-11.4802
typeName	-11.4802
product	-11.4804
localDate	-11.4811
myView	-11.4816
outer	-11.4818
focus	-11.4821
ONLY	-11.4822
APPLICATION	-11.4827
Manifest	-11.483
Instant	-11.4831
native	-11.4835
Inline	-11.4835
Aggregate	-11.4841
SNAPSHOT	-11.4845
getLogger	-11.4849
LinkLocalService	-11.4851
myTable	-11.4851
Execute	-11.4864
lang	-11.4866
getCPTaxCategory	-11.4877
ES	-11.4879
SqlType	-11.4881
getAttributes	-11.4887
added	-11.4887
42	-11.4889
BatchSize	-11.4892
PropertyAccessor	-11.4893
instantiator	-11.4897
FixedOption	-11.49
unknown	-11.4907
sBy	-11.4908
Colors	-11.4911
maxS	-11.4912
Equal	-11.4915
entryId	-11.4921
HashCode	-11.4924
_1_0	-11.493
available	-11.4939
Debug	-11.495
setAttribute	-11.4951
Self	-11.4952
word	-11.4953
pass	-11.4966
TREE	-11.4968
Light	-11.4974
AndType	-11.4987
parameterTypes	-11.4989
XPath	-11.4989
Gadget	-11.5004
ImageSelector	-11.5006
Expand	-11.5016
stroke	-11.5034
Include	-11.5035
Writeable	-11.5041
textRange	-11.5044
Inference	-11.5049
Duplicate	-11.505
CPTaxCategoryId	-11.5054
pages	-11.5055
Payload	-11.5063
partitioner	-11.507
ByUuidAndGroupId	-11.5078
Bits	-11.5079
keyType	-11.5082
Repo	-11.5086
export	-11.5087
low	-11.5088
common	-11.509
Members	-11.5091
ermissionChecker	-11.5094
Bulk	-11.5098
SqlUpdate	-11.5104
Switch	-11.511
ByteSize	-11.5119
PartNumber	-11.5123
BEAN	-11.5124
Worker	-11.5125
details	-11.5129
constant	-11.5132
variant	-11.5133
CacheMode	-11.5135
Direct	-11.5136
MethodSignature	-11.5136
analyze	-11.5146
pression	-11.5156
Primitive	-11.5164
subsystem	-11.5165
ROW	-11.5166
PricingClassId	-11.5169
ValuesSource	-11.5173
DocumentManager	-11.5176
ele	-11.5179
ddmStructure	-11.5183
partial	-11.5183
Updated	-11.5188
tilde	-11.5189
encoder	-11.519
recurrence	-11.519
isStatic	-11.5192
Company	-11.5196
lower	-11.5198
SHORT	-11.5199
Scan	-11.52
Trigger	-11.5203
getCP	-11.5213
Dfa	-11.5218
Sku	-11.5222
targets	-11.5227
btree	-11.5232
ALLOW	-11.5238
AlphaOfLength	-11.5239
age	-11.5243
stub	-11.5244
ServiceWrapper	-11.5253
Orc	-11.5254
DESC	-11.5256
CONSTANT	-11.5258
manufacturer	-11.5261
COLON	-11.5261
TemplateId	-11.5261
SecurityDomain	-11.5262
Into	-11.5262
Disposer	-11.5265
valid	-11.5274
Loading	-11.5279
LocalQuickFix	-11.5287
DoWhileStatement	-11.5288
artifacts	-11.5289
INVALID	-11.5294
newInstance	-11.5297
Desc	-11.5309
Modified	-11.5309
complete	-11.5311
columnTypes	-11.5315
DataPoint	-11.5315
PyType	-11.5315
getNext	-11.5319
_24	-11.5325
Other	-11.5334
Use	-11.5334
exceptions	-11.534
jndiName	-11.5349
patterns	-11.5352
MBean	-11.5355
Enable	-11.5357
ingObjectParser	-11.5357
AMImageEntry	-11.5359
web	-11.5376
Merged	-11.5378
sign	-11.538
Requested	-11.5384
SourceRoot	-11.5385
Display	-11.5387
RestClient	-11.5387
mavenProject	-11.539
CASE	-11.5393
Tooltip	-11.5395
jsonObject	-11.5399
TOKEN	-11.5401
Master	-11.5402
upper	-11.5405
watch	-11.5405
Drop	-11.5414
setCPTaxCategory	-11.5417
getDisplayName	-11.5423
CellRenderer	-11.5425
Two	-11.5427
Val	-11.5427
Facade	-11.5427
createTest	-11.5431
escapedModel	-11.5433
ReadOnly	-11.5435
agg	-11.5438
setDefault	-11.5441
OFFSET	-11.5443
mySelected	-11.5446
createFile	-11.5453
Wildcard	-11.5458
oldValue	-11.5466
temporal	-11.5467
PARTITION	-11.5467
Forward	-11.5469
getQuery	-11.5471
INPUT	-11.5471
facet	-11.5472
NativeQuery	-11.5473
Balloon	-11.5474
orderDate	-11.5475
COMMA	-11.5477
myData	-11.5479
findModel	-11.548
gtin	-11.5483
Javadoc	-11.5485
41	-11.5499
binder	-11.5499
Bar	-11.5499
Hints	-11.5504
ps	-11.5511
MockHttpServlet	-11.5511
same	-11.5512
Release	-11.5515
SYSTEM	-11.5528
onedDateTime	-11.5529
addTo	-11.5531
getInt	-11.5531
TAB	-11.5534
MATCH	-11.5534
MethodKey	-11.5539
ingestDocument	-11.5541
_23	-11.5542
attr	-11.5542
ROLE	-11.5542
DB	-11.5546
Extensions	-11.5547
ServiceTracker	-11.5558
ero	-11.5559
Latch	-11.5559
excluded	-11.5565
pluginId	-11.5568
FALSE	-11.5569
FAILED	-11.5569
relativePath	-11.557
mask	-11.5576
EngineExportTask	-11.5582
parentCom	-11.5586
initialConfig	-11.5587
serviceName	-11.5596
purchas	-11.5598
oneId	-11.5606
PriceModifierId	-11.5606
PortletURL	-11.5607
TreeModel	-11.5619
setCommercePrice	-11.5622
OfType	-11.5624
bf	-11.5627
ransactionHandle	-11.5627
checksum	-11.5629
ITEM	-11.5629
FileEntryId	-11.5632
PORT	-11.5633
Libraries	-11.5635
Mask	-11.5638
getVirtualFile	-11.5639
Sorted	-11.5641
EQ	-11.5646
are	-11.5657
endLine	-11.5661
LOCK	-11.5662
hit	-11.5663
Initialization	-11.5664
Parse	-11.5666
gradle	-11.5669
Ejb	-11.5671
Origin	-11.5676
HASH	-11.569
STATISTICS	-11.5691
Implicit	-11.5696
edge	-11.5698
metrics	-11.5704
operatorContext	-11.5707
LINES	-11.5715
Verification	-11.5719
QName	-11.572
Fast	-11.5721
createChild	-11.5731
psiAnnotation	-11.5732
queryRunner	-11.5737
relation	-11.574
Exit	-11.5763
Replication	-11.577
GROUPID	-11.5772
md	-11.5772
This	-11.5779
EntityPersister	-11.578
components	-11.5784
minimum	-11.5785
style	-11.5789
ModuleComponent	-11.5793
myList	-11.5797
Acknowledged	-11.5797
Compression	-11.5805
BlogsStatsUser	-11.5809
Reason	-11.5815
buildPages	-11.5817
StepKey	-11.5819
ds	-11.5821
annotated	-11.5821
parentC	-11.5825
getTitle	-11.583
Indexer	-11.5831
activate	-11.5837
Injector	-11.5839
EngineImportTask	-11.5848
qName	-11.585
Shortcut	-11.585
tableMetadata	-11.5854
soapModel	-11.5857
ks	-11.5863
Struct	-11.5873
UIUtil	-11.5876
Keyword	-11.5877
LEGACY	-11.588
PUBLIC	-11.588
FIELDS	-11.5886
removed	-11.5889
Shared	-11.5895
getSize	-11.5895
Closed	-11.5898
lexer	-11.5901
ReturnValue	-11.5914
DefaultMutable	-11.5918
Trace	-11.5923
CommerceTax	-11.5924
Registrar	-11.5928
Evaluation	-11.593
Routing	-11.5935
Parameterized	-11.5936
Keymap	-11.5937
driver	-11.5941
TaskId	-11.5946
dfa	-11.595
Called	-11.595
Pages	-11.5952
ListLocalService	-11.5953
requested	-11.5955
getContainingFil	-11.5964
purchaseOrder	-11.5964
Pom	-11.5968
real	-11.5977
Checksum	-11.5993
Suite	-11.5994
Loop	-11.5994
cost	-11.5996
Unchecked	-11.5998
OPTIMI	-11.6001
SeqNo	-11.6005
OperationFailed	-11.6011
FieldName	-11.6013
localNode	-11.6015
composite	-11.603
DataAccess	-11.6032
tags	-11.6035
Verifier	-11.6045
CALL	-11.6046
conflicts	-11.6047
ServiceUtil	-11.6047
receiver	-11.605
ns	-11.6052
events	-11.6054
rest	-11.6054
digest	-11.6055
props	-11.6065
AUTO	-11.6067
Credentials	-11.6072
cProductId	-11.608
gap	-11.6081
repaint	-11.6088
TypeEvalContext	-11.609
STANDARD	-11.6098
implementation	-11.6102
getLog	-11.6102
COLLAPSE	-11.611
consume	-11.6111
languageLevel	-11.6117
Sum	-11.6118
LogManager	-11.6122
semantic	-11.6122
IndexRequest	-11.6124
Chars	-11.6124
Fixed	-11.6126
clause	-11.6131
visitPy	-11.6133
Problems	-11.6134
Duplicates	-11.6135
parentFolderId	-11.6135
scheduler	-11.6138
VcsException	-11.6146
GlobalSearch	-11.615
probePages	-11.6153
OutputBuffer	-11.6155
pr	-11.6155
Dirty	-11.6167
rounding	-11.6175
requestFocus	-11.6189
Syntax	-11.619
newState	-11.6213
Preferred	-11.6214
myStart	-11.6223
named	-11.6225
Deprecation	-11.6229
CaretModel	-11.6233
Upgrade	-11.6233
pOrig	-11.6235
copyOf	-11.6242
al	-11.6245
canBe	-11.6253
suite	-11.6254
auto	-11.6258
ant	-11.6259
JsonCodec	-11.6264
searchCommerce	-11.6267
rewritten	-11.6277
IsNull	-11.628
fixed	-11.6287
PaymentMethodKey	-11.6289
Hits	-11.6295
Packages	-11.6296
AssetEntryUsage	-11.6299
Exprent	-11.63
classpath	-11.6301
Sets	-11.6302
LockMode	-11.6303
follower	-11.6303
socket	-11.6305
COMPARATOR	-11.6308
outputBuffer	-11.6313
MEMORY	-11.6314
responseType	-11.6319
getTotal	-11.6324
DOT	-11.6333
mb	-11.6337
setEnabled	-11.6345
metaData	-11.6348
DataBuffer	-11.6351
bigArrays	-11.6358
WARNING	-11.636
getOrCreate	-11.6366
Under	-11.6366
It	-11.6374
Recursively	-11.6377
txn	-11.6379
getPreferred	-11.638
unpack	-11.638
TokenTypes	-11.6383
Back	-11.6384
ThreadContext	-11.6384
changeList	-11.6396
ControllerClient	-11.6399
InspectionTool	-11.64
Warnings	-11.6409
PageSource	-11.6417
Contents	-11.642
isSet	-11.6427
columnLabel	-11.6428
commandLine	-11.6437
rowCount	-11.644
arr	-11.6442
highlightInfo	-11.6455
Additional	-11.6456
dc	-11.6456
NotE	-11.6462
JavaToken	-11.6465
Branches	-11.6469
setMax	-11.6471
EntriesCount	-11.6476
setter	-11.648
Compare	-11.6487
NlsContext	-11.6489
Benchmark	-11.649
RangeHighlighter	-11.6494
LAST	-11.6498
Arrangement	-11.6503
buildOperation	-11.6507
LBRACE	-11.6509
caretOffset	-11.651
Partitions	-11.6516
TokenType	-11.6517
DataFrame	-11.6517
hippingAmount	-11.6521
RESULT	-11.6525
valuationContext	-11.6528
findByA	-11.6535
conversion	-11.6546
Placeholder	-11.6557
generation	-11.6566
background	-11.6569
Encoder	-11.6572
Bindings	-11.6573
created	-11.6574
then	-11.6575
PARAM	-11.6576
ContentType	-11.6588
dataFolder	-11.6589
portletURL	-11.6592
Targets	-11.6593
sFrom	-11.6594
addCPInstance	-11.6596
security	-11.6598
aron	-11.6598
META	-11.6598
OrderNoteService	-11.6602
blocks	-11.6605
MILLISECONDS	-11.6605
Decimal	-11.6612
WriteAction	-11.6613
VAR	-11.662
SCOPE	-11.6629
Partial	-11.663
toolWindow	-11.6631
LITERAL	-11.6634
Actual	-11.6635
getRequest	-11.6636
outputType	-11.6639
Python	-11.6642
Shipping	-11.6643
database	-11.6647
TransactionId	-11.6648
Accessible	-11.665
generated	-11.6652
prepared	-11.6653
indexService	-11.6657
Gap	-11.6667
ThemeDisplay	-11.6669
BytesRef	-11.667
modifierList	-11.6672
Inputs	-11.6676
getTest	-11.668
XmlFile	-11.6682
CommerceContext	-11.6685
argumentList	-11.6687
packed	-11.6689
finished	-11.67
readString	-11.6702
defaults	-11.6704
Candidates	-11.671
DIRECTORY	-11.6728
testUpdate	-11.6729
TupleDomain	-11.6741
keyed	-11.6754
ABLE	-11.6758
THRESHOLD	-11.676
explicit	-11.6766
BASIC	-11.6767
concat	-11.6767
PsiParameter	-11.6774
an	-11.6774
submit	-11.6775
Saml	-11.6776
HOUR	-11.678
unwrap	-11.678
errorMessage	-11.6784
getOffset	-11.6786
JLabel	-11.6789
setResource	-11.679
orderStatus	-11.679
Compile	-11.68
MCNI	-11.6812
TOP	-11.6816
isibleForTesting	-11.6819
Clustering	-11.6823
ChangesetEntry	-11.6826
Interceptors	-11.6828
DataType	-11.6828
Socket	-11.6834
setModel	-11.6834
Filtering	-11.6838
typeElement	-11.6839
war	-11.6847
Transformation	-11.6851
Percentage	-11.6857
licenseState	-11.6861
Rounding	-11.6863
strict	-11.6865
AD	-11.6866
sEnabled	-11.6871
Combo	-11.6872
hide	-11.6878
explanation	-11.6878
cc	-11.688
nl	-11.6882
AUTH	-11.6882
sPer	-11.6883
resp	-11.6883
os	-11.6884
ColorsScheme	-11.6884
ListenableFuture	-11.6885
EnumSet	-11.6888
PARENTHESES	-11.6905
Definitions	-11.6919
dataStream	-11.692
Processed	-11.6929
OrderBy	-11.6936
DeletionTime	-11.6939
Requires	-11.694
encoding	-11.6944
clock	-11.6947
pu	-11.6955
getGroup	-11.6957
GroupBy	-11.6959
Singleton	-11.696
references	-11.6962
Promise	-11.6964
Menu	-11.6965
tmp	-11.6966
assetCategory	-11.6967
getMetadata	-11.697
DESCRIPTION	-11.6971
fileSystem	-11.6981
platform	-11.6988
registration	-11.6989
IfNecessary	-11.6991
PyClass	-11.7
hits	-11.7
Sign	-11.7005
Collectors	-11.7006
EntryPersistence	-11.7007
PersistenceUnit	-11.7016
ModelResource	-11.7025
Gen	-11.7026
illingAddressId	-11.7029
getContaining	-11.7039
expanded	-11.7044
SUBSYSTEM	-11.7045
constraints	-11.7046
support	-11.7046
cOrig	-11.7047
WithNull	-11.7051
izedType	-11.7053
remoteCluster	-11.7057
LinkedHashMap	-11.7058
warningCollector	-11.7066
NoSuchEntry	-11.7067
myNode	-11.7068
getPreferredSize	-11.7078
req	-11.7081
stage	-11.7087
Ms	-11.7087
INDENT	-11.7088
histogram	-11.7092
XmlElement	-11.7099
allowed	-11.7099
OK	-11.71
myMap	-11.7101
QuickFix	-11.7101
IndexWriter	-11.7102
refElement	-11.7104
Whitespace	-11.7107
lib	-11.7107
HTML	-11.7111
BeanFactory	-11.7119
Restore	-11.7125
DialogWrapper	-11.7127
parentNode	-11.7129
plugins	-11.7131
DESCRIPTOR	-11.7136
FINAL	-11.7146
done	-11.7146
redirect	-11.7153
BeanName	-11.7172
lazy	-11.7176
Beans	-11.7178
Severity	-11.7179
Instantiator	-11.718
Projects	-11.7183
Retries	-11.7184
SHARD	-11.7186
criptScope	-11.7186
_0_0	-11.7198
snapshotId	-11.72
Checkpoint	-11.7203
XmlAttribute	-11.7205
segmentsEntryId	-11.7214
RECOVERY	-11.7214
ProtocolVersion	-11.7226
IP	-11.7229
relative	-11.7236
getLocation	-11.7245
MultiMap	-11.7249
addCPDefinition	-11.7254
Conflicts	-11.7255
JoinColumn	-11.7259
visited	-11.7265
OptionValueRelId	-11.7265
Previous	-11.7267
ion	-11.7268
Jps	-11.7269
myIcon	-11.7272
WAIT	-11.7277
|=	-11.7278
SOCKET	-11.7282
DisplayName	-11.7285
Screen	-11.7286
Apply	-11.7289
merceTaxMethodId	-11.7289
iterable	-11.729
VisualPosition	-11.7294
DataKeys	-11.7295
SUFFIX	-11.7296
leaderIndex	-11.7298
ObjectMapper	-11.7299
thenBranch	-11.7303
isPresent	-11.7304
getParameters	-11.7306
ServiceImpl	-11.7306
refs	-11.7312
randomFrom	-11.7316
resolution	-11.7317
email	-11.7318
allDay	-11.732
per	-11.7329
DiscountRel	-11.7329
encryption	-11.7332
MappedFieldType	-11.7337
getBody	-11.7342
HIVE	-11.7351
Materialized	-11.7353
adapter	-11.7356
setTitle	-11.7356
isTrue	-11.7362
connect	-11.7366
getBytes	-11.7371
typeParameters	-11.7376
Drivers	-11.7377
getCPOptionValue	-11.738
Interfaces	-11.7397
projectPath	-11.7399
seed	-11.7401
defaultLocale	-11.7403
JMS	-11.7403
substitute	-11.741
SCRIPT	-11.741
States	-11.7411
myIndex	-11.7413
myUse	-11.7414
Repair	-11.7416
getPreferredName	-11.7419
bit	-11.742
runtime	-11.7436
Publisher	-11.7447
unique	-11.7449
FIND	-11.7455
OrNull	-11.7461
sourceIndex	-11.7462
getCounter	-11.7462
Direction	-11.7463
searchScope	-11.7471
myOriginal	-11.7472
Already	-11.7476
sc	-11.7477
PACKAGE	-11.748
Introduce	-11.7483
myPath	-11.7485
CPInstanceId	-11.749
SKUCombinations	-11.749
FoldRegion	-11.7494
CProductId	-11.7494
Smart	-11.7496
fragments	-11.7499
rate	-11.75
MARKER	-11.7501
httpClient	-11.7504
BiConsumer	-11.7505
Digest	-11.7506
assetEntryId	-11.751
Q	-11.7514
HttpClient	-11.7522
declare	-11.7533
setUserName	-11.7533
targetElement	-11.7534
round	-11.7535
STRATEGY	-11.7547
inPos	-11.7548
Assertion	-11.7559
Employee	-11.7561
esis	-11.7564
myListeners	-11.7567
red	-11.7571
responses	-11.7574
de	-11.7575
ST	-11.7576
Bi	-11.7577
declared	-11.7579
Browser	-11.7579
cmp	-11.7584
IO	-11.7593
portletRequest	-11.7595
ControlFlow	-11.7601
getEndOffset	-11.7602
fileEntry	-11.7606
DOWN	-11.7608
LogicalPosition	-11.761
FLOAT	-11.761
getS	-11.7611
INITIALI	-11.7612
Clear	-11.7613
Organization	-11.7618
getCollection	-11.7626
createIndex	-11.7629
bottom	-11.7632
InventoryService	-11.7635
capacity	-11.7639
hdfs	-11.7639
ServletContext	-11.764
Words	-11.7646
supported	-11.7657
checkState	-11.7662
myScope	-11.7662
VALUES	-11.7671
Activity	-11.7671
Completed	-11.7671
BINDING	-11.7671
DataRecordLink	-11.7674
getResponse	-11.7676
getRectangle	-11.7679
runSQL	-11.768
strings	-11.7682
PARAMETERS	-11.7686
getIdentifier	-11.7687
testClass	-11.7688
CONFIGURATION	-11.7689
TestRule	-11.7691
JUnit	-11.7693
functionName	-11.7695
toSoapModel	-11.7696
Rollback	-11.7699
successful	-11.7707
getQualifiedName	-11.7708
unableTo	-11.7713
Processors	-11.772
me	-11.7723
ProcessHandler	-11.7725
Bootstrap	-11.7728
Initial	-11.773
CalendarBookings	-11.7731
threshold	-11.7739
PackagingElement	-11.774
getTextRange	-11.774
nowInSec	-11.7746
requires	-11.7757
myOld	-11.7767
POLICY	-11.7768
Subsystem	-11.777
Recursive	-11.7772
preferred	-11.7773
Tools	-11.7777
globalCheckpoint	-11.7783
Specific	-11.7788
Layer	-11.7789
docs	-11.7794
CountByC	-11.7795
back	-11.7797
Responses	-11.7808
TypeParameters	-11.7818
jdk	-11.7822
Amount	-11.7828
LFileVersionDiff	-11.7828
Macro	-11.7836
the	-11.7837
keyspaceName	-11.7839
deleted	-11.7844
factories	-11.7847
CPInstanceUuid	-11.7849
DfaValue	-11.7851
nextToken	-11.7854
createParser	-11.7857
Authorization	-11.7862
Shape	-11.7863
ThreadLocal	-11.7867
normalize	-11.7874
Advice	-11.7877
Concurrency	-11.7878
xContentType	-11.7879
Restart	-11.7881
Tracking	-11.7892
BookmarksEntry	-11.7893
myRepository	-11.7899
RevisionNumber	-11.7901
html	-11.7905
QUEUE	-11.7912
populate	-11.7913
Exclude	-11.7918
ancestor	-11.792
insets	-11.7929
Idea	-11.793
Running	-11.793
METHODS	-11.7932
Restrictions	-11.794
alignment	-11.7942
Painter	-11.7944
Stripe	-11.7945
Clause	-11.7947
CTEntry	-11.7947
requestCallback	-11.7956
translog	-11.7957
Categorization	-11.7964
Schedule	-11.7967
am	-11.7976
Fail	-11.7981
getCPOption	-11.7984
elseBranch	-11.7986
feature	-11.7987
Api	-11.7991
queries	-11.8001
Accumulator	-11.8006
Tags	-11.8006
Small	-11.8006
TextField	-11.8007
ObjectUtils	-11.8008
filterFindByG	-11.8009
disabled	-11.8013
IMPORT	-11.802
ApiStatus	-11.8024
mapped	-11.8025
PlanNodeId	-11.8025
valuesSource	-11.803
AutoEscape	-11.8031
ByUuid	-11.8032
setCP	-11.8033
route	-11.8034
Translator	-11.8036
resultList	-11.8049
myUpdate	-11.8051
SCHEME	-11.8061
JDK	-11.8061
uriVariables	-11.8062
setCounter	-11.8063
fileCollection	-11.8071
matching	-11.8072
GrExpression	-11.8075
AllIcons	-11.8076
ScrollBar	-11.8077
Customer	-11.8087
keyword	-11.8089
getModifiedDate	-11.8089
originalElement	-11.8091
Intention	-11.8096
attributeNames	-11.8099
EOF	-11.8102
Dummy	-11.8102
tateMachine	-11.8105
FS	-11.8105
CLASSES	-11.8106
POST	-11.8111
CUSTOM	-11.8113
FieldValue	-11.8117
getExport	-11.8117
SECONDS	-11.8123
Viewer	-11.8132
Escape	-11.8143
Compatible	-11.8145
getLanguage	-11.8148
contributor	-11.8149
txt	-11.8154
BATCH	-11.8157
retrieve	-11.8158
myNew	-11.8161
Vars	-11.8162
Cancellable	-11.8166
executable	-11.8167
EXTENSION	-11.8169
outPos	-11.8172
SyncDevice	-11.8173
estimated	-11.8177
modelClassNameId	-11.8188
Changeset	-11.8189
NotS	-11.819
PROTOCOL	-11.8192
Parts	-11.8194
AsString	-11.8195
contents	-11.8196
DocValues	-11.8198
Compilation	-11.8202
Scalar	-11.8209
te	-11.8212
dst	-11.8213
LocalDateTime	-11.8215
jwk	-11.8218
PlanNodeStats	-11.8221
columnType	-11.8225
ReadAction	-11.8226
Ordering	-11.8234
INIT	-11.8238
RequestCondition	-11.824
CacheKey	-11.8241
border	-11.8242
Drag	-11.8242
invalidate	-11.8244
seqNo	-11.8249
MOVE	-11.8249
unregister	-11.825
PY	-11.825
Pane	-11.8254
Period	-11.8257
ms	-11.8258
Modifiers	-11.8261
Product	-11.8263
psiManager	-11.8265
ColumnName	-11.8266
myCached	-11.8267
con	-11.8268
CAPABILITY	-11.8271
myPattern	-11.8271
More	-11.8276
isReadOnly	-11.8277
0_	-11.8278
YEAR	-11.8282
dispatch	-11.8288
objects	-11.8293
PlanMatch	-11.8293
setColumn	-11.8293
PsiMember	-11.8304
LabeledStatement	-11.8307
Filtered	-11.8317
divider	-11.8319
Done	-11.8321
Dispatcher	-11.8323
bad	-11.8333
brace	-11.8333
ByCPDefinitionId	-11.8335
OrderEntry	-11.8335
partitionKey	-11.8337
Numeric	-11.8337
MessageConverter	-11.834
doGet	-11.8345
CARET	-11.8347
SUB	-11.8347
Like	-11.8348
writeLong	-11.8351
clean	-11.8353
reload	-11.8354
Needed	-11.8354
MOUSE	-11.8354
Cause	-11.8366
queryBuilder	-11.8373
indexRequest	-11.8378
Locations	-11.8382
Report	-11.8388
transformer	-11.8391
Len	-11.8391
Append	-11.8398
appBuilderAppId	-11.84
myOptions	-11.8404
EXTERNAL	-11.8408
FocusedComponent	-11.841
history	-11.8415
getScope	-11.8416
shippingOption	-11.8418
day	-11.8426
mutation	-11.8431
LOAD	-11.8432
Download	-11.8435
Profiles	-11.8437
Ant	-11.844
dependent	-11.8442
translate	-11.8452
VcsLog	-11.8453
testCreate	-11.8462
circumflex	-11.8463
viewport	-11.8472
models	-11.8475
criteriaExecutor	-11.8476
callable	-11.8477
th	-11.848
scan	-11.8482
reduce	-11.8482
sProvider	-11.8483
ContainingClass	-11.8489
myInfo	-11.8491
persistentClass	-11.8493
getUserName	-11.8493
Splits	-11.8494
TOTAL	-11.8501
indexed	-11.8501
statuses	-11.8506
Dom	-11.8506
Indicator	-11.8515
PersistentTasks	-11.8518
myProperties	-11.8519
structure	-11.8535
subst	-11.8541
need	-11.8549
getPresentation	-11.8549
Audit	-11.8549
General	-11.8551
CN	-11.8552
high	-11.8558
parts	-11.856
Env	-11.8562
Association	-11.8564
servletContext	-11.8567
protocolVersion	-11.8573
PyFunction	-11.8574
auditor	-11.8579
JBUI	-11.8579
parentId	-11.8579
locations	-11.8581
DLFileRank	-11.8587
odeStyleSettings	-11.8588
planNodeId	-11.8598
ConnectorTable	-11.8601
ship	-11.8601
BACKGROUND	-11.8602
sManager	-11.8604
gadget	-11.8605
newElement	-11.861
cfg	-11.8614
setCPOptionValue	-11.8617
finalPrice	-11.862
partitions	-11.8628
Ordinal	-11.8647
edit	-11.8648
myInitial	-11.8648
Finish	-11.8648
comparison	-11.8652
ad	-11.8655
SearchExecution	-11.8656
Delimiter	-11.8657
Entities	-11.8659
testAdd	-11.866
adjust	-11.8674
Instances	-11.8677
tHighLevelClient	-11.8677
addListener	-11.8686
paramName	-11.8687
Push	-11.8687
Save	-11.8688
newNode	-11.8688
CTSContent	-11.8689
getArguments	-11.8694
Encryption	-11.8695
processHandler	-11.8697
annotationType	-11.8706
JDBC	-11.8713
BaseLocalService	-11.8716
snapshotName	-11.8716
Distance	-11.8724
publish	-11.8727
Head	-11.873
generatedType	-11.8732
buildSide	-11.8733
getTableName	-11.8734
GLOBAL	-11.8736
PACKED	-11.8736
AbstractType	-11.8742
CONNECTOR	-11.8749
sessionID	-11.8751
Inspector	-11.8753
myPopup	-11.8756
myKey	-11.8759
orderByCondition	-11.8761
keycode	-11.8766
Datafeed	-11.8772
Mouse	-11.8772
TRANSACTION	-11.8773
VisualLine	-11.8775
Different	-11.8777
Editable	-11.8782
Cost	-11.8785
Tail	-11.8787
PriceListId	-11.8788
MINUTE	-11.8789
Throws	-11.8795
exec	-11.8797
Attr	-11.8801
Nulls	-11.8805
translation	-11.8808
securityDomain	-11.8808
datafeedId	-11.8814
getMin	-11.8817
findClass	-11.8823
completed	-11.8823
getUserData	-11.8826
ModelAttribute	-11.8827
Sink	-11.883
running	-11.883
delimiter	-11.8832
ScrollPane	-11.8836
variables	-11.8837
isAvailable	-11.8837
allocationId	-11.8838
SubscriptionInfo	-11.8842
delay	-11.8847
inputs	-11.8851
compressed	-11.8852
uid	-11.8853
queryId	-11.8853
reverse	-11.8857
ver	-11.8861
NaturalId	-11.8863
DateFormatter	-11.8863
isAssignableFrom	-11.8865
GlobalCheckpoint	-11.8867
sAnd	-11.8872
accessControl	-11.8873
Cancel	-11.8878
fixes	-11.8883
curr	-11.8885
ok	-11.8889
PluginId	-11.8893
getVariable	-11.8893
GroupRelService	-11.8896
Parsing	-11.89
indicesOptions	-11.8903
pageSize	-11.8905
Tabs	-11.8906
Aspect	-11.8908
LoggerFactory	-11.8909
RULE	-11.8909
firstName	-11.8912
fallback	-11.8913
caseSensitive	-11.8913
sourceSet	-11.8916
ic	-11.8921
facade	-11.8921
accumulator	-11.8921
Ide	-11.8923
Indexing	-11.893
git	-11.8932
LE	-11.8934
HANDLER	-11.8934
ModelClassName	-11.8938
getLine	-11.894
addr	-11.8942
AssetEntryQuery	-11.8942
CLOSE	-11.8944
accountRole	-11.8947
OAuthUser	-11.8957
DateHistogram	-11.8958
ro	-11.896
Convert	-11.8963
isDisposed	-11.8964
ENABLE	-11.8968
createAccessor	-11.8969
MONTH	-11.897
statusText	-11.8972
WRITER	-11.8983
ManyToOne	-11.8986
Hover	-11.8991
OPERATOR	-11.8994
groupBy	-11.8997
rules	-11.8998
countByG	-11.9004
Workflow	-11.9005
isDirectory	-11.9006
Highlighters	-11.9012
BitSet	-11.9013
UpdateRequest	-11.9016
getAnnotated	-11.9017
RUN	-11.9019
Registered	-11.9024
DataProvider	-11.9028
ERO	-11.9031
scriptService	-11.9032
Hyperlink	-11.9034
PsiModifier	-11.9035
createTime	-11.905
modified	-11.9052
lockMode	-11.9054
Flux	-11.9056
ca	-11.906
Checkbox	-11.906
Fixes	-11.9062
JTree	-11.9064
getProperties	-11.907
PRE	-11.907
StateMachine	-11.9073
direction	-11.9075
DocumentMapper	-11.908
PrimaryTerm	-11.9081
loaded	-11.9088
ANY	-11.9092
archive	-11.9093
lobalSearchScope	-11.9104
True	-11.9116
MISSING	-11.9117
ByDefault	-11.9119
score	-11.9125
01	-11.9128
getActive	-11.9129
Imports	-11.9133
GitRepository	-11.9135
testNo	-11.9137
modelId	-11.9137
endObject	-11.9138
tt	-11.9139
generic	-11.914
WorkflowInstance	-11.9157
started	-11.9157
license	-11.9161
objectFactory	-11.9161
_123	-11.9163
ACTIVE	-11.9166
Ctx	-11.9169
DfType	-11.9173
Break	-11.9176
Separately	-11.9183
Assertions	-11.9185
author	-11.9186
hints	-11.9186
encoded	-11.9187
Maps	-11.9188
Throw	-11.9188
LanguageIds	-11.9192
Optimizer	-11.9192
TypeSignature	-11.9197
RandomTest	-11.9199
sink	-11.9204
Send	-11.9213
insn	-11.9217
SystemException	-11.9219
hasFocus	-11.9219
Printer	-11.9221
Union	-11.9222
Unresolved	-11.9222
Hasher	-11.9224
expectedDate	-11.9229
home	-11.923
Mac	-11.9232
handlerFunction	-11.9239
bucketCount	-11.9239
duplicate	-11.9245
parameterIndex	-11.9249
Foreground	-11.925
ClassNames	-11.9253
lockOptions	-11.9254
Pinot	-11.9261
Dependent	-11.9261
WORD	-11.9262
Coverage	-11.9264
Segments	-11.9268
tryCast	-11.9268
TimeMillis	-11.9268
NamedXContent	-11.9269
joinType	-11.9274
Closeable	-11.9274
ModelSnapshot	-11.9278
getAuditReader	-11.9278
Broadcast	-11.928
words	-11.9282
Applicable	-11.9284
LifecyclePolicy	-11.9285
rc	-11.9292
configurations	-11.9297
isModified	-11.9298
ordered	-11.9299
conditional	-11.9308
INCLUDE	-11.9309
iterate	-11.931
segments	-11.9311
queryParameters	-11.9316
pop	-11.932
Privilege	-11.9323
OTHER	-11.9326
authenticator	-11.9326
ResolverService	-11.9342
acquire	-11.9342
getCommerceS	-11.9344
getCProduct	-11.9348
Private	-11.9348
ctCollection	-11.9349
TaskExecutor	-11.9351
Help	-11.9352
physical	-11.9356
DECLARATION	-11.9359
getPartition	-11.9362
docCount	-11.9362
ByUUID	-11.9362
SE	-11.9366
isDefault	-11.9366
Exist	-11.9368
getEntityManager	-11.9368
shortDescription	-11.937
referenced	-11.9374
tempFile	-11.9382
Extended	-11.9385
"-	-11.9386
Edges	-11.9387
Handling	-11.9393
storeType	-11.9398
myChildren	-11.9398
Injected	-11.94
Endpoints	-11.94
UP	-11.9401
_134	-11.9404
setProperty	-11.941
myTitle	-11.9412
initialState	-11.9414
Via	-11.9415
ALIGN	-11.9419
InnerClass	-11.9423
TreeStructure	-11.9425
NodeDescriptor	-11.9427
Retry	-11.943
ROWS	-11.9435
clusterAlias	-11.9441
viewName	-11.9442
ssl	-11.9443
lastPublishDate	-11.9444
TOOLBAR	-11.9444
MapperService	-11.9444
restrictions	-11.9448
Ordered	-11.9453
Within	-11.9457
Cardinality	-11.9461
Expanded	-11.9465
off	-11.9468
Transient	-11.9487
repositoryName	-11.9489
Streams	-11.9491
canonical	-11.9503
Bottom	-11.9504
indicesService	-11.9509
CONSTRUCTOR	-11.9513
PropertyManager	-11.9513
mySelection	-11.9514
Cookie	-11.9515
PRIVATE	-11.9521
animal	-11.9521
filterFindByUuid	-11.9522
deletion	-11.9523
baseClass	-11.9523
RestRequest	-11.9525
worker	-11.9533
getDeclared	-11.9535
myPosition	-11.9537
BufferSize	-11.9538
Confirmation	-11.9539
AST	-11.9542
RetentionLease	-11.9544
inlay	-11.9545
Convention	-11.9546
occurrences	-11.9547
injection	-11.9551
gen	-11.9553
Arquillian	-11.9556
PARAMS	-11.956
InjectedValue	-11.9562
IndicesOptions	-11.9562
rollback	-11.9562
Reduce	-11.9563
PRECISION	-11.9564
Dirs	-11.9567
NOTIFICATION	-11.957
clusterSettings	-11.9571
Install	-11.9571
HttpMethod	-11.9572
Notify	-11.9572
mvcc	-11.9573
DumbAware	-11.9575
lookupSource	-11.9576
_124	-11.9578
Substitution	-11.9581
implicit	-11.9583
getBase	-11.9589
RadComponent	-11.9591
Prev	-11.9592
testDelete	-11.9595
WITHIN	-11.9595
CallMatcher	-11.9596
REMOVE	-11.9599
Bit	-11.9602
DiffRequest	-11.9603
sParameterTypes	-11.9612
Defined	-11.9619
isNotNull	-11.962
IndentOptions	-11.9621
checkReadOnly	-11.9627
UsageView	-11.9628
needs	-11.963
Payment	-11.9632
SERVICES	-11.9633
toType	-11.9637
aggregate	-11.9639
createT	-11.9641
FILES	-11.9642
verifier	-11.9642
batchSize	-11.9647
Seconds	-11.9648
severity	-11.9651
accountId	-11.9653
classType	-11.9657
TreeElement	-11.9657
EXECUTION	-11.966
getDescriptor	-11.966
deploy	-11.9663
aPackage	-11.9664
nextOffset	-11.9666
Negative	-11.9669
_234	-11.9678
ServiceProvider	-11.9681
PsiPackage	-11.9689
buff	-11.9691
COMMIT	-11.9695
nullable	-11.9698
admin	-11.9701
inherited	-11.9704
toolWrapper	-11.9707
Compatibility	-11.9712
OPTIONAL	-11.9712
myId	-11.9716
Public	-11.972
DecoratedKey	-11.9721
DataNode	-11.9729
ManyToMany	-11.9731
SqlFunction	-11.9732
form	-11.9735
fa	-11.9737
Precision	-11.9739
Pipe	-11.974
myFilter	-11.9742
Then	-11.9743
mimeType	-11.9744
hibernate	-11.9747
CatalogMetadata	-11.9753
The	-11.9753
FunctionAnd	-11.9755
orderBy	-11.9755
divisor	-11.9756
KEYSTORE	-11.9769
VFile	-11.9772
myAction	-11.9775
setCommerceS	-11.978
Evaluate	-11.9781
LPAREN	-11.9783
tokenizer	-11.9784
RA	-11.9786
_34	-11.9791
err	-11.9793
ConsoleView	-11.9795
Days	-11.9795
Collapse	-11.98
edDeliveryDate	-11.9801
getArray	-11.9802
getAvailable	-11.9804
BINARY	-11.9809
erverWebExchange	-11.9809
core	-11.9811
BOM	-11.9818
oncurrentHashMap	-11.9819
ClassPath	-11.9824
testSimple	-11.9828
TX	-11.9835
INNER	-11.9844
myCb	-11.9846
Outputs	-11.9853
expectedResult	-11.9857
InputPositions	-11.9858
Parentheses	-11.9858
Where	-11.986
Vector	-11.9872
orc	-11.9879
EventDispatcher	-11.9881
TestEntity	-11.9883
Formatting	-11.9888
Boundary	-11.9892
RelativePath	-11.9895
Messaging	-11.9897
CommerceOrderId	-11.9907
failures	-11.9907
unmodifiable	-11.991
sMap	-11.9911
partitionName	-11.9912
getEntity	-11.9912
metaDescription	-11.9914
cql	-11.9916
customer	-11.9916
setCPOption	-11.9919
FACTOR	-11.9924
SIMPLE	-11.9925
MaxS	-11.9926
findByUserId	-11.9927
Extract	-11.9928
baseDir	-11.993
PriceCalculation	-11.9933
Skip	-11.9936
CharacterStream	-11.9938
codeBlock	-11.9938
countDown	-11.9938
RealmConfig	-11.9938
problems	-11.9939
AssetListEntryId	-11.994
CLASSNAME	-11.9944
standard	-11.9948
getToken	-11.995
upgrade	-11.9952
services	-11.9954
addChild	-11.9955
Once	-11.9955
coerce	-11.9963
Virtual	-11.9964
managed	-11.9967
parameterList	-11.9967
systemException	-11.9973
BookingInstance	-11.9973
AsMap	-11.998
putAll	-11.9983
_10	-11.9984
PLUGIN	-11.9984
li	-11.9987
aggregator	-11.9988
visualLine	-11.999
nodeName	-11.9996
fetchByGroupId	-11.9997
SoftWrap	-12.0002
FLUSH	-12.0006
shippable	-12.0006
OptionalInt	-12.0008
RESTART	-12.0009
getConfiguration	-12.0011
Embedded	-12.0012
Choice	-12.0016
DocCount	-12.0022
Updates	-12.0024
isOnTheFly	-12.0025
Distinct	-12.0026
getQualifier	-12.004
NotationParser	-12.0042
getBlock	-12.0045
TableModel	-12.0047
WIDTH	-12.0051
shape	-12.0053
sqlQuery	-12.0056
utPaginationFind	-12.0058
expectedPrice	-12.0063
findByU	-12.0065
lifecycle	-12.0066
sqlParser	-12.0068
STYLE	-12.0069
shippingDate	-12.0072
Migration	-12.0074
emptyMap	-12.0077
EscapedModel	-12.0078
bulkRequest	-12.008
Mapped	-12.0082
getProxy	-12.0083
VALID	-12.0087
ordinal	-12.0087
country	-12.0087
Importer	-12.0091
taskInfo	-12.0092
filterFindBy	-12.0097
mySearch	-12.0103
modelSnapshot	-12.0103
getFactory	-12.0109
elem	-12.0112
attach	-12.0112
tagName	-12.0119
errorCode	-12.0126
Multimap	-12.0135
DataKey	-12.0137
Spill	-12.0139
ExternalResource	-12.014
INTERNAL	-12.0142
startJoinRequest	-12.0142
NamedWriteable	-12.0142
CreateIndex	-12.0145
Buttons	-12.0165
Documents	-12.0168
JCheckBox	-12.0169
Inherited	-12.0169
PSI	-12.017
eventListener	-12.0171
statusCode	-12.0178
SKIP	-12.0178
latest	-12.0181
EQUAL	-12.0184
locate	-12.0193
Rewrite	-12.0199
BUCKET	-12.0203
myCache	-12.0205
InetAddress	-12.0206
Now	-12.0206
allocate	-12.0207
instanceOf	-12.0213
Generate	-12.0214
accountUser	-12.0215
LISTENER	-12.0221
Outside	-12.0222
myConfiguration	-12.0229
Capture	-12.0231
bd	-12.0232
getTree	-12.0234
Blocking	-12.0242
Written	-12.0243
rgumentsResolver	-12.0243
DirectoryReader	-12.0254
what	-12.0261
nextTokenIs	-12.0262
myListener	-12.0266
integer	-12.0266
Some	-12.0269
ation	-12.0271
Attachments	-12.0271
sh	-12.0272
STATS	-12.0274
lat	-12.0275
JoinNode	-12.0276
endsWith	-12.0276
Builtin	-12.0281
combine	-12.0282
dao	-12.0283
urlTitleMap	-12.0283
versions	-12.0286
APP	-12.0286
Delayed	-12.0288
DEBUG	-12.0289
paymentStatus	-12.0289
putUserData	-12.029
Inlay	-12.0299
amImageCo	-12.0308
Excludes	-12.0312
Invoker	-12.0324
getLocal	-12.0326
getReturnType	-12.0328
SourceSet	-12.0329
moveTo	-12.0332
regex	-12.0342
CodeStyle	-12.0343
FORCE	-12.0344
CT	-12.0347
getRaw	-12.035
StagedModelType	-12.0351
Credential	-12.0359
intValue	-12.0361
seen	-12.0364
Inspections	-12.0364
JOURNAL	-12.0373
Urls	-12.0373
bufferSize	-12.0374
argumentTypes	-12.0376
AccessType	-12.0377
resources	-12.0387
Builders	-12.0391
Middle	-12.0392
getConnection	-12.0393
MD	-12.0394
DEF	-12.0394
ProgressManager	-12.0396
amImage	-12.0396
Quote	-12.04
jps	-12.0408
REGEX	-12.0409
Navigation	-12.0413
Intermediate	-12.0414
servletRequest	-12.0414
expectations	-12.0416
Writable	-12.0416
docId	-12.0418
AUDIT	-12.0419
CAPACITY	-12.042
getAction	-12.0427
oAuthApplication	-12.0429
MimeType	-12.043
cb	-12.0435
shortcut	-12.0438
LA	-12.0439
vm	-12.044
PrimaryKey	-12.044
Enter	-12.0441
TransportRequest	-12.0449
employee	-12.0453
lst	-12.0459
tables	-12.0463
myLine	-12.0464
zoneId	-12.0465
taxExempt	-12.0467
FETCH	-12.0467
inspection	-12.0473
TRUST	-12.0476
testBean	-12.0477
convertTo	-12.0489
BUILD	-12.0493
myProgress	-12.0493
getTimestamp	-12.0493
rowGroup	-12.0494
ENUM	-12.05
ARGUMENT	-12.0502
ORC	-12.0509
Props	-12.0509
Polygon	-12.0517
customize	-12.0518
producer	-12.0518
Complex	-12.0523
metaKeywordsMap	-12.0524
ResourceAdapter	-12.0534
Later	-12.0544
De	-12.0552
JtaTransaction	-12.0553
isDebug	-12.0556
Keywords	-12.056
BUILDER	-12.0565
StartTime	-12.0566
Clone	-12.0567
isVisible	-12.0569
bg	-12.0572
qualified	-12.0576
FontMetrics	-12.0577
rootElement	-12.0586
WEEK	-12.0591
RETRY	-12.0591
mediaType	-12.0592
two	-12.06
templates	-12.06
DSLQuery	-12.0601
accepts	-12.0601
Prepare	-12.0603
py	-12.0603
CQL	-12.061
ArrayType	-12.0611
_1234	-12.0614
EXPECTED	-12.0619
myDescription	-12.062
CacheEnabled	-12.062
mav	-12.0622
workflow	-12.0628
Plus	-12.0633
Low	-12.0634
Operators	-12.0635
qlBaseParser	-12.0635
Real	-12.0637
zzMarkedPos	-12.0639
Explanation	-12.0639
setCollectionId	-12.064
numberOfShards	-12.0642
Audited	-12.0643
concurrent	-12.0645
Original	-12.0648
ac	-12.0652
Catch	-12.0653
Reload	-12.0654
onsistencyLevel	-12.0655
Grid	-12.0657
externalProject	-12.0657
OptionsPanel	-12.0658
ConnectorT	-12.0658
SELECTED	-12.066
Redirect	-12.0665
FileTree	-12.0667
supplier	-12.0667
AUTHENTICATION	-12.0668
PROXY	-12.0668
choose	-12.0669
myJava	-12.0672
FlushMode	-12.0674
QueryOptions	-12.0676
Backup	-12.0685
Navigatable	-12.0686
Shrink	-12.0687
PAREN	-12.0695
DELAY	-12.0696
sibling	-12.0696
Unsupported	-12.0698
ScriptCode	-12.0699
LastPublishDate	-12.0706
AccountRelFinder	-12.071
Stored	-12.0714
PUSH	-12.0716
retry	-12.0719
REAL	-12.0721
getCustom	-12.0725
NORMAL	-12.0725
Handshake	-12.0725
some	-12.0728
summary	-12.0732
Commits	-12.0736
Descriptions	-12.0738
getSelect	-12.0741
operands	-12.0741
Callbacks	-12.0742
cookies	-12.0746
unexpected	-12.0747
FindUsages	-12.0747
WhiteSpace	-12.0751
RegExp	-12.0751
Hdfs	-12.0754
shutdown	-12.0755
Exclusive	-12.076
lla	-12.0763
Cannot	-12.0766
getFamilyName	-12.0767
myHas	-12.0768
detect	-12.0771
messages	-12.0771
members	-12.0772
SHIFT	-12.0774
sp	-12.0779
Grouping	-12.0781
cedi	-12.0783
addCommerceOrder	-12.0786
organization	-12.0788
CodeInsight	-12.0794
Criterion	-12.0794
zzCurrentPos	-12.0794
functions	-12.08
ear	-12.08
LOOKUP	-12.0803
Ops	-12.0806
findFile	-12.0812
CENTER	-12.0814
registerProblem	-12.0815
PyFile	-12.0816
Conditions	-12.0819
GroupRelFinder	-12.0819
fileText	-12.0822
ann	-12.0828
PUT	-12.0832
CONDITION	-12.0833
ho	-12.0834
Equality	-12.0835
checked	-12.0836
myHolder	-12.0838
CONTAINER	-12.0843
Issue	-12.0859
resolveContext	-12.0862
DROP	-12.0862
Inheritance	-12.0864
Click	-12.0865
inQuantity	-12.0871
normalized	-12.0875
WINDOW	-12.0878
NE	-12.0882
testName	-12.0884
Ascii	-12.0887
FactoryBean	-12.0889
ics	-12.0896
Searchable	-12.09
outputPositions	-12.0903
TimeStamp	-12.0903
CAST	-12.0914
explain	-12.0922
Reflection	-12.0922
requests	-12.0923
removeByG	-12.0924
compiled	-12.0927
debugger	-12.0931
Detected	-12.0934
ModuleIdentifier	-12.0934
phoneNumber	-12.0942
tokenService	-12.0947
Round	-12.0948
myOffset	-12.0951
EntryId	-12.0956
ResolveMetadata	-12.0956
assertNot	-12.0957
LOCATION	-12.0958
attrs	-12.096
INTERFACE	-12.0961
ableBeanFactory	-12.0966
FRAME	-12.0967
getExternal	-12.0968
INVOKE	-12.0971
MemberValue	-12.0971
millis	-12.0975
Committed	-12.0985
ta	-12.0985
stamp	-12.0987
Overridden	-12.0991
decision	-12.0991
remainder	-12.0991
shared	-12.0993
High	-12.0996
AssetAutoTagger	-12.0998
ep	-12.1003
Activation	-12.1008
filterFunction	-12.101
setCProduct	-12.1014
Scopes	-12.1015
QueryRunner	-12.1016
Authenticator	-12.1019
mv	-12.102
nullValue	-12.1021
Factor	-12.1023
VM	-12.1026
Frozen	-12.1027
Parquet	-12.1032
jvm	-12.1033
columnStatistics	-12.1034
argType	-12.1036
boundVariables	-12.1036
myVersion	-12.104
Serde	-12.104
VariableValue	-12.1043
customSQL	-12.1049
Rieul	-12.105
metaTitleMap	-12.1051
Markup	-12.1054
Edt	-12.1056
NumberOf	-12.1059
manifest	-12.106
expectedReadOnly	-12.1063
ORB	-12.1064
Print	-12.1065
psiType	-12.1067
getTokenType	-12.107
Electron	-12.1071
cacheKey	-12.1071
Special	-12.1072
queryFor	-12.1072
elco	-12.1081
Undo	-12.1082
instantiate	-12.1082
Limits	-12.1084
JBPopup	-12.1093
performRequest	-12.1094
Make	-12.1094
outputFile	-12.1099
AccountId	-12.11
isShow	-12.11
entityId	-12.1101
threads	-12.1102
getShort	-12.1103
roductTypeName	-12.1103
myAll	-12.1105
idea	-12.111
aaa	-12.112
Analyze	-12.1125
Trans	-12.1128
CPOptionService	-12.1129
DiscoveryNodes	-12.113
EstimateId	-12.1138
sizeOf	-12.114
LY	-12.114
While	-12.1142
EventType	-12.1143
PostProcessor	-12.1144
StagedModel	-12.1145
LockOptions	-12.1147
mbd	-12.115
isFile	-12.1151
rt	-12.1158
ldap	-12.1163
createNative	-12.1176
Subclass	-12.1176
findElementAt	-12.118
splitter	-12.1181
providers	-12.1183
Publish	-12.1184
myAdditional	-12.1185
myVariable	-12.1186
getCache	-12.1187
extensions	-12.1189
OneToMany	-12.1192
messageId	-12.1192
KeyEvent	-12.1193
SelectionModel	-12.1194
lineOffsets	-12.1194
viewProvider	-12.1197
valueCount	-12.1198
TTL	-12.12
Known	-12.1201
topLevel	-12.1209
sent	-12.1212
getManager	-12.1212
Slices	-12.1215
CA	-12.1216
GC	-12.1217
myS	-12.1226
Declared	-12.1227
book	-12.1227
MemoryContext	-12.1237
myMarketplace	-12.1239
blob	-12.1239
EVENT	-12.1239
minValue	-12.1246
greaterThan	-12.125
direct	-12.1251
GRADLE	-12.1253
DocValueFormat	-12.1253
ationFindByUuid	-12.1254
TargetType	-12.1259
Occurrences	-12.126
ce	-12.1262
mySource	-12.1264
isInstance	-12.1268
GroupPersistence	-12.1271
UTC	-12.1273
cacheFile	-12.1275
myFactory	-12.1276
DoesNot	-12.1276
Cassandra	-12.1279
Ready	-12.128
ModalityState	-12.1281
getUuid	-12.1283
presentStream	-12.1288
myTest	-12.1288
outbound	-12.1289
replication	-12.1296
StringUtils	-12.1297
CC	-12.1297
requiredType	-12.1298
artifactId	-12.1301
ASSIGNMENT	-12.1304
computeIfAbsent	-12.1304
ToDelete	-12.1305
Framework	-12.1311
00	-12.1312
CommonC	-12.1312
sherman	-12.1314
WILDCARD	-12.1314
extractor	-12.1317
Categories	-12.1318
ITestBean	-12.1318
rowPagesBuilder	-12.1319
OperatorContext	-12.132
COMPONENT	-12.1321
unspsc	-12.1325
Detail	-12.1327
ft	-12.1327
BulkRequest	-12.1328
Grouped	-12.1329
Outer	-12.1335
ObjectFactory	-12.1336
_0_1	-12.1337
MarkupModel	-12.1337
NAMESPACE	-12.1339
pluginDescriptor	-12.1344
serialized	-12.1345
FONT	-12.1345
recurring	-12.1345
doIn	-12.1355
JBColor	-12.1357
Users	-12.1358
Prefixes	-12.1358
localName	-12.1361
RetentionLeases	-12.1361
LineNumber	-12.1372
keep	-12.1372
Disable	-12.1373
flag	-12.1374
Walker	-12.1377
Externalizer	-12.1377
actionFilters	-12.1381
WS	-12.1385
PARENT	-12.1386
VIRTUAL	-12.1387
accessToken	-12.139
addresses	-12.1394
getFilter	-12.1396
RUNTIME	-12.1398
aRule	-12.1398
classDefinition	-12.1401
rootType	-12.1407
Envelope	-12.1407
Received	-12.1408
FileStatus	-12.1409
Charsets	-12.1414
checkFor	-12.1415
psiField	-12.1416
FOUND	-12.1418
LinkedHashSet	-12.1419
pageSource	-12.1419
Numbers	-12.1427
ImmutableOpenMap	-12.1428
testEmpty	-12.143
Fragments	-12.1432
getApplication	-12.1433
SYNC	-12.1437
LINK	-12.1439
Percent	-12.1441
CompileContext	-12.1445
forward	-12.1449
dummy	-12.1449
Try	-12.1453
incoming	-12.1455
DocumentListener	-12.1455
sslService	-12.1457
descriptions	-12.1458
Subquery	-12.1459
Msg	-12.146
pf	-12.1464
CPK	-12.1465
ies	-12.147
ExpandoBridge	-12.147
Possible	-12.147
BasePriceList	-12.1476
SuperClass	-12.148
addEntry	-12.1483
attachment	-12.1484
Discriminator	-12.1487
DefaultValue	-12.149
stopped	-12.1493
defaultSession	-12.1495
ArgumentResolver	-12.15
MERGE	-12.15
api	-12.1503
persistent	-12.1505
Operand	-12.1505
DATASOURCE	-12.1508
BODY	-12.1512
lifespan	-12.1512
may	-12.1512
nodeSettings	-12.1516
FileTemplate	-12.1517
getLocalName	-12.1521
getUrl	-12.1522
TRANSPORT	-12.1522
webApp	-12.1523
box	-12.1525
Prop	-12.1531
refExpr	-12.1536
SIGN	-12.1536
rpConfig	-12.154
updates	-12.154
CTPreferences	-12.1543
getHandler	-12.1546
Occurrence	-12.1547
Marshaller	-12.1554
CONTROL	-12.1554
interfaces	-12.1555
setGroupId	-12.1556
CharArray	-12.1559
setExpandoRow	-12.1563
planBuilder	-12.1564
AtCaret	-12.1567
Ip	-12.157
DYNAMIC	-12.1575
Connect	-12.1575
filename	-12.1577
Reset	-12.1581
Requirement	-12.1583
AbsolutePath	-12.1584
OptionValueRels	-12.1589
writeString	-12.1597
resourceRequest	-12.1601
Transitive	-12.1607
childCalendarIds	-12.1607
assetVocabulary	-12.1607
NS	-12.1611
Wait	-12.1616
notNullValue	-12.1621
pathElement	-12.1621
Pricing	-12.1622
Lifespan	-12.1626
maven	-12.1627
FEATURE	-12.1628
Country	-12.1629
SearchHit	-12.1629
countByCompanyId	-12.1632
Can	-12.1634
CircuitBreaker	-12.1638
us	-12.1641
putResult	-12.1647
Comparable	-12.1649
baseName	-12.165
detector	-12.1656
ModelA	-12.166
topDocs	-12.166
CustomMetadata	-12.1662
publication	-12.1664
webRequest	-12.1666
ingest	-12.1667
sqlFunction	-12.1667
Returns	-12.1667
ActionHandler	-12.1668
Sent	-12.1669
DIFF	-12.167
Difference	-12.1672
ctEntry	-12.1673
Streaming	-12.1675
JCalendar	-12.1675
XA	-12.1676
truncate	-12.1679
Excluded	-12.168
ROUTING	-12.1681
stripe	-12.1684
JButton	-12.1688
LABEL	-12.1691
inline	-12.1696
Analytics	-12.1697
recover	-12.1697
Naming	-12.1698
Free	-12.17
ErrorMessage	-12.1702
AppBuilderAppId	-12.1707
KeyStroke	-12.171
ext	-12.171
getExpandoRow	-12.1711
NanoTime	-12.1711
myLock	-12.1712
PageSink	-12.1713
Calls	-12.1714
getTableColumns	-12.1714
JNDI	-12.1715
resourceName	-12.1716
included	-12.1717
ServletRequest	-12.1719
parserContext	-12.1723
GENERIC	-12.1724
getRequired	-12.1728
promise	-12.1734
myFirst	-12.1735
indexes	-12.1738
Partitioned	-12.1738
ctor	-12.1742
SyncD	-12.1744
PsiLocalVariable	-12.1748
Records	-12.1749
Relative	-12.1753
aEntity	-12.1753
VariableName	-12.1754
cookie	-12.1755
netPrice	-12.1756
VOID	-12.1756
ValueType	-12.1757
isAncestor	-12.176
Temp	-12.1763
readLong	-12.1764
pp	-12.1765
Composed	-12.1767
RESPONSE	-12.1767
contentRoot	-12.1767
groupName	-12.1771
track	-12.1771
Hidden	-12.1772
pluginDir	-12.1772
USAGE	-12.1774
logging	-12.1774
hi	-12.1776
ToReplace	-12.1777
seq	-12.1778
InBackground	-12.1781
TemporalType	-12.1786
histo	-12.1789
ModulePath	-12.1794
ParseException	-12.1797
PowwowServer	-12.1801
Logical	-12.1802
JSONArray	-12.1803
parents	-12.1804
aggs	-12.1807
JTextField	-12.1809
different	-12.181
RewriteContext	-12.181
pid	-12.1812
conflict	-12.1813
TestOnly	-12.1819
Fake	-12.182
ProxyProvider	-12.1824
acron	-12.1833
IndexService	-12.1834
Inactive	-12.1834
AccountGroupIds	-12.1834
myChanges	-12.1836
isRow	-12.1837
PropertiesFile	-12.1837
mod	-12.1839
indexable	-12.184
Observer	-12.1842
ANALY	-12.1842
Flow	-12.1849
myCustom	-12.185
testCase	-12.1855
leftResult	-12.186
rollup	-12.1863
Typing	-12.1863
amount	-12.1864
IngestDocument	-12.1864
Modifiable	-12.1869
Stat	-12.1873
doExecute	-12.1873
mappingDocument	-12.1874
During	-12.1875
Corrupted	-12.1875
compound	-12.1879
Acked	-12.1886
readRepair	-12.1887
WithNo	-12.1888
updateStatus	-12.1891
KDB	-12.1895
Enumerator	-12.1896
VCS	-12.1897
using	-12.1898
resourceBundle	-12.19
live	-12.1906
ContentManager	-12.1909
EAP	-12.1912
myMessage	-12.1913
func	-12.1915
inject	-12.1915
setStatus	-12.1917
GroupService	-12.1918
GeoPoint	-12.1918
alpha	-12.1918
dom	-12.1919
indentLevel	-12.1921
createChildData	-12.1922
EE	-12.1925
dividend	-12.1929
OrderNote	-12.1932
union	-12.1933
shortName	-12.1935
allFollowing	-12.1942
queued	-12.1942
Generics	-12.1946
1_1	-12.1948
fm	-12.1949
JoinType	-12.195
GitLineHandler	-12.1951
AccountUser	-12.1953
MetadataBuilder	-12.1953
EntryService	-12.1957
Spacing	-12.1957
mt	-12.1959
sOn	-12.1962
TaskQueue	-12.1963
Tester	-12.1964
excludes	-12.1965
PsiModifierList	-12.1966
isActive	-12.197
getEntityCache	-12.1972
queryString	-12.1973
steps	-12.1975
BACK	-12.1975
correct	-12.1975
leftBlock	-12.1976
Translation	-12.1979
TierPriceEntryId	-12.1983
Yaml	-12.1984
ring	-12.1986
Peer	-12.1987
connectorSession	-12.1988
toModel	-12.199
setShow	-12.1992
Editors	-12.1993
IndexSearcher	-12.1993
booleanProperty	-12.2
Bridge	-12.2003
estimate	-12.2004
ent	-12.2004
TextEditor	-12.2005
MEGABYTE	-12.2006
Recurring	-12.2006
distance	-12.2006
Folders	-12.2007
Geo	-12.201
QueryId	-12.2011
myChange	-12.2016
Annotator	-12.2017
WebArchive	-12.2018
Ratio	-12.2019
myEnd	-12.202
processorTag	-12.2023
Through	-12.2031
pageBuilder	-12.2032
basic	-12.204
setUse	-12.2042
assignments	-12.2045
logo	-12.2046
Resolvers	-12.2047
setType	-12.2054
Invoke	-12.2055
Views	-12.2056
stored	-12.2059
Asset	-12.2062
Extraction	-12.2063
ToBe	-12.2063
UtilCore	-12.2066
Constructors	-12.2067
RangeTombstone	-12.2067
zoo	-12.2069
RI	-12.2069
AV	-12.2084
describe	-12.2085
Chunks	-12.2085
forced	-12.2088
Presto	-12.2089
PLAIN	-12.2095
bw	-12.2097
exc	-12.2097
Decoration	-12.2097
sInProgress	-12.2098
smallImage	-12.21
Redundant	-12.2102
servlet	-12.2103
PRECEDENCE	-12.2106
MappingException	-12.211
getDate	-12.2112
keyStore	-12.2113
Aggs	-12.2116
tupleDomain	-12.2118
ProviderFunction	-12.2121
sEqual	-12.2126
CATEGORY	-12.2139
topic	-12.2142
EditorEx	-12.2143
myLayout	-12.2144
scheduled	-12.2147
Network	-12.2148
addElement	-12.2149
period	-12.215
undleContext	-12.215
credentials	-12.2151
checkedMethod	-12.2153
snapshots	-12.2159
Hashes	-12.216
where	-12.216
written	-12.2164
followerIndex	-12.2165
LT	-12.2167
subscribe	-12.2168
KIND	-12.2173
propertyValue	-12.2176
sourceType	-12.2176
setIcon	-12.2177
certificate	-12.2179
download	-12.2183
PsiTypeParameter	-12.2185
Correct	-12.2187
ItemSelector	-12.2192
orig	-12.2193
Markers	-12.2194
hierarchy	-12.2195
findUsages	-12.2198
Ser	-12.22
asString	-12.2207
ModuleDependency	-12.2208
myReplace	-12.2221
bootstrap	-12.2222
httpResponse	-12.2225
Painless	-12.2227
prefer	-12.2228
Assigned	-12.2229
injector	-12.2229
shardUuid	-12.2231
Compound	-12.2239
PRIORITY	-12.224
getBuild	-12.2242
CompositeElement	-12.2246
cli	-12.2249
getBuckets	-12.2251
serialVersionUID	-12.2252
parameterType	-12.2252
myClassName	-12.2254
NoOp	-12.2255
outputStream	-12.2256
je	-12.2257
JavaDoc	-12.2257
repair	-12.2258
getElementType	-12.2258
getTemplate	-12.226
Releasable	-12.226
directories	-12.2262
createNew	-12.2262
deprecation	-12.2263
injected	-12.2264
AL	-12.227
BRACE	-12.2281
ResponseHandler	-12.2281
Validate	-12.2282
rootModel	-12.2282
Follow	-12.2293
DDL	-12.2297
Backward	-12.2303
isUse	-12.2304
systemMemory	-12.2305
ClusterBlock	-12.2307
HitCount	-12.231
RelFinder	-12.2312
transformed	-12.2315
HiveMetastore	-12.2318
Rendering	-12.2319
SUPPORTED	-12.232
MAIN	-12.232
Skipped	-12.2321
Points	-12.2322
inc	-12.2327
DRIVER	-12.2328
IndexTemplate	-12.233
annotate	-12.233
documentation	-12.2333
testParse	-12.2334
fromType	-12.2334
ExternalProject	-12.2334
grouped	-12.2336
Subject	-12.2337
TRANSFORM	-12.234
recursive	-12.2342
rebuild	-12.2343
BigArrays	-12.2343
Expiration	-12.2344
OAuthToken	-12.2344
assign	-12.2348
MANAGE	-12.2351
subPlan	-12.2351
LocalFileSystem	-12.2352
sToDelete	-12.2353
transfer	-12.2354
OAuthConsumer	-12.2354
randomLong	-12.2355
checkResult	-12.2356
setVersion	-12.2358
Digits	-12.2359
est	-12.236
Gutter	-12.236
isLong	-12.2362
warnings	-12.2362
PoolSize	-12.2364
LIKE	-12.2365
Appender	-12.2368
newFile	-12.2373
renderResponse	-12.2374
HEAD	-12.2376
PERIOD	-12.2377
RPAREN	-12.2378
pe	-12.2379
ById	-12.2387
ContentEntry	-12.2387
PersistentClass	-12.2388
CPOptionId	-12.2389
myGroup	-12.2393
Clock	-12.2397
JAR	-12.24
ability	-12.2402
myConsole	-12.2405
liferayPortlet	-12.2405
callSiteBind	-12.2407
RootNode	-12.2407
UserTransaction	-12.2408
Ssl	-12.2408
Brace	-12.2409
GroovyPsiElement	-12.241
parameterName	-12.241
EN	-12.241
framework	-12.2412
ProxyFactory	-12.2416
Physical	-12.2425
Iter	-12.2427
getExpected	-12.243
activation	-12.2434
WHILE	-12.2434
DumbAwareAction	-12.2434
BE	-12.2436
ManagerEx	-12.2437
ecurityException	-12.2438
getDataSource	-12.2442
GradleExecute	-12.2444
LeafReader	-12.2448
Ring	-12.2449
INLINE	-12.2449
getTask	-12.245
outingAllocation	-12.2452
Connections	-12.2455
workingDir	-12.2458
hiveClient	-12.2458
uildingContext	-12.246
PriceListFinder	-12.2463
Caches	-12.2464
FAILURE	-12.2465
ml	-12.2466
UriComponents	-12.2469
imported	-12.2472
GT	-12.2473
WORK	-12.2474
replaced	-12.2474
bian	-12.2474
Dot	-12.2475
Multipart	-12.2476
BaseInspection	-12.2483
QueryState	-12.2484
Suggestion	-12.2492
EntityCache	-12.2494
TextTemplate	-12.2496
ProblemsHolder	-12.2499
getLayout	-12.2501
Topic	-12.2503
Unused	-12.2504
preprocess	-12.2508
TaskInfo	-12.251
myElements	-12.2511
SecondPass	-12.2515
bracket	-12.2515
plus	-12.2515
AllocationId	-12.2515
forName	-12.2518
ResolutionInfo	-12.2521
shardSize	-12.2525
JTS	-12.2526
getNew	-12.2531
pct	-12.2533
beanClass	-12.2535
nodeManager	-12.2536
SearchPhase	-12.2539
Remaining	-12.2544
_11	-12.2545
Was	-12.2547
Alpha	-12.2549
templateName	-12.2553
ManagerConfig	-12.2556
TrainedModel	-12.2557
sig	-12.2558
TRACE	-12.256
Gauge	-12.2561
AROUND	-12.2562
filterFindByC	-12.2565
Linked	-12.2567
AccountEntryId	-12.2568
getOperation	-12.2575
MavenArtifact	-12.258
commenter	-12.2582
toLowerCase	-12.2585
inserted	-12.2588
myDisposed	-12.259
ListCellRenderer	-12.2593
PsiJavaFile	-12.2597
DiscountRule	-12.2597
Admin	-12.2599
define	-12.2601
CreateTable	-12.2609
Clob	-12.2609
getSub	-12.2613
componentType	-12.2615
over	-12.2619
copyFrom	-12.2621
FixedOptionId	-12.2623
ExpectedTypeInfo	-12.2624
hidden	-12.2629
syncDLObject	-12.2631
ForFile	-12.2632
variants	-12.2633
datafeedConfig	-12.2633
AbstractVcs	-12.2637
addAction	-12.2641
subclass	-12.2642
distinct	-12.2642
assetDisplayPage	-12.2645
mc	-12.2645
wildcard	-12.2647
Serialized	-12.2649
Live	-12.265
Timing	-12.2654
INSERT	-12.2655
REPLACE	-12.2655
getInput	-12.2663
WithTime	-12.2664
INDICES	-12.2667
keymap	-12.2668
getHits	-12.2669
iteration	-12.2672
Suggest	-12.2673
Configured	-12.2675
dia	-12.2676
FileStore	-12.2677
AMImageCo	-12.2678
skipped	-12.2681
best	-12.2681
Resize	-12.2683
myRepositories	-12.2684
SpeedSearch	-12.2697
arsi	-12.2697
secure	-12.27
mbeanServer	-12.2702
CenterPanel	-12.2703
actionName	-12.2704
another	-12.2707
Arrow	-12.2711
Clusters	-12.2711
will	-12.2712
pressed	-12.2713
lt	-12.2714
CHANGE	-12.272
getArgumentList	-12.2722
guess	-12.2725
AccessToken	-12.2725
Comparing	-12.2726
reversed	-12.2729
keystore	-12.2733
OptionId	-12.2736
PsiCodeBlock	-12.2737
DebugProcess	-12.274
NoSuchApp	-12.2742
setActive	-12.2745
MS	-12.2745
inderPathFetchBy	-12.2745
PortletData	-12.2747
registrar	-12.2749
ElementPointer	-12.275
RollupJob	-12.275
serverName	-12.2755
ColumnInfo	-12.2756
Supports	-12.2756
optimize	-12.2757
sortOrder	-12.2757
Transfer	-12.276
CacheStats	-12.2762
getHeader	-12.2762
wait	-12.2767
TypeProvider	-12.2769
ContentRevision	-12.2772
PROCESS	-12.2772
Interner	-12.2773
masterNode	-12.2775
RestStatus	-12.2776
InMemory	-12.2776
writeExternal	-12.2783
Vfs	-12.2783
SWITCH	-12.2785
PresentableName	-12.2785
HandlerFunction	-12.2785
myTabs	-12.2787
resultType	-12.279
daemon	-12.2793
CHANNEL	-12.2797
LAMBDA	-12.2797
nodeEnvironment	-12.2797
CodeFragment	-12.2798
preview	-12.28
treePath	-12.2802
Startup	-12.2803
myContainer	-12.2805
setColor	-12.2807
Interpreter	-12.2808
Theme	-12.2809
TasksEntry	-12.281
PyElement	-12.2811
RowGroup	-12.2817
states	-12.2826
Sh	-12.2827
CountryFinder	-12.283
securityContext	-12.2832
Advisor	-12.2832
BOTTOM	-12.2833
third	-12.2833
fun	-12.2838
getBucket	-12.284
getHeaders	-12.284
Reporter	-12.2842
presto	-12.2842
getElements	-12.2843
plain	-12.2844
Accessors	-12.2844
TableStatistics	-12.2845
LongRangeSet	-12.2845
addProperty	-12.2847
RequestPredicate	-12.2849
BucketCount	-12.285
That	-12.285
getCached	-12.2854
ProviderType	-12.2861
myLabel	-12.2867
Meter	-12.2868
CLAUSE	-12.2869
createType	-12.2871
Notifications	-12.2871
getOwner	-12.2873
Off	-12.2875
compaction	-12.288
addInput	-12.2881
myVirtualFile	-12.2901
Todo	-12.2901
PrestoException	-12.2903
NOOP	-12.2904
StageExecution	-12.2905
fn	-12.2905
Insertion	-12.2905
StatsCalculator	-12.2907
Should	-12.2923
initialValue	-12.2923
Passed	-12.2924
Expired	-12.2928
assertNo	-12.293
bot	-12.2935
getLength	-12.2938
rowIndex	-12.2938
network	-12.2938
Blocked	-12.2939
THAN	-12.2941
XBreakpoint	-12.2942
closeSession	-12.2948
CTProcess	-12.2952
Applied	-12.2953
scanner	-12.2953
unsafe	-12.2961
commerceTax	-12.2961
getWidth	-12.2963
StackTrace	-12.2963
getAccount	-12.2966
lifecycleState	-12.2968
TreeCellRenderer	-12.2977
caller	-12.2977
GitCommandResult	-12.2978
Jobs	-12.2979
propertiesFile	-12.2981
myBuffer	-12.2984
Opcode	-12.2984
Caps	-12.2985
mySize	-12.2987
Configurer	-12.2992
SortedSet	-12.2996
WebSocket	-12.2999
Sizes	-12.3
ndOperator	-12.3006
UserMemory	-12.3006
ProjectStructure	-12.3007
getCPD	-12.3011
TabInfo	-12.3013
SEMI	-12.3014
SearchSource	-12.3018
myChild	-12.302
requestor	-12.3023
SourcePosition	-12.3023
addOperation	-12.3029
preferences	-12.3037
IntArray	-12.3039
AddOperation	-12.3043
none	-12.3047
basePath	-12.3049
SCROLL	-12.305
schemaTableName	-12.3053
Scanner	-12.3055
ReadCommand	-12.3055
getFiles	-12.3055
readOptional	-12.3058
BackgroundColor	-12.3059
otherNode	-12.3063
getStatistics	-12.3064
handlers	-12.3067
capture	-12.307
setCPD	-12.3076
TestData	-12.3083
FindByCompanyId	-12.3084
Buffers	-12.3084
ORIGIN	-12.3087
ABSTRACT	-12.3087
Always	-12.3091
Allow	-12.3093
Representation	-12.3094
backup	-12.3099
Bool	-12.31
GrMethod	-12.3108
woLettersISOCode	-12.311
anno	-12.3112
RBRACE	-12.3113
ByAssetEntryId	-12.3116
MessageBus	-12.3118
Regular	-12.3118
ScalarFunction	-12.3121
Backed	-12.3123
CanBe	-12.3127
sourceRoot	-12.3129
Tokenizer	-12.313
Jpa	-12.3132
CHUNK	-12.3137
restart	-12.3138
tracking	-12.3139
BorderLayout	-12.314
assertFunction	-12.3146
cas	-12.3155
ColorKey	-12.316
transformId	-12.3163
hour	-12.3166
finallyBlock	-12.3168
readObject	-12.3171
Since	-12.3173
OS	-12.3174
UnfilteredRow	-12.3176
projects	-12.3176
DatafeedConfig	-12.3185
Paint	-12.3187
ios	-12.3188
HAS	-12.3191
myBase	-12.3191
Editing	-12.3192
nternalCluster	-12.3194
Revisions	-12.3195
SnapshotResponse	-12.3197
Enumeration	-12.3198
immutable	-12.3199
fieldNames	-12.3199
rutil	-12.32
testRemove	-12.3204
Tx	-12.3205
sMatch	-12.3207
objectName	-12.3208
TierPriceEntries	-12.321
Frequency	-12.3211
JavaElement	-12.3213
SourceFolder	-12.3216
Hide	-12.3217
threadId	-12.322
DataOutput	-12.3224
useDefault	-12.3225
safe	-12.3232
NamingException	-12.3234
Cipher	-12.3236
watcher	-12.3238
setParent	-12.3239
dataId	-12.3243
QueueEntryId	-12.3244
FindModel	-12.3245
InitialContext	-12.3246
Compressed	-12.3248
Ext	-12.3248
synchronization	-12.3248
erationException	-12.3255
BROADCAST	-12.3261
Hit	-12.3267
WebKey	-12.3267
Trim	-12.3269
collapse	-12.327
Force	-12.3273
UnsupportedOp	-12.3274
gr	-12.3274
ThreeState	-12.3275
RepositoryData	-12.3278
tmd	-12.328
parseInt	-12.3281
CacheEntry	-12.3288
sourceFile	-12.329
fileId	-12.3292
maxSize	-12.33
BlobStore	-12.3301
Histo	-12.3301
logical	-12.3304
DataStreams	-12.3307
toUserId	-12.3307
party	-12.3308
actionManager	-12.331
setSource	-12.3311
updateCalendar	-12.3314
Increment	-12.3315
rightResult	-12.3316
getDependencies	-12.3324
Tombstone	-12.3327
organizationId	-12.3327
Voting	-12.3328
paramType	-12.3328
testInvalid	-12.3329
Contexts	-12.333
myProvider	-12.3331
FrameAnalytics	-12.3331
processKeyPress	-12.3332
AtOffset	-12.3335
REGISTRY	-12.3336
Gc	-12.3337
prototype	-12.334
na	-12.3341
Removal	-12.3347
authorize	-12.3352
Distributed	-12.3358
columnId	-12.3359
ASSERT	-12.3361
BIT	-12.3364
TransportAddress	-12.3368
resize	-12.3371
dump	-12.3371
CMAP	-12.3371
datafeed	-12.3371
Incompatible	-12.3374
MSG	-12.3375
expiration	-12.3379
mySdk	-12.3384
generics	-12.3386
MULTILINE	-12.3387
branchName	-12.3387
ASM	-12.3388
getExtension	-12.339
accent	-12.339
Receiver	-12.3392
Bidirectional	-12.3397
NA	-12.3398
Begin	-12.3399
TaskManager	-12.34
fromString	-12.34
MANAGED	-12.34
myScheme	-12.3401
Do	-12.3405
ROLES	-12.3407
Ints	-12.3408
commands	-12.3408
struct	-12.341
deterministic	-12.3412
ObjectParser	-12.3415
PlanBuilder	-12.3415
ShipmentItem	-12.3416
fileEditor	-12.3417
getAs	-12.3418
HttpStatus	-12.3418
actionGroup	-12.3421
POINT	-12.3424
Semantic	-12.3425
TWO	-12.3425
ION	-12.3425
clusterName	-12.3428
year	-12.3429
Exporter	-12.3431
Collapsed	-12.3432
go	-12.3433
Positional	-12.3433
getRepository	-12.3436
lastIndexOf	-12.3438
PortletRequest	-12.3438
getClassLoader	-12.3442
Laf	-12.3446
nderPathFetchByC	-12.3446
propertyType	-12.3446
stageExecution	-12.3447
Reply	-12.345
GENERATED	-12.345
coverImage	-12.3453
OrderItems	-12.3457
ModuleVersion	-12.3457
FileChooser	-12.3457
Influencers	-12.3461
Strict	-12.3461
LinkedList	-12.3463
skuContributor	-12.3464
WaitFor	-12.3464
doCreate	-12.3466
maxValue	-12.3469
CREDENTIAL	-12.3472
LogicalPlan	-12.3474
Conf	-12.3474
ClientProperty	-12.3475
ByType	-12.3475
yield	-12.3475
Pingback	-12.3475
doInHibernate	-12.3476
loadState	-12.3476
Exec	-12.3476
newChild	-12.348
matched	-12.3486
REGULAR	-12.3488
handshake	-12.3488
isInside	-12.3489
includes	-12.3496
CriteriaBuilder	-12.3498
derived	-12.3499
MODIFIED	-12.3501
Pointcut	-12.3501
MessageHandler	-12.3507
runTest	-12.3509
ModifierProperty	-12.3513
ELYTRON	-12.3514
cardinality	-12.3514
rectangle	-12.3514
ASC	-12.3514
intersection	-12.3515
DEP	-12.3516
resolveArgument	-12.3516
queryStart	-12.3517
Links	-12.3522
setS	-12.3524
Pushdown	-12.3527
Shutdown	-12.3527
combobox	-12.3527
isApplicable	-12.3528
Soft	-12.3529
addDependency	-12.3529
Dereference	-12.3534
VALIDATION	-12.3539
swing	-12.354
Dest	-12.3541
sessions	-12.3542
secureSettings	-12.3542
Imported	-12.3544
JMX	-12.3548
rootTag	-12.3548
Publication	-12.3549
Deferred	-12.3556
Customizer	-12.3558
Cancelled	-12.3564
LighterASTNode	-12.3566
Varchar	-12.3568
suspendContext	-12.3569
superType	-12.3572
ve	-12.3574
Unary	-12.3576
im	-12.3578
ATTE	-12.3582
HA	-12.3589
Recurrence	-12.3591
"[	-12.3595
Hosts	-12.3598
TableScan	-12.3601
Accept	-12.3607
Anonymous	-12.3608
TypeInfo	-12.3608
referenceElement	-12.3609
getFieldValue	-12.3614
myTag	-12.3614
SystemProperty	-12.3614
LANGUAGE	-12.3617
SystemInfo	-12.3618
baseModel	-12.362
placeholder	-12.362
fe	-12.3623
PlanWith	-12.3624
suspend	-12.3627
occurrence	-12.363
Delegating	-12.363
ancellationToken	-12.363
hqlExecutor	-12.3635
privileges	-12.3635
Compact	-12.3635
getPropertyValue	-12.3637
without	-12.364
owPagesBuilder	-12.3643
Are	-12.3648
attributeValue	-12.365
Aggregated	-12.3652
ur	-12.3652
ModifiableModel	-12.3653
myHighlighter	-12.3654
dataStreams	-12.3657
Alt	-12.3659
YY	-12.366
NULLS	-12.3661
Canonical	-12.3662
SC	-12.3666
DS	-12.3667
Iteration	-12.3667
KEYS	-12.3668
advisor	-12.3669
StreamSource	-12.3677
Exclusions	-12.3679
numShards	-12.368
Combined	-12.3681
Checks	-12.3682
toolbar	-12.3687
createCriteria	-12.3688
Guard	-12.3692
Three	-12.3693
Wrapped	-12.3695
WM	-12.3695
GEOMETRY	-12.3695
Overflow	-12.3695
MultiValueMap	-12.3695
ToProcess	-12.3696
Breakpoints	-12.3697
ioFile	-12.3702
mapType	-12.3709
forClass	-12.3709
copyTo	-12.3713
None	-12.3721
users	-12.3723
SUPER	-12.3723
testResolve	-12.3724
indexWriter	-12.3725
ErrorCode	-12.3726
ClusterSettings	-12.3726
Steps	-12.3729
heap	-12.3732
getCondition	-12.3733
activity	-12.3734
StyleManager	-12.3742
FromElement	-12.3746
repeat	-12.3746
discriminator	-12.3747
namedWriteable	-12.3747
ADDR	-12.375
getGroupEntries	-12.3752
enqueue	-12.3752
coll	-12.3753
InspectionPro	-12.3754
postProcess	-12.3754
ML	-12.3757
CHANGED	-12.3762
il	-12.3763
bytesRead	-12.3764
ListPersistence	-12.3767
getLineNumber	-12.3773
Orientation	-12.3773
auditTrail	-12.3773
persistenceUnit	-12.3774
getEntry	-12.3777
SCALE	-12.3781
powwowServer	-12.3781
Ancestor	-12.3783
Matchers	-12.3784
GroupIds	-12.3787
PrestoPrincipal	-12.3787
Collect	-12.3788
ALLOCATION	-12.3788
OrBuilder	-12.379
pd	-12.3791
jobs	-12.3791
TokenFilter	-12.3792
RunAs	-12.3792
getX	-12.3792
ClusterPrivilege	-12.3795
NonNull	-12.3796
STARTED	-12.3797
normal	-12.3799
EXPIRATION	-12.38
RECORD	-12.3801
attrName	-12.3802
USERNAME	-12.3803
errorHandler	-12.3805
ExecutionResult	-12.3807
DEFINITION	-12.3809
affected	-12.381
systemId	-12.3811
Email	-12.3811
SecureSettings	-12.3812
GROOVY	-12.3813
Mockito	-12.3813
yy	-12.3824
writeObject	-12.3825
initOffset	-12.3827
UpperBound	-12.3833
fileResolver	-12.3833
FULL	-12.3835
ConfigFile	-12.3838
authorization	-12.3839
Dispatch	-12.3841
Explain	-12.3842
TypeName	-12.3844
ByReferenceCode	-12.3846
area	-12.3846
COUNTER	-12.3849
myRoots	-12.3851
Func	-12.3851
DISTINCT	-12.3853
sender	-12.3857
GrVariable	-12.3863
AllocationIds	-12.3863
PropertyValue	-12.3864
Inclusive	-12.3866
TestFixture	-12.3867
substitution	-12.3869
TestUtils	-12.3874
Normal	-12.3874
alt	-12.3879
NATIVE	-12.3879
Ann	-12.3881
InjectedLanguage	-12.3884
PluginDescriptor	-12.3885
Deque	-12.3892
GEOL	-12.3893
Hovered	-12.3894
DE	-12.3897
assigned	-12.3898
multiple	-12.3898
Src	-12.3899
IdeaPlugin	-12.3903
YAML	-12.3906
getPosition	-12.3906
naturalId	-12.3907
deactivate	-12.391
cannot	-12.3912
GroupConfig	-12.3919
MappedSuperclass	-12.392
myCaret	-12.3923
ers	-12.3926
readFrom	-12.3932
WEIGHT	-12.3932
AnalyticsConfig	-12.394
BuildTarget	-12.394
ClassNotFound	-12.3942
fake	-12.3944
fetchByA	-12.3944
setVisible	-12.3944
Captor	-12.3946
CopySpec	-12.3949
moduleIdentifier	-12.395
subscript	-12.3951
Dao	-12.3952
getWrapped	-12.3953
EndpointsFor	-12.3955
SystemId	-12.3956
EXIT	-12.3959
unused	-12.3961
Register	-12.3964
Installed	-12.3965
NewLine	-12.3972
Classifier	-12.3973
Fails	-12.3973
bucketSpan	-12.3974
streamDescriptor	-12.3976
ExecutionState	-12.3977
ActionFilters	-12.3978
addDocument	-12.3981
MetricName	-12.3981
Sender	-12.3988
_2_0	-12.3988
TimeInMillis	-12.399
Occurence	-12.3991
Activate	-12.3991
HANDLE	-12.3995
Invoked	-12.3996
201	-12.3997
numeric	-12.3998
Orig	-12.4001
getSelection	-12.4004
PriceListService	-12.4004
Positive	-12.4005
getValues	-12.4006
complex	-12.4007
Anno	-12.4012
JpsModule	-12.4023
SideM	-12.4026
GridConstraints	-12.4027
PsiNewExpression	-12.4029
Attrs	-12.4029
-=	-12.4032
zone	-12.4033
Optimization	-12.4037
getError	-12.4039
FileContent	-12.4042
OutputPath	-12.4043
FontPreferences	-12.4045
Rollover	-12.4046
Ml	-12.4047
cond	-12.4049
management	-12.4052
ExpirationDate	-12.4053
myUi	-12.4055
upperBound	-12.4055
operationName	-12.4056
declareString	-12.4057
Incremental	-12.4062
StorageFormat	-12.4063
ha	-12.4065
Autoscaling	-12.4067
entryCount	-12.4071
documents	-12.408
SAMPLE	-12.4081
ActionToolbar	-12.4086
readExternal	-12.4091
Cascade	-12.4091
Fingerprint	-12.4093
balloon	-12.4094
getStart	-12.4097
isNew	-12.4099
toInt	-12.4103
Automaton	-12.4104
authenticate	-12.4105
percentiles	-12.4106
ByteBuf	-12.4108
HBM	-12.4108
Jsp	-12.4109
myStorage	-12.4109
dataNode	-12.4109
Goto	-12.4111
FilterFunction	-12.4112
Idle	-12.4112
oldName	-12.4119
columnHandle	-12.4119
IfNotNull	-12.4123
firstTimeout	-12.4131
DomainObject	-12.4133
decorator	-12.4149
ToRemove	-12.4149
Instructions	-12.415
restricted	-12.416
Pagination	-12.416
Shadow	-12.4161
orElse	-12.4162
bits	-12.4173
TestInstance	-12.4175
EXTENDS	-12.4176
infer	-12.4176
ColumnHandles	-12.4178
ActionManager	-12.4178
TRY	-12.4182
Choose	-12.4187
AMImage	-12.4191
association	-12.4194
receive	-12.4202
getFull	-12.4202
Cpu	-12.4203
ComponentService	-12.4209
getItems	-12.4209
setSize	-12.4211
RefEdEntity	-12.4212
commerceProduct	-12.4213
portletId	-12.4214
Units	-12.4214
ASSIGN	-12.4217
cols	-12.4221
searchContainer	-12.4226
OVER	-12.4226
DN	-12.4227
SystemProperties	-12.4227
COMPRESSION	-12.4231
Inferred	-12.4231
WorkingDirectory	-12.4231
invokeLater	-12.4231
addComponent	-12.4235
InNanos	-12.4242
MouseListener	-12.4248
myProcess	-12.4248
Seed	-12.4249
ShipmentFinder	-12.425
reroute	-12.4253
Rev	-12.4255
compose	-12.4257
TaskContext	-12.4259
FOLDER	-12.4259
DefinitionLink	-12.4271
TopDocs	-12.4273
taskName	-12.4275
RequestCallback	-12.4276
blocked	-12.4277
ity	-12.428
getHost	-12.4281
getItem	-12.4285
findChild	-12.4288
userObject	-12.4289
boost	-12.4289
accepted	-12.4294
CandidateInfo	-12.4297
SHARDS	-12.4302
ParsedDocument	-12.4302
Site	-12.4303
initialized	-12.4305
ResolveState	-12.4306
LayeredPane	-12.4314
plid	-12.4314
externalSystemId	-12.4316
LookupSource	-12.4319
MessageListener	-12.4323
OriginalValue	-12.4324
myMax	-12.4324
PMI	-12.4325
permissions	-12.4328
VarType	-12.4329
getPrevious	-12.4332
blockEncoding	-12.4333
lon	-12.4333
Probe	-12.4334
ActiveShards	-12.4336
ForeignKey	-12.4341
migrate	-12.4342
pyClass	-12.4342
ActionResponse	-12.4342
received	-12.4344
searchExecution	-12.4346
compact	-12.4348
IsSet	-12.4349
fieldValue	-12.435
buffers	-12.4351
RunWith	-12.4352
getSchema	-12.4354
MemoryUsage	-12.4356
totalSize	-12.4356
_21	-12.4357
RenderRequest	-12.4358
Predicates	-12.4359
checkpoint	-12.4361
HelpId	-12.4365
myParameters	-12.4366
BTree	-12.4368
REPOSITORY	-12.4369
EntityKey	-12.4371
dataStreamName	-12.4372
ByExternal	-12.4373
otherEntity	-12.4374
erAccount	-12.4377
Lib	-12.4381
Many	-12.4381
IndexResponse	-12.4382
verification	-12.4383
"1	-12.4397
javaType	-12.4397
ParsingException	-12.4399
concrete	-12.4402
terminalBlock	-12.4404
subtract	-12.4408
Widget	-12.4408
flowInstanceLink	-12.4409
SYNCHRON	-12.4411
DfaMemoryState	-12.4411
Fill	-12.4412
Containing	-12.4412
Statuses	-12.4413
hasModifier	-12.4415
cd	-12.4415
TaskMap	-12.4416
Icons	-12.4417
UserDataHolder	-12.4417
ByOrganizationId	-12.4417
Thrift	-12.4419
RELATIVE	-12.4425
lenient	-12.4425
RUNNING	-12.4425
PainlessParser	-12.4426
Formula	-12.4427
geo	-12.4429
utf	-12.4433
Algorithm	-12.4433
myColor	-12.4434
POSITION	-12.4436
InEditor	-12.4437
myAnchor	-12.4442
psiDirectory	-12.4445
Singular	-12.445
MCPK	-12.4451
abort	-12.4453
Trackbacks	-12.4453
mutate	-12.4454
login	-12.4457
SecureString	-12.446
dd	-12.4461
AnnotatedElement	-12.4463
CacheManager	-12.4465
Writes	-12.4465
writable	-12.4468
maxOutstanding	-12.4468
NoSuchDiscount	-12.4468
dataset	-12.4468
commits	-12.4469
HandlerMapping	-12.447
UpperCase	-12.4476
queryState	-12.4477
cacheable	-12.4478
getCommerceShip	-12.4479
STEP	-12.4479
getFont	-12.448
have	-12.4482
extend	-12.4482
ff	-12.4483
Rel	-12.4485
uh	-12.4486
CommitLog	-12.4488
HttpServer	-12.449
ize	-12.4491
emptySet	-12.4493
assetCategoryIds	-12.4493
RequestBody	-12.4494
getAccessible	-12.4497
cfm	-12.4502
putValue	-12.4503
Dump	-12.4505
TopLevel	-12.4505
GridBag	-12.4506
_1_1	-12.4508
tDigest	-12.4509
encrypted	-12.451
setReadOnly	-12.4512
CHARSET	-12.4513
SelectionStart	-12.4519
UpToDate	-12.452
TestClass	-12.452
DISABLE	-12.4523
RetentionDays	-12.4524
reduced	-12.4528
constructors	-12.4534
myError	-12.4535
objectMapper	-12.4536
Bag	-12.4538
netSocketAddress	-12.4538
Metamodel	-12.4539
rightPosition	-12.4539
applyFix	-12.4543
Moved	-12.4547
readBoolean	-12.4548
ServiceBuilder	-12.4549
temporary	-12.455
myUrl	-12.4552
slot	-12.4553
getRange	-12.4553
probeHash	-12.4555
ScriptService	-12.4557
FileViewProvider	-12.4559
spill	-12.456
Outbound	-12.4563
DISPLAY	-12.4567
createEditor	-12.4571
ClusterHealth	-12.4574
Intersection	-12.4577
emf	-12.4577
ANNOTATIONS	-12.4578
modelNode	-12.4581
COPY	-12.4581
ze	-12.4585
testDefault	-12.4588
aggBuilder	-12.4594
Prompt	-12.4595
between	-12.4595
configured	-12.4598
Bin	-12.46
fromElement	-12.4601
testF	-12.4606
AGGREGATION	-12.4606
SECTION	-12.4607
Wrapping	-12.4607
dateTime	-12.4608
REST	-12.4608
PASS	-12.4609
CacheFile	-12.4609
setBorder	-12.461
broadcast	-12.4615
parentClass	-12.4623
three	-12.4624
SGR	-12.4624
Margin	-12.4626
myIgnore	-12.4626
executorService	-12.4628
Username	-12.4629
CollectionId	-12.4633
scalar	-12.4635
bb	-12.4636
Chosen	-12.4638
SUCCESS	-12.4638
ddmStructureId	-12.4639
03	-12.4639
blobName	-12.4639
WEB	-12.4639
XDebugger	-12.4643
SchemaName	-12.4647
reserved	-12.4649
OVERRIDE	-12.4649
Calculator	-12.465
center	-12.465
Extends	-12.465
TemplateEntryId	-12.4651
fqn	-12.4653
thrift	-12.4653
Box	-12.466
Slow	-12.4661
Merger	-12.4662
getColumnValue	-12.4664
100	-12.4666
Cells	-12.4666
exact	-12.4667
converted	-12.4669
containsString	-12.4673
Book	-12.468
Xslt	-12.4681
Track	-12.4683
ment	-12.4683
ConcurrentMap	-12.4689
Persisted	-12.4689
Clean	-12.4695
timeValue	-12.4699
getDataContext	-12.4699
But	-12.4699
getOrderBy	-12.4701
Configure	-12.4701
Sibling	-12.4701
StreamEx	-12.4702
DATAFEED	-12.471
SnapshotId	-12.4714
Early	-12.4716
Rank	-12.4719
myTemplate	-12.4724
yybegin	-12.4725
getAttachment	-12.4725
NClob	-12.473
Discount	-12.4732
normalizer	-12.4733
Cfg	-12.4738
refreshToken	-12.4738
HISTORY	-12.4739
SAME	-12.4739
spiller	-12.474
createAdd	-12.4743
mem	-12.4746
inbound	-12.4747
ByCTCollectionId	-12.4748
classNameIds	-12.4749
SERIAL	-12.475
Extracted	-12.4751
ALWAYS	-12.4754
bookmarksFolder	-12.4754
month	-12.476
DBManager	-12.4761
targetFile	-12.4765
pillEnabled	-12.4766
PsiCall	-12.4767
ScrollingModel	-12.4768
avg	-12.4769
zzBuffer	-12.477
projections	-12.4771
refClass	-12.4772
ScopedSettings	-12.4776
ENCODING	-12.4783
createModule	-12.4784
readInt	-12.4787
setState	-12.4789
Versioned	-12.4793
Resolving	-12.4797
ELSE	-12.4797
ProcessCanceled	-12.4797
CompressionCodec	-12.4798
whiteSpace	-12.4798
entities	-12.4798
ResourceGroup	-12.4799
TransformConfig	-12.48
called	-12.4802
ServerResponse	-12.4803
Colored	-12.4803
ApiKey	-12.4804
Broker	-12.4804
OuterJoin	-12.4806
deploymentName	-12.4807
providerType	-12.4808
Stateful	-12.4809
Col	-12.4809
Cql	-12.481
toList	-12.4811
PLUS	-12.4812
IndexReader	-12.4812
replaceAll	-12.4816
Classification	-12.4818
beanDefinition	-12.482
macro	-12.4821
Bad	-12.4822
Opened	-12.4823
memtable	-12.4823
attempt	-12.4825
Mirror	-12.4827
ToCheck	-12.4829
TypeAttribute	-12.4831
ListModel	-12.4832
fullName	-12.4834
Requirements	-12.4839
castTo	-12.4839
actualType	-12.484
SOFT	-12.4841
Initializing	-12.4841
RouterFunction	-12.4843
Stopped	-12.4845
getInitializer	-12.4847
subtitle	-12.485
US	-12.4852
nextInt	-12.4852
TRANS	-12.4853
viewer	-12.4853
COMPILE	-12.4853
times	-12.4858
Scrolling	-12.4859
ViewProvider	-12.4861
Inbound	-12.4861
BORDER	-12.4863
Sta	-12.4863
Cert	-12.4867
myInstalled	-12.4868
STACK	-12.487
LESS	-12.4871
TimeNanos	-12.4877
Perform	-12.4878
BlobContainer	-12.4881
UNIT	-12.4882
containing	-12.489
capability	-12.4891
RecoveryState	-12.4891
vf	-12.4892
SliceOutput	-12.4892
orderEntry	-12.4896
StandardScheme	-12.4901
consoleView	-12.4901
getDouble	-12.4904
Another	-12.4905
Insn	-12.4905
stable	-12.4906
hive	-12.4908
throttle	-12.491
Throttle	-12.4912
myLocal	-12.4913
EnrichPolicy	-12.4914
myActive	-12.4914
ASY	-12.492
Jackson	-12.4922
Unfiltered	-12.4923
ogo	-12.4928
BodyBuilder	-12.4928
dt	-12.4928
DELIMITER	-12.4929
DEPRECATED	-12.4929
BundleContext	-12.4929
tc	-12.4929
fetchSource	-12.4933
Focused	-12.4934
getRow	-12.4934
Exp	-12.4939
Deep	-12.4943
ESCAPE	-12.4943
Focusable	-12.4943
capabilities	-12.4944
opType	-12.4945
fileVersion	-12.4945
Signal	-12.4948
Consistency	-12.4948
Yield	-12.4949
TermVectors	-12.495
Prototype	-12.4952
reject	-12.4953
JavaVersion	-12.4955
BaseService	-12.4958
vertical	-12.4959
Resume	-12.4962
securityToken	-12.4966
COMMERCEACCOUNT	-12.4971
DocumentContent	-12.4972
fd	-12.4975
RESTE	-12.4976
dispatcher	-12.4979
Eq	-12.498
ja	-12.4983
mySession	-12.4983
isInterface	-12.4984
NodeClient	-12.4985
Accepted	-12.4986
EditorWindow	-12.4989
Synthetic	-12.4998
tester	-12.4999
DynamicObject	-12.5001
poll	-12.5002
decorate	-12.5005
PROGRESS	-12.5018
AssignsVariable	-12.5018
discovered	-12.5018
RemoteCluster	-12.5018
AlreadyExists	-12.5018
getAdditional	-12.5019
metastore	-12.502
pinot	-12.502
FileAttributes	-12.502
Production	-12.5028
ResponseEntity	-12.5028
MODIFIER	-12.503
possible	-12.5032
addNode	-12.5036
FieldNames	-12.5039
endIndex	-12.504
stmt	-12.5041
hiveStorage	-12.5044
contextPath	-12.5046
getPsiElement	-12.5046
Fully	-12.5047
TITLE	-12.5048
adaptiveMedia	-12.5048
rand	-12.5049
byteBuffer	-12.5051
getComment	-12.5053
webServer	-12.5053
StartRead	-12.5054
SearchContainer	-12.5059
Scoped	-12.506
FileEntries	-12.5061
ByKey	-12.5063
rightBlock	-12.5065
CODEC	-12.5066
totalShards	-12.5067
ontractVariation	-12.5068
rect	-12.5073
overImageCaption	-12.5075
mutable	-12.5075
Transition	-12.508
02	-12.5081
myLog	-12.5083
fetchByCommerce	-12.5086
PyNames	-12.5089
Parents	-12.5089
getNum	-12.5089
Reserved	-12.5093
ENTRIES	-12.5093
setAllow	-12.5094
GetDefault	-12.5095
Sorter	-12.5095
starting	-12.5095
xmlFile	-12.5096
MavenProjects	-12.5102
MapKey	-12.5104
IgnoreCase	-12.5105
enforce	-12.5106
JTable	-12.5107
human	-12.5108
REGION	-12.5108
categorization	-12.5108
TOPIC	-12.5108
ByAccountEntryId	-12.511
myPresentation	-12.5113
ive	-12.5115
Successful	-12.5115
getDelegate	-12.5122
headerName	-12.5122
Lucene	-12.5123
PRESTO	-12.5123
Spring	-12.5123
remoteTask	-12.5123
mappedBy	-12.5126
OutputFile	-12.5127
Suppress	-12.5136
Reads	-12.5137
BAR	-12.5137
incrementAndGet	-12.5138
cert	-12.5139
WebApplication	-12.5141
Login	-12.5143
Large	-12.5144
PackLicenseState	-12.5144
restRequest	-12.5146
editable	-12.5148
DiffContent	-12.5149
softWrap	-12.515
major	-12.5151
GREATER	-12.5153
TailType	-12.5154
peak	-12.5155
Boost	-12.5155
finder	-12.5161
repositoryData	-12.5162
decoded	-12.5162
urls	-12.5163
Rollup	-12.5164
credential	-12.5166
createComponent	-12.5168
SKU	-12.5168
Modal	-12.5171
getLeft	-12.5172
XY	-12.5175
Embeddable	-12.5176
Derived	-12.5178
SortOrder	-12.5179
getByUuid	-12.5179
Normalizer	-12.5183
JPQL	-12.5183
compareAndSet	-12.5183
pbr	-12.5184
ServiceView	-12.5184
PsiIfStatement	-12.5186
cpOptionId	-12.5197
MESSAGES	-12.5197
GutterIcon	-12.5198
Scorer	-12.5201
Injections	-12.5201
CaretPosition	-12.5203
Detection	-12.5204
ness	-12.5205
reformat	-12.5205
isEntity	-12.5209
LAYOUT	-12.5214
WithBrowseButton	-12.5214
columnHandles	-12.5214
superior	-12.5214
getOrder	-12.5215
paren	-12.5217
getPriority	-12.5219
layer	-12.5223
TIMER	-12.5224
PackageName	-12.5224
SQLQuery	-12.5225
accumulate	-12.5226
getBy	-12.5228
watchId	-12.5228
ShelvedChange	-12.5228
audit	-12.5228
ContentRoot	-12.5235
getInfo	-12.5235
LiferayPortlet	-12.5237
FILL	-12.5244
defined	-12.5244
NoSuchCPInstance	-12.5246
Jms	-12.5248
Keystore	-12.5252
ph	-12.5253
testMultiple	-12.5254
SPLIT	-12.5254
Regions	-12.5257
usageInfo	-12.5261
descend	-12.5262
RolesStore	-12.5264
Built	-12.5269
ReflectionUtil	-12.5269
MessageDialog	-12.527
Analyzed	-12.527
aliasName	-12.5271
evaluator	-12.5274
getHeight	-12.5275
SLASHY	-12.5275
getStats	-12.5275
AssetVocabulary	-12.5276
FIXED	-12.5283
CONNECTIONS	-12.5287
uthorizedIndices	-12.5289
myInput	-12.529
pt	-12.529
httpRequest	-12.5292
Included	-12.53
regationBuilder	-12.5301
requestContext	-12.5301
ByteBufferUtil	-12.5301
PRIMITIVE	-12.5305
variableName	-12.5305
MANAGEMENT	-12.5305
unsupported	-12.5306
Cycle	-12.5306
newText	-12.5307
Iterators	-12.5309
Horizontal	-12.5309
Big	-12.5311
Characters	-12.5314
ArgumentList	-12.5316
RequestMapping	-12.5317
extended	-12.5321
cleanUp	-12.5321
RootManager	-12.5321
unresolved	-12.5322
addAttribute	-12.5322
conn	-12.5323
checkCan	-12.5324
getLocale	-12.5324
mySrcDir	-12.5325
exitCode	-12.5327
routingNodes	-12.5327
Workspace	-12.533
MethodVisitor	-12.5333
getByte	-12.5335
Utf	-12.5336
CanonicalText	-12.5336
myRb	-12.5336
Seen	-12.5336
leftType	-12.5337
ActionEvent	-12.5337
Opaque	-12.5338
DocComment	-12.534
persisted	-12.5344
methodHandle	-12.5345
myRef	-12.5348
lo	-12.5349
statusByUser	-12.5353
RulePersistence	-12.5355
dbi	-12.5356
CountByCompanyId	-12.5356
SearchShard	-12.5356
ContainerFactory	-12.5358
NoSuchInventory	-12.5358
CaretOffset	-12.5358
Bigint	-12.5363
Semaphore	-12.5367
200	-12.5368
LineStartOffset	-12.5371
getColor	-12.5373
myHelper	-12.5373
InfoImpl	-12.5376
tl	-12.5376
StructureView	-12.5379
Caller	-12.538
QUICK	-12.5382
LARGE	-12.5382
SMTestProxy	-12.5382
ALLOWED	-12.5383
Equivalence	-12.5383
preserve	-12.5384
Counts	-12.5387
Released	-12.5388
setCurrent	-12.5388
TAuto	-12.5389
TAGS	-12.539
PrestoSpark	-12.5398
Coordinates	-12.5398
ReflectionIndex	-12.5401
AutoFollow	-12.5401
Performance	-12.5404
Cacheable	-12.5405
saved	-12.5406
gb	-12.5407
cal	-12.5408
placement	-12.5409
Notation	-12.5413
MINUS	-12.5413
PlanOptimizer	-12.5413
awt	-12.5414
Executed	-12.5416
arrayType	-12.5422
entityPersister	-12.5424
AndConfiguration	-12.5425
currentStep	-12.5426
intellij	-12.5428
syncDevice	-12.5429
Until	-12.5435
lastName	-12.5438
Mnemonic	-12.5439
fours	-12.5439
toPath	-12.544
NullValue	-12.5443
CURLY	-12.5444
MAPPER	-12.5446
Latest	-12.5447
OutputVariables	-12.5447
grantee	-12.5448
callbacks	-12.545
getOnly	-12.545
CacheSize	-12.5455
Models	-12.5456
myRenderer	-12.5459
myTargetClass	-12.5459
inferred	-12.546
assertRows	-12.5461
findFirst	-12.5462
QUOTE	-12.5464
StatusCode	-12.5464
Canceled	-12.547
LocalizedFields	-12.5475
journalArticle	-12.5475
records	-12.5476
fetchByCom	-12.5479
TokenMetadata	-12.5479
lType	-12.5479
Hex	-12.5484
myTo	-12.5485
restClient	-12.5487
SortBy	-12.5487
PsiLambda	-12.5488
et	-12.5489
JBTabs	-12.5491
selectedValue	-12.5491
BinaryStream	-12.5494
getCount	-12.5494
issue	-12.5496
Mismatch	-12.5499
mi	-12.5504
Aliased	-12.5505
complement	-12.5506
ForImport	-12.5507
udt	-12.5507
IRD	-12.5507
ChangesBrowser	-12.5511
Buffered	-12.5513
nek	-12.5514
taskExecutor	-12.5515
NodeEnvironment	-12.5518
already	-12.5521
MinimumSize	-12.5521
runAs	-12.5522
UnknownFields	-12.5524
bcc	-12.553
getList	-12.5534
subquery	-12.5534
orderByField	-12.5535
trackbacks	-12.5538
quick	-12.5544
testIndex	-12.5546
DC	-12.5547
small	-12.5547
channels	-12.5547
searchFor	-12.5548
Overriding	-12.5552
currency	-12.5553
planNode	-12.5564
Quotes	-12.5566
_20	-12.5566
getFields	-12.5566
Labels	-12.5568
Changelist	-12.557
Bounded	-12.557
frequency	-12.557
StdArrangement	-12.5571
myHead	-12.5577
Flavor	-12.5578
BRACKET	-12.558
testQuery	-12.5587
incomplete	-12.559
RadioButton	-12.5598
SPEC	-12.5599
frozen	-12.5599
TransportAction	-12.5601
THROWS	-12.5603
soft	-12.5603
FUNCTIONS	-12.5606
Readers	-12.5607
NAMED	-12.5607
Statistic	-12.5613
JavaModule	-12.5615
SHARED	-12.5617
DataInput	-12.5617
ompletableFuture	-12.562
myLanguage	-12.5621
filterCountBy	-12.5622
Macros	-12.5625
_22	-12.5625
STRUCT	-12.5632
SERVLET	-12.5632
STORAGE	-12.5632
copedSettings	-12.5633
Busy	-12.5634
retentionLease	-12.5636
cap	-12.5637
ForEach	-12.5643
lineStart	-12.5643
PluginModel	-12.5644
deepCopy	-12.5648
fileIndex	-12.5654
clusterInfo	-12.5657
hasS	-12.5659
Cls	-12.566
verb	-12.5661
Merging	-12.5663
Provided	-12.5664
ARCHIVE	-12.5664
doUpdate	-12.5664
Detached	-12.5664
Effective	-12.5665
WarningCollector	-12.5666
getSnapshot	-12.5669
sourceNode	-12.5672
startX	-12.5673
QueryInfo	-12.5677
known	-12.5677
LibraryTable	-12.5677
registered	-12.5678
myWindow	-12.5679
CATALOG	-12.568
DELTA	-12.568
flavor	-12.568
deprecated	-12.568
myP	-12.5681
Star	-12.5682
abs	-12.5687
myIndicator	-12.5689
myDebugProcess	-12.569
wac	-12.5691
DOLLAR	-12.5691
categoryId	-12.5695
childNode	-12.5696
elasticsearch	-12.5696
Rebuild	-12.5703
getAddress	-12.5705
getWriteable	-12.5707
Connected	-12.5708
ToShow	-12.5708
getRole	-12.571
circuitBreaker	-12.5712
ChildRole	-12.5712
Tile	-12.5713
endElement	-12.5719
TreeUtil	-12.5722
ErrorHandler	-12.5725
pom	-12.5726
peek	-12.5727
ChangeSet	-12.5729
Ok	-12.573
SdkType	-12.573
findByR	-12.5731
Affected	-12.5732
Instantiation	-12.5732
Highlights	-12.5733
Card	-12.5733
Ivy	-12.5738
asMap	-12.5741
myLeft	-12.5742
slash	-12.5742
vDir	-12.5742
jxFolder	-12.5744
BufferedImage	-12.5744
logicalPosition	-12.5745
sections	-12.5745
getCalendar	-12.5746
myForce	-12.5748
myDisposable	-12.5749
HE	-12.5749
Broken	-12.5749
shell	-12.575
selectionStart	-12.5752
ssr	-12.5752
Windows	-12.5753
testWith	-12.5754
Coordinate	-12.5759
BEGIN	-12.576
cancellable	-12.576
assume	-12.576
observer	-12.576
CodeStyleManager	-12.5761
Rating	-12.5765
Autodetect	-12.5766
um	-12.5766
nology	-12.5767
privilege	-12.5769
hosts	-12.577
Comma	-12.5774
StandardService	-12.5774
isAssignable	-12.5777
PlanFragment	-12.5778
minor	-12.5781
PathComponent	-12.5782
setWrapped	-12.5785
Own	-12.5786
SocketBinding	-12.5788
PROFILE	-12.5789
twos	-12.579
TUPLE	-12.5792
lowerBound	-12.5795
getView	-12.5799
Checkout	-12.58
myHost	-12.5804
PartitionUpdate	-12.5805
myVisible	-12.5806
Closing	-12.5807
tableScan	-12.5807
MULTI	-12.5808
StockQuantity	-12.5808
assetCategoryId	-12.5808
serializedSize	-12.581
EventLog	-12.5822
HEIGHT	-12.5824
co	-12.5827
getPattern	-12.5833
primaryShard	-12.5833
WithEmpty	-12.5833
ACCOUNT	-12.5839
cipher	-12.584
enclosing	-12.584
RangeQuery	-12.5841
PrintStream	-12.5841
car	-12.5846
jndi	-12.5848
readerContext	-12.5851
Secure	-12.5854
Spatial	-12.5854
appId	-12.5858
Protected	-12.5859
FunctionName	-12.5866
BIG	-12.5868
getMap	-12.5869
ForType	-12.5871
newOffset	-12.5874
getAdd	-12.5874
folding	-12.5876
REDIRECT	-12.5878
DefaultList	-12.588
Behavior	-12.588
getModules	-12.5882
_1_	-12.5882
xp	-12.5883
DEPENDENCY	-12.5889
flatten	-12.5894
Red	-12.5897
isDone	-12.59
Phone	-12.5901
getShortName	-12.5901
CORE	-12.5902
ops	-12.5902
sortChannel	-12.5903
affix	-12.5905
Writers	-12.5906
Spiller	-12.5906
testFind	-12.5908
MemberInfo	-12.591
Cut	-12.5911
Queryable	-12.5911
classPath	-12.5911
Wizard	-12.5913
PsiDocument	-12.5913
writeOptional	-12.5913
Suspend	-12.5913
actionListener	-12.5917
grouping	-12.5917
swap	-12.5918
deleteCalendar	-12.5918
myDescriptor	-12.5918
ocationDeciders	-12.5919
EXT	-12.5921
Notifier	-12.5921
Decl	-12.5922
ItemException	-12.5923
rootDir	-12.5924
HttpHandler	-12.5924
PinotQuery	-12.5924
ReaderContext	-12.5924
Visit	-12.5931
DOCUMENT	-12.5938
REFRESH	-12.5938
contract	-12.5943
StringArray	-12.5945
Memtable	-12.5945
beanType	-12.5945
lw	-12.5946
EditorTextField	-12.5946
less	-12.5947
emp	-12.5948
getRemote	-12.5948
amImageEntry	-12.5948
Substitutions	-12.5949
createConcurrent	-12.5951
DefaultLanguage	-12.5952
pagination	-12.5954
createDefault	-12.5957
isFinished	-12.5957
Matched	-12.5958
readValue	-12.5968
Retention	-12.5969
Immediately	-12.5971
ByExecuteStatus	-12.5972
sf	-12.5974
views	-12.5975
Includes	-12.5977
Superclass	-12.5978
elt	-12.5981
Raptor	-12.5986
Slash	-12.5987
ShardFollowTask	-12.5987
prod	-12.5988
myPlugin	-12.5991
TempFile	-12.5993
hashChannel	-12.5997
RowType	-12.5998
Noop	-12.5999
ExecutionTime	-12.5999
Addr	-12.6
myNext	-12.6002
newArrayList	-12.6003
myLibAdditional	-12.6003
VARBINARY	-12.6003
JavaFx	-12.6004
getDialect	-12.601
CE	-12.6012
yogi	-12.6013
inference	-12.6016
splits	-12.6016
resolveScope	-12.6019
dataBuffer	-12.6022
expectedValue	-12.6024
LocalChangeList	-12.6024
getRight	-12.6024
ctsContent	-12.6028
AndGet	-12.603
coordinates	-12.6034
Pause	-12.6035
prepareSearch	-12.6037
Finally	-12.6039
DELETED	-12.604
currentNode	-12.6042
getBad	-12.6042
pagesIndex	-12.6044
JournalArticle	-12.6044
CONTINUE	-12.6045
joinNode	-12.6045
Undertow	-12.6046
Disposed	-12.6047
Ratings	-12.6047
absolute	-12.605
OptionRels	-12.6052
Manual	-12.6053
Divider	-12.6054
newClusterState	-12.6057
Intentions	-12.6058
>>>	-12.6059
StandardType	-12.6059
EntityGraph	-12.6059
NamedQuery	-12.6059
rightType	-12.606
DocCountError	-12.6064
JBOSS	-12.6069
WeDeployAuth	-12.6069
trainedModel	-12.6069
QueryParameters	-12.607
Disk	-12.6072
Fold	-12.6073
Goal	-12.6075
FileSystemItem	-12.6079
tasksEntry	-12.6085
drag	-12.6085
DIRECT	-12.6086
stdout	-12.6086
Joiner	-12.6087
Percentiles	-12.6095
Mixed	-12.6095
retentionLeases	-12.6099
LanguageUtil	-12.6102
OpenIdConnect	-12.6102
myFrame	-12.6106
nt	-12.6111
Strategies	-12.6114
NamingStrategy	-12.6116
BRANCH	-12.6119
createMessage	-12.6124
LocaleUtil	-12.6125
writeBoolean	-12.6133
Navigator	-12.6136
GroupNode	-12.6136
startIn	-12.6136
buildFile	-12.6148
Lob	-12.6148
intersect	-12.6149
FileTypes	-12.615
comma	-12.615
sha	-12.6151
TestRun	-12.6151
construct	-12.6152
InjectionHost	-12.6154
toggle	-12.616
obtain	-12.6169
ingStrategy	-12.6169
NotificationType	-12.617
isSameAs	-12.6171
Recent	-12.6171
urlTitle	-12.6172
Example	-12.6173
SearchResults	-12.6174
localVariable	-12.6179
rd	-12.6179
counts	-12.618
ax	-12.6182
SORT	-12.6182
nameId	-12.6182
sPanel	-12.6184
EXECUTOR	-12.6186
slices	-12.6186
ke	-12.6187
izedMessage	-12.6189
countByGroupId	-12.6191
ate	-12.6191
myAdd	-12.6192
Configs	-12.6194
STOP	-12.6194
TestFile	-12.6197
currentName	-12.6197
ClusterInfo	-12.6201
constants	-12.6202
ProjectRoot	-12.6202
KeepAlive	-12.6202
Formatted	-12.6202
Baz	-12.6203
ti	-12.6214
loc	-12.6215
fileOrDir	-12.6219
Win	-12.6223
SmartPointer	-12.6225
Outgoing	-12.623
td	-12.6232
publisher	-12.6238
delayed	-12.6238
FolderId	-12.6242
updateEntry	-12.6242
intern	-12.6245
MinMax	-12.6249
monitor	-12.6252
grantor	-12.6253
myDialog	-12.6253
getFileType	-12.6254
ized	-12.6255
Latency	-12.6259
UserType	-12.626
RelativeTo	-12.6268
NESTED	-12.627
invoked	-12.627
orcDataSource	-12.627
REGEXP	-12.6272
testMulti	-12.6272
conditions	-12.6273
IntegrationTest	-12.6274
ToVisualPosition	-12.6275
writeInt	-12.6275
getDeprecation	-12.6279
Stroke	-12.6279
bool	-12.628
getExtensions	-12.6281
setSelection	-12.6284
Partitioner	-12.6285
multiply	-12.6287
Absolute	-12.6288
mySplitter	-12.6289
ModelAndView	-12.6295
Question	-12.6303
locator	-12.6303
Encoded	-12.6304
Elem	-12.6306
remoteAddress	-12.6308
AssertionError	-12.6311
Leader	-12.6312
unmodifiableMap	-12.6314
isRunning	-12.6315
ModelVersion	-12.6315
Related	-12.6319
FORWARD	-12.632
StateChange	-12.632
SMALLINT	-12.6321
concreteIndex	-12.6321
nameIndex	-12.6321
getY	-12.6321
TableLayout	-12.6324
zero	-12.6327
Attach	-12.6327
Cross	-12.6327
RESULTS	-12.6328
tombstone	-12.6331
detail	-12.6331
bindings	-12.6331
StoredProcedure	-12.6332
Overlapping	-12.6335
Preference	-12.6342
BuildScript	-12.6343
Replaced	-12.6344
GEN	-12.6349
verbose	-12.6354
caseInsensitive	-12.6355
migrationType	-12.6355
testRoundTrip	-12.6357
myHint	-12.636
Launcher	-12.6362
arrow	-12.6362
sOf	-12.6363
patternSet	-12.6363
searchCount	-12.637
Have	-12.6378
points	-12.6384
IsNot	-12.6386
dueDate	-12.6389
MajorVersion	-12.639
AssetRenderer	-12.639
SearchEverywhere	-12.6391
leftPosition	-12.6401
MockS	-12.6402
ClassVisitor	-12.6403
BUTTON	-12.6406
boundary	-12.6406
ShortcutSet	-12.6406
EDIT	-12.6406
qualifierType	-12.6407
testSingleValued	-12.6407
ma	-12.6408
under	-12.6415
rebase	-12.6415
Implementations	-12.6416
CACHED	-12.6417
getPsi	-12.6419
vcsRoot	-12.6419
RestChannel	-12.6421
toXml	-12.6422
typeInfo	-12.6422
getCause	-12.6423
classifier	-12.6423
visibility	-12.6423
Malformed	-12.6424
04	-12.6425
TextLength	-12.6425
portletResource	-12.6428
AssetPublisher	-12.643
myMain	-12.6432
ACTIONS	-12.6432
contentLength	-12.6433
PropertyChange	-12.6434
RootModel	-12.6434
gt	-12.6435
psiPackage	-12.6437
AnalyticsMessage	-12.6437
BUNDLE	-12.6439
KernelServices	-12.644
intermediate	-12.6443
ServerSetup	-12.6443
oneKey	-12.6445
strip	-12.6447
OLD	-12.6447
ipFile	-12.645
myItems	-12.645
RunContent	-12.6451
Propagation	-12.6456
taskManager	-12.6456
migration	-12.6456
snitch	-12.6457
ToHighlight	-12.6459
Palette	-12.6462
Eclipse	-12.6464
myMouse	-12.6465
toCache	-12.6466
DateFormat	-12.6467
getMappings	-12.6467
electionModel	-12.6468
BasicBlock	-12.6468
Watches	-12.6469
getAggregation	-12.647
ProgressListener	-12.6473
COMPILER	-12.6476
Cancellation	-12.6479
PREFER	-12.6492
JSP	-12.6492
SnapshotInfo	-12.6492
Grant	-12.6493
OrderRootType	-12.6496
getMapping	-12.6497
Convertor	-12.65
getSupported	-12.6501
domains	-12.6501
follow	-12.6504
testFilter	-12.6505
latitude	-12.6509
sess	-12.651
JAVADOC	-12.6511
taxId	-12.6511
readAttribute	-12.6511
isOptimize	-12.6516
focused	-12.6516
assetPublisher	-12.6517
oom	-12.6517
TableScanNode	-12.6519
inSync	-12.6519
docDoc	-12.6519
OneToOne	-12.6521
Commenter	-12.6522
isAccessible	-12.6522
ksName	-12.6523
insertString	-12.6524
prot	-12.6524
always	-12.6525
SEQUENCE	-12.6526
slave	-12.6526
notNullize	-12.6526
InMillis	-12.6529
Repeatable	-12.6529
getPlugin	-12.653
childType	-12.6532
must	-12.6534
Suppressed	-12.6536
keepAlive	-12.6539
DisplayDate	-12.654
marshaller	-12.654
copied	-12.6543
getConstructor	-12.6544
indexReader	-12.6544
isSame	-12.6544
zzAt	-12.6546
En	-12.6553
hasDefined	-12.6557
jsonArray	-12.6559
AM	-12.6561
arithmetic	-12.6561
interrupt	-12.6561
THIS	-12.6561
AutoUpdate	-12.6561
unitPrice	-12.6562
Sessions	-12.6563
Countries	-12.6564
Rpc	-12.6564
CronTrigger	-12.6564
JE	-12.6565
nspectionGadgets	-12.6566
secondary	-12.6566
reporter	-12.6568
persistentTasks	-12.6569
Compliance	-12.6569
isWritable	-12.657
Separators	-12.6571
days	-12.6573
smart	-12.6573
site	-12.6578
CONTAINS	-12.6579
Initialize	-12.6579
jobTask	-12.6581
Mvcc	-12.6584
StackFrame	-12.6584
HttpMessage	-12.6585
OnStack	-12.6585
StandardJava	-12.6587
dfType	-12.6589
ChangeSignature	-12.6589
SingleValue	-12.659
getOrDefault	-12.659
incremental	-12.6591
Temporary	-12.6592
dirty	-12.6592
Procedure	-12.6593
getExpandoBridge	-12.6595
PluralAttribute	-12.6596
PyPsi	-12.6598
Stale	-12.6601
sOnly	-12.6602
TagName	-12.6603
realmId	-12.6603
dl	-12.6605
spaces	-12.6611
OnPrimary	-12.6612
Contact	-12.6613
XDebugSession	-12.6613
Fetcher	-12.6613
AuditingData	-12.6614
docComment	-12.6615
removeFrom	-12.6616
Jndi	-12.6623
ToRename	-12.663
Traverser	-12.6631
trustStore	-12.6631
ctPreferences	-12.6631
ProblemHighlight	-12.6632
myQueue	-12.6633
dup	-12.6636
HighLevelClient	-12.6639
PythonSdk	-12.6639
Converters	-12.664
outputs	-12.6643
arallelBuild	-12.6644
newP	-12.6644
RequestHandler	-12.6644
intercept	-12.6647
WildcardType	-12.6648
SPLITTER	-12.6648
Pointers	-12.665
TestFramework	-12.6651
jarFile	-12.6651
rpc	-12.6652
actualValue	-12.6655
bindUuid	-12.6656
FunctionHandle	-12.6656
MenuItem	-12.6661
LineMarker	-12.6665
jboss	-12.6665
jaxb	-12.6666
unset	-12.6668
lessThan	-12.6669
POSITIONS	-12.667
compress	-12.6671
MaxSize	-12.6673
autodetect	-12.6675
DictionaryBlock	-12.6679
CREATED	-12.6685
ization	-12.669
hiveSplit	-12.6692
setContent	-12.6694
HELP	-12.6697
GradleVersion	-12.67
determinism	-12.6701
Vertical	-12.6701
DebuggerUtils	-12.6702
Render	-12.6702
hg	-12.6704
superclass	-12.6707
printer	-12.6707
MatchResult	-12.6708
outputChannels	-12.671
Consistent	-12.6711
Center	-12.6713
getCode	-12.6714
Compiled	-12.6715
isClosed	-12.6716
RESI	-12.6717
unicode	-12.6718
childName	-12.6719
FunctionCall	-12.6719
putIfAbsent	-12.6719
RecordCursor	-12.6719
grokPattern	-12.672
functionHandle	-12.6725
MARK	-12.6736
groovy	-12.6736
allocator	-12.6736
MasterNode	-12.6738
Revert	-12.6739
snapshotInfo	-12.6743
Planner	-12.6743
lineSeparator	-12.6743
getFirstChild	-12.6747
PluginManager	-12.6749
ILM	-12.6752
ung	-12.6752
sToRemove	-12.6753
family	-12.6754
Experimental	-12.6754
PsiPrimitiveType	-12.6755
totalHits	-12.6756
edDrivers	-12.6759
testThat	-12.6762
online	-12.6762
SqlParser	-12.6764
divide	-12.6765
showDialog	-12.6766
PagesIndex	-12.6767
doAdd	-12.6768
recoveryState	-12.6769
VfsUtil	-12.677
addColumn	-12.6771
CONSOLE	-12.6772
SubPlan	-12.6774
PsiTreeChange	-12.6774
opcode	-12.6776
cfName	-12.6778
myAuto	-12.678
GradleProject	-12.6781
ArgumentTypes	-12.6782
HIERARCHY	-12.6789
negated	-12.6791
chunkSize	-12.6791
Deserializer	-12.6795
TotalHits	-12.6796
contentManager	-12.6797
sslContext	-12.6799
TabbedPane	-12.68
dCommerceOrders	-12.6816
getNamespace	-12.6818
eventType	-12.682
Traversal	-12.6824
TemplateImpl	-12.6825
breve	-12.6825
modelClassPK	-12.6826
CefBrowser	-12.6826
Unavailable	-12.6827
myMainPanel	-12.6828
XValue	-12.6828
iv	-12.6832
powwowServerId	-12.6832
tests	-12.6834
markAs	-12.6835
findByLtE	-12.6843
polyadic	-12.6843
CTSchemaVersion	-12.6843
RadContainer	-12.6843
Currency	-12.6843
ModelSizeStats	-12.6844
Repaired	-12.6846
DLFileEntry	-12.6847
anonymous	-12.6849
FontSize	-12.6851
IOR	-12.6852
PyStringLiteral	-12.6854
Ellipsis	-12.6856
Deploy	-12.6858
Keyspaces	-12.6858
SmartPsi	-12.6859
PrestoThrift	-12.6861
LineRange	-12.6861
SuspendContext	-12.6865
targetField	-12.6866
fromIndex	-12.6867
globalSettings	-12.6869
myModules	-12.687
BuildEvent	-12.6872
myBranchName	-12.6873
NodeSelector	-12.6874
vert	-12.6877
nodeStats	-12.6877
innerClass	-12.6878
MetadataBuilding	-12.6878
negative	-12.6879
binaryExpression	-12.6879
goto	-12.688
beanPortlet	-12.6881
DataExtractor	-12.6885
VersionId	-12.6885
applyTo	-12.6888
VcsRoot	-12.689
ExportImport	-12.6891
hasMore	-12.6892
PointerManager	-12.6893
myFileType	-12.6893
getPropertyName	-12.6895
READER	-12.6896
Communication	-12.6897
titles	-12.6897
outgoing	-12.6897
substituted	-12.6897
paramTypes	-12.6898
BITS	-12.6901
ActionButton	-12.6903
etOptions	-12.6904
IoFile	-12.6904
fileContent	-12.6905
sToMove	-12.6905
pathTo	-12.6907
sAllowed	-12.6909
Subfield	-12.691
LinkService	-12.6912
myPrefix	-12.6912
Dead	-12.6913
convention	-12.6914
RefElement	-12.6914
GROUPS	-12.6916
AccessStrategy	-12.6917
fqName	-12.6919
TrustManager	-12.6919
callee	-12.692
RecursiveElement	-12.6921
Weak	-12.6921
oo	-12.6922
ConstructorArg	-12.6926
instructions	-12.6926
myRight	-12.6927
getInitial	-12.6932
Clazz	-12.6933
REQUIRED	-12.6933
RESOLVER	-12.6934
DataInputStream	-12.6935
assertBusy	-12.6936
PI	-12.6936
getClient	-12.6941
REPORT	-12.6944
getFrame	-12.6945
IC	-12.6945
screen	-12.6946
ProjectFileIndex	-12.6946
pi	-12.6949
declaringClass	-12.695
HttpEntity	-12.695
expansion	-12.6951
Mail	-12.6951
SPECIAL	-12.6953
Mi	-12.6953
DDM	-12.6953
extIterationDate	-12.6955
provided	-12.6955
RuleLocalService	-12.6957
Css	-12.6958
myCall	-12.6959
Reverse	-12.6961
ReadWrite	-12.6968
Installation	-12.6968
Applicability	-12.6969
resume	-12.6969
Echo	-12.6969
stackTrace	-12.6971
inputId	-12.6972
removeByGroupId	-12.6972
outputVariables	-12.6977
Eager	-12.6984
jpa	-12.6985
const	-12.6985
LayoutHandle	-12.6986
ANCHOR	-12.6987
setContext	-12.6988
showError	-12.6989
CacheOperation	-12.6989
createTempFile	-12.6993
rootPath	-12.6994
MISMATCH	-12.6994
ByIndex	-12.6995
tmpOut	-12.6995
integers	-12.6996
idGenerator	-12.6999
BuilderImpl	-12.7001
myDispatcher	-12.7004
Scenario	-12.7005
navigation	-12.7005
Autowired	-12.7006
Vararg	-12.7008
isAbstract	-12.7008
SUPPORTS	-12.7008
ws	-12.7011
let	-12.7012
disconnect	-12.7013
Illegal	-12.7014
toMove	-12.7014
inheritor	-12.7014
Addition	-12.7017
Shell	-12.702
extensionPoint	-12.7021
FAIL	-12.7023
COMMON	-12.7023
myFiles	-12.7024
DISABLED	-12.7025
BlockNode	-12.7025
bin	-12.7028
localRepository	-12.7029
TypedValue	-12.703
RuleFinder	-12.703
TException	-12.7032
ToSelect	-12.7033
ChangeEvent	-12.7042
AssetEntries	-12.7042
NODES	-12.7044
setData	-12.7046
buildRequest	-12.7047
ul	-12.7048
HttpGet	-12.7049
jobResults	-12.7054
ProjectNode	-12.7057
About	-12.7058
ENGLISH	-12.706
Ele	-12.7061
YES	-12.7061
IndicesService	-12.7061
ForRemoval	-12.7062
Similarity	-12.7063
SPR	-12.7063
usageView	-12.7068
newChildren	-12.7069
getShard	-12.7071
Cwm	-12.7074
PostfixTemplate	-12.7077
SessionProperty	-12.7079
flatMap	-12.708
lastModified	-12.7081
chunks	-12.7082
Weights	-12.7083
InsertHandler	-12.7084
ForWrite	-12.7084
serviceType	-12.7085
Markdown	-12.7089
Resolvable	-12.709
decider	-12.7091
addContent	-12.7092
PropertyValues	-12.7092
owningBucketOrd	-12.7092
MavenServer	-12.7094
joinOperator	-12.7094
EXCLUDE	-12.7095
ROWMAP	-12.7098
nonNull	-12.7107
transformConfig	-12.7111
bindInfo	-12.7114
painless	-12.7114
ateTimeFormatter	-12.7114
COMPLETION	-12.7114
Symlink	-12.7115
FINITY	-12.7115
verified	-12.7115
ticker	-12.7115
MessageEvent	-12.7118
fileManager	-12.7119
testResponse	-12.7119
hunk	-12.7119
TDigest	-12.7122
appendTo	-12.7125
sChanged	-12.7125
uniqueResult	-12.7126
CachedValue	-12.7128
PersistentTask	-12.7128
FIX	-12.7133
unary	-12.7133
Hql	-12.7134
Comp	-12.7134
emailAddress	-12.7134
EDT	-12.7135
ignoreMissing	-12.7136
Temporal	-12.7136
findByM	-12.7138
InventoryEngine	-12.7139
Toggle	-12.7142
componentId	-12.7143
111	-12.7143
Follower	-12.7143
RowMap	-12.7145
SUPPORT	-12.7148
JndiName	-12.7149
Lat	-12.7152
waitUntil	-12.7152
ChangeLists	-12.7153
ShippingAddress	-12.7153
Allocate	-12.7154
WithDefault	-12.7156
Subst	-12.7157
setRequest	-12.7157
StatsEstimate	-12.7157
ShardStats	-12.7158
NotSupported	-12.7162
embedded	-12.7163
getPackage	-12.7163
propagate	-12.7167
av	-12.7169
myIndent	-12.7169
RANK	-12.717
WRAPPING	-12.717
RuleIndex	-12.717
mySub	-12.7172
isLeaf	-12.7174
entityClass	-12.7176
editors	-12.7178
getSlice	-12.7178
MetadataSources	-12.7178
Expander	-12.7179
DISTRIBUTION	-12.7181
pivot	-12.7187
Average	-12.7188
Recursion	-12.7188
testSet	-12.7189
ordering	-12.7189
checkBox	-12.7189
createFrom	-12.7192
Staging	-12.7194
CTMessage	-12.7196
handlerMethod	-12.7204
advice	-12.7207
TRUSTSTORE	-12.7207
ReadRequests	-12.7209
Lang	-12.721
middle	-12.7213
firstChild	-12.7213
ommerceOrderItem	-12.7213
TestSuite	-12.7216
sourceDefinition	-12.722
Exclusion	-12.7221
IfNot	-12.7224
minDocCount	-12.7227
he	-12.7227
IntStream	-12.7228
Signatures	-12.7231
updater	-12.7232
Proper	-12.7234
Varargs	-12.7238
assetAutoTagger	-12.7245
scriptorImpl	-12.7246
getCell	-12.7253
minute	-12.7254
undo	-12.7254
testReset	-12.7254
CpuTime	-12.7255
Symbols	-12.7256
PrimitiveType	-12.7258
pageProcessor	-12.7259
IngEntity	-12.7261
MergedAnnotation	-12.7262
oAuthUser	-12.7263
BUILTIN	-12.7263
Unassigned	-12.7263
testNested	-12.7264
CLOSED	-12.7265
isOpen	-12.7265
Each	-12.7266
rowId	-12.7269
StringBuffer	-12.727
ARGS	-12.727
socketBinding	-12.7272
flat	-12.7276
Joins	-12.7276
JavaPsi	-12.7279
Reflective	-12.7281
pendingRepair	-12.7282
formatted	-12.7283
ToggleAction	-12.7285
LDAP	-12.7287
BRACES	-12.7287
FILTERS	-12.7288
ExtractMethod	-12.7294
processing	-12.7295
getEntityName	-12.7296
INTERCEPTOR	-12.7297
parameterInfo	-12.7297
CATCH	-12.73
getContainer	-12.73
immediate	-12.73
exprent	-12.7301
Heap	-12.7301
targetDirectory	-12.7301
BREAKS	-12.7302
Upload	-12.7305
uniqueKey	-12.7305
ttl	-12.731
CommonClass	-12.7312
getMethods	-12.7313
newExpr	-12.7315
testValidate	-12.7318
WeDeployAuthApp	-12.7319
discoveryNode	-12.732
transportRequest	-12.7321
activeProfiles	-12.7323
PriceEntries	-12.7324
subList	-12.7326
Predefined	-12.7326
newSize	-12.7327
Repeat	-12.7328
proxied	-12.733
TypeConverter	-12.7331
myScrollPane	-12.7336
Concrete	-12.7336
castType	-12.7336
EXPAND	-12.7337
CONDITIONAL	-12.7337
HIGH	-12.7338
ignoreMalformed	-12.7338
otFoundException	-12.7339
ScreenNavigation	-12.7339
Recycler	-12.7339
qname	-12.7345
SP	-12.7348
modification	-12.7348
cacheName	-12.7355
Immediate	-12.7356
Pk	-12.7356
resultHandler	-12.7356
ckableAstVisitor	-12.7358
Terminated	-12.7358
evict	-12.736
responseBody	-12.736
RelativePo	-12.7367
deserialized	-12.7369
StepListener	-12.7369
referenceName	-12.7369
performAction	-12.7369
StaticColumns	-12.737
configureByFile	-12.737
ar	-12.7371
reply	-12.7373
ARG	-12.7375
JBLabel	-12.7377
methodSignature	-12.7381
AssetListEntries	-12.7384
getTasks	-12.7385
myToolbar	-12.7386
Encode	-12.7387
cat	-12.7393
weights	-12.7393
GroupFinder	-12.7393
getPlace	-12.7393
Kiyeog	-12.7394
Mutability	-12.7394
THREE	-12.7394
Combobox	-12.7394
getIndexed	-12.7394
intersects	-12.7395
primitive	-12.7398
ck	-12.74
SecurityContext	-12.7403
alInterfaceType	-12.7405
propagation	-12.7406
setPropertyValue	-12.7407
highlightType	-12.741
May	-12.7411
MINIMUM	-12.7413
Gateway	-12.7413
Tunnel	-12.7413
inclusive	-12.7413
sqlType	-12.7416
myPackage	-12.7417
TableColumn	-12.7417
analytics	-12.7418
isFirst	-12.742
Secondary	-12.7422
BlockEncoding	-12.7422
orderByType	-12.7426
executeOperation	-12.7429
myTreeModel	-12.743
getL	-12.7432
postfix	-12.7435
BuilderFactory	-12.7436
revisionNumber	-12.7437
DeleteAfter	-12.7438
CatalogSchema	-12.7438
pager	-12.7443
Counting	-12.7444
Baseline	-12.7444
Wrong	-12.7445
getSQL	-12.7448
humanReadable	-12.7451
PresentableText	-12.7451
elapsed	-12.7456
createProxy	-12.7458
nextLong	-12.746
setConfiguration	-12.7461
TextStructure	-12.7465
Deps	-12.7466
SoftWrapModel	-12.7468
ByCommerce	-12.7469
Commands	-12.7469
attachments	-12.7472
anyMatch	-12.7473
Preserve	-12.7473
haracterEncoding	-12.7475
getCPDefinitions	-12.7475
pvs	-12.7477
QUOTED	-12.7477
createValue	-12.7478
getPending	-12.748
myActions	-12.7486
FileVersionId	-12.7488
ActionId	-12.7489
Auditor	-12.7489
isNotEmpty	-12.7491
rType	-12.7492
olorsScheme	-12.7494
applyUpdate	-12.7496
sq	-12.7496
Delivery	-12.7496
REPO	-12.7497
Student	-12.7499
Course	-12.7499
df	-12.75
mm	-12.7501
navigate	-12.7502
getReferenceName	-12.7503
getFileName	-12.7506
Abort	-12.7507
CHILDREN	-12.7508
zzEndRead	-12.7508
blogsStatsUser	-12.7508
TEMP	-12.7508
RestoreSnapshot	-12.7509
updateCPInstance	-12.751
TokenStream	-12.7512
JoinPart	-12.7512
suppress	-12.7514
UpdateCount	-12.7515
regular	-12.7516
domElement	-12.7517
ationFindByC	-12.7521
Destroy	-12.7523
InParent	-12.7524
PsiComment	-12.7525
ingEnabled	-12.7525
PrintWriter	-12.7527
myLocation	-12.7528
myProfile	-12.7528
nullability	-12.7528
ASYNC	-12.753
AttributeType	-12.7532
ClassDefinition	-12.7533
TESTS	-12.7537
setFont	-12.754
visitNode	-12.7543
sqlTask	-12.7544
eta	-12.7545
machineLearning	-12.7546
modelSizeStats	-12.7546
Contained	-12.7548
SECURE	-12.7549
Javac	-12.7551
internalPosition	-12.7552
myEnabled	-12.7553
Substring	-12.7553
queryName	-12.7555
failedTo	-12.7556
Inplace	-12.7557
longValue	-12.7557
BindingResult	-12.756
TaskState	-12.7562
ProgressEvent	-12.7565
BufferedReader	-12.7567
GlobalState	-12.7568
Pixel	-12.7568
FetchSize	-12.7572
building	-12.7573
newBuilder	-12.7576
DumbService	-12.7577
maxDoc	-12.758
EntryException	-12.758
InRange	-12.7583
IMAGE	-12.7585
OutputDir	-12.7585
DeltaDelete	-12.7586
Regexp	-12.7587
inputPage	-12.7589
ting	-12.7589
FocusListener	-12.7591
gradleModule	-12.7592
HiveType	-12.7595
Interim	-12.7595
setTarget	-12.7595
ElasticsearchS	-12.7597
getPrefix	-12.7599
getRead	-12.7603
Keep	-12.7603
SHORTCUT	-12.7604
click	-12.7604
XContentFactory	-12.7607
getReferences	-12.7608
Frames	-12.7609
SqlQuery	-12.7609
phone	-12.7611
ModuleRoot	-12.7612
setLast	-12.7613
DeclaringClass	-12.7615
chooser	-12.7616
PageSize	-12.7617
messageConverter	-12.7618
example	-12.762
Spel	-12.762
PARTIAL	-12.7623
Stmt	-12.7623
sel	-12.7626
MockServer	-12.763
getOperand	-12.7631
myForced	-12.7633
GroovyElement	-12.7633
createEmpty	-12.7633
getEnd	-12.7633
projectName	-12.7634
PeerRecovery	-12.7634
CommandProcessor	-12.7639
setObject	-12.7639
GraphQLField	-12.764
buildError	-12.764
Truncate	-12.764
CONVENTION	-12.7642
roleName	-12.7643
Paste	-12.7643
oncreteIndices	-12.7645
EditorImpl	-12.7651
UpdateQueue	-12.7652
Counters	-12.7653
partitionChannel	-12.7654
dn	-12.7656
adapt	-12.7657
Inheritors	-12.7658
GeneratedValue	-12.766
btn	-12.7662
GuardedBy	-12.7662
getLabel	-12.7662
assertInvalid	-12.7662
PYTHON	-12.7666
SettingKey	-12.7667
Elapsed	-12.7669
targetName	-12.7671
Fraction	-12.7674
THROW	-12.7678
TestResult	-12.7678
ensureGreen	-12.7681
Both	-12.7683
effect	-12.7683
serviceProvider	-12.7684
SSLContext	-12.7687
Specs	-12.7688
artifactType	-12.7688
myCount	-12.7693
getDocCount	-12.7695
Rejected	-12.7696
Seq	-12.7698
typeCast	-12.77
truststore	-12.7701
RenderResponse	-12.7703
NoSuchOrder	-12.7704
ELEMENTS	-12.7706
isEmptyOr	-12.7708
ProjectData	-12.7709
treeNode	-12.7709
isNot	-12.771
nd	-12.7712
EntityEntry	-12.7712
InternalAggregat	-12.7713
sourceClass	-12.7714
StatusException	-12.7715
Except	-12.7718
NodeId	-12.7718
getPsiFile	-12.7719
curses	-12.7719
DefinitelyRe	-12.772
fast	-12.7722
Pairs	-12.7723
Quick	-12.7724
InputEvent	-12.7728
getAssetEntry	-12.7728
DataCounts	-12.773
cheduledExecutor	-12.7739
setEntity	-12.774
NEGATIVE	-12.774
IPartitioner	-12.7741
JavaParameters	-12.7742
JavaType	-12.7742
FileInfo	-12.7742
metadataBuilder	-12.7743
CompileScope	-12.7743
SchemaVersionId	-12.7743
testProxy	-12.7744
NoSuchPrice	-12.7745
Patches	-12.7749
changeset	-12.775
ToRead	-12.775
AttributeSource	-12.7751
markers	-12.7753
Dep	-12.7758
Incoming	-12.7759
IIOP	-12.7759
TINYINT	-12.7759
theme	-12.7759
PrivateKey	-12.7762
UDT	-12.7763
getR	-12.7763
DIV	-12.7763
ModuleName	-12.7766
EQUALS	-12.7766
consistencyLevel	-12.7769
allScope	-12.7772
newIndex	-12.7773
typeSettings	-12.7775
own	-12.7776
dlFileRank	-12.7779
initialization	-12.7779
readOffset	-12.7779
StreamSpiller	-12.778
getTableHandle	-12.7781
take	-12.7782
ANT	-12.7783
getContentType	-12.7783
Computation	-12.7784
Lw	-12.7789
CONST	-12.7789
rm	-12.779
bucketNumber	-12.7793
AndCheck	-12.7793
SigningKey	-12.7794
BeforeClass	-12.7795
isUnder	-12.7795
HEADERS	-12.7796
Buf	-12.7798
SIGNATURE	-12.7799
SCREEN	-12.7799
CPDEFINITION	-12.7799
OptionValues	-12.7801
ionFunction	-12.7801
executeUpdate	-12.7802
dier	-12.7804
getSearch	-12.7805
toSelect	-12.7805
dataType	-12.7806
painter	-12.7811
findByF	-12.7811
Health	-12.7812
getTableMetadata	-12.7815
ProjectTask	-12.7817
TreeBuilder	-12.7818
muted	-12.7818
DICTIONARY	-12.7818
preparation	-12.7818
ANALYTICS	-12.7818
HEAP	-12.7819
PsiNamedElement	-12.7819
METRICS	-12.782
TE	-12.7822
dirs	-12.7824
bookmarksEntry	-12.7827
partitionValues	-12.783
WebSocketHandler	-12.7836
qb	-12.7838
barrier	-12.7838
Specified	-12.7839
extractedFields	-12.7839
ka	-12.784
getInputStream	-12.7842
testE	-12.7844
KeyValue	-12.7846
OperationCount	-12.7848
Fallback	-12.7851
SmartList	-12.7852
expectedInt	-12.7856
jt	-12.7856
SearchAction	-12.7856
LENIENT	-12.7858
softTreeDepth	-12.7858
isTrace	-12.7861
Invalidation	-12.7864
ClassUtils	-12.7866
TemporaryTable	-12.7867
setExternal	-12.7868
EntityDescriptor	-12.7869
scopes	-12.787
TypeArguments	-12.787
accountGroup	-12.7873
policyMetadata	-12.7873
splitManager	-12.7874
Transferable	-12.7874
replicate	-12.7875
expire	-12.7876
SecurityIndex	-12.7877
Passes	-12.7877
Deterministic	-12.7877
DISCOVERY	-12.7878
Fqn	-12.7878
ABC	-12.788
myViewer	-12.788
MotionListener	-12.7881
MODULES	-12.7885
filePaths	-12.7885
XPack	-12.7886
Warn	-12.7888
testData	-12.7889
sourceSnapshot	-12.7889
Writing	-12.7891
RequestConverter	-12.7893
Queued	-12.7897
Adjustment	-12.7897
getPrice	-12.7897
PREVIEW	-12.7898
Pieub	-12.7898
OrderByCondition	-12.79
subSequence	-12.7901
LongArray	-12.7902
mySourceDir	-12.7904
ejbComponent	-12.7905
AssetTag	-12.7905
IMPORTS	-12.7906
newCommerce	-12.7906
visitType	-12.7908
getBackground	-12.7909
Age	-12.7913
Ukrainian	-12.7917
GrokPattern	-12.7918
TargetDirectory	-12.7919
ionBuilder	-12.7923
WriteRequests	-12.7925
eventId	-12.7929
MediaTypes	-12.793
CommitMessage	-12.7931
coordination	-12.7932
LineSeparators	-12.7933
Unnest	-12.7936
anonicalTypeName	-12.7937
Jmx	-12.7937
more	-12.7937
Padding	-12.7938
LivenessInfo	-12.7938
getClassNameId	-12.7939
myMin	-12.7939
average	-12.7939
edModel	-12.7941
jms	-12.7941
USERS	-12.7943
hard	-12.7944
inTransaction	-12.7944
decompose	-12.7949
branches	-12.7953
termQuery	-12.7955
ommerceOrderNote	-12.7956
LookAndFeel	-12.7957
MASTER	-12.7957
Levels	-12.7958
EventHandler	-12.7959
contributors	-12.7959
contexts	-12.7962
getPackageName	-12.7966
myAllow	-12.7968
Pipelines	-12.7969
CreateSnapshot	-12.797
ChooseByName	-12.7971
Nio	-12.7973
FBUtilities	-12.7977
ENDPOINT	-12.7977
boundNames	-12.7981
FromContext	-12.7981
Sections	-12.7984
mappingVersion	-12.7986
endpoints	-12.7986
fieldData	-12.799
TASKS	-12.7992
Prefer	-12.7992
Else	-12.7993
Lenient	-12.7993
inVar	-12.7994
myStartOffset	-12.7996
getAge	-12.7996
decodedRow	-12.7998
QueryCache	-12.7998
setPreferredSize	-12.8004
SPACES	-12.8005
newHashSet	-12.8007
myProcessor	-12.8009
help	-12.8009
imestampWithTime	-12.801
arc	-12.8011
subClass	-12.8011
partitionField	-12.8013
Formats	-12.8014
PIPE	-12.8017
PREVIOUS	-12.8017
PROTECTED	-12.8017
localCheckpoint	-12.8019
TablePrivilege	-12.8019
Braces	-12.802
Bundled	-12.8021
writeUTF	-12.8023
myCondition	-12.8024
myBefore	-12.8025
Conflicting	-12.8025
ComponentType	-12.8026
OnClose	-12.8027
bulkResponse	-12.8031
consistency	-12.8034
subfield	-12.8036
City	-12.8037
LocalCheckpoint	-12.8037
Untyped	-12.8038
getLive	-12.804
expired	-12.804
SCORE	-12.8042
typed	-12.8043
setStatusByUser	-12.8043
myMethodName	-12.8046
queryResult	-12.8049
profiles	-12.8051
operatorType	-12.8053
Keyed	-12.8053
present	-12.8054
IndexAbstraction	-12.8058
ThreeSide	-12.8058
Placement	-12.8058
sorts	-12.8061
testExtract	-12.8063
composed	-12.8069
ping	-12.8069
SEGMENT	-12.8074
Optimized	-12.8078
133	-12.8079
assertOrdered	-12.8084
WINDOWS	-12.8085
PropertyType	-12.8085
Being	-12.8086
buildHash	-12.8086
codeFragment	-12.8087
statusDate	-12.8091
Ldap	-12.8093
getTag	-12.8093
Warehouses	-12.8095
Times	-12.8096
CB	-12.8098
DIALOG	-12.8098
strategies	-12.8098
edRuleStatement	-12.8099
updateExternal	-12.8099
Eviction	-12.81
testMissing	-12.8101
ord	-12.8102
getRowCount	-12.8106
Chained	-12.8107
getResolved	-12.8108
Minimal	-12.8108
TestName	-12.8108
sortField	-12.8109
realms	-12.811
doubleValue	-12.8115
textLength	-12.8117
Schemas	-12.8117
RecordSet	-12.8118
JBoss	-12.8118
vendor	-12.8118
trimmed	-12.8118
SnapshotStatus	-12.8119
oAuthToken	-12.812
testLong	-12.812
requestEntity	-12.812
xtensionRegistry	-12.8123
visitVariable	-12.8124
PartitionKey	-12.8127
resourceLoader	-12.8127
Collecting	-12.8128
ter	-12.813
jsonBuilder	-12.813
walke	-12.8132
SCHEDULED	-12.8139
RSP	-12.814
getActual	-12.8141
myMember	-12.8143
getModification	-12.8143
newParent	-12.8144
createProblem	-12.8144
testMove	-12.8144
onManager	-12.8147
FileSize	-12.8148
Liferay	-12.8148
DotName	-12.8149
startNode	-12.815
XmlToken	-12.8154
CHARACTER	-12.8156
cm	-12.8156
isConstructor	-12.8157
switchBlock	-12.8157
keyBlock	-12.8158
foreground	-12.8158
ddmForm	-12.8159
myButton	-12.816
defaultSettings	-12.8161
fum	-12.8161
isArray	-12.8161
Recording	-12.8162
setLayout	-12.8162
Integration	-12.8162
foreignKey	-12.8167
Initializers	-12.8169
SEQ	-12.8173
bucketOrd	-12.8173
rounded	-12.8175
drawString	-12.8175
boxed	-12.8175
referencedEntity	-12.8176
doParse	-12.8176
STATEMENTS	-12.8176
readers	-12.8178
costCalculator	-12.8179
featureStates	-12.818
DocumentEvent	-12.818
Executors	-12.8183
myHeader	-12.8185
myConnection	-12.8186
ListAttribute	-12.8189
startPosition	-12.8195
Res	-12.8197
QuerySpace	-12.8197
nversService	-12.8198
ALGORITHM	-12.82
Heuristic	-12.82
percentage	-12.82
LIB	-12.8201
img	-12.8202
LookupItem	-12.8205
ClassNameId	-12.8207
DataHandler	-12.821
minSize	-12.8211
BV	-12.8211
asc	-12.8212
BeanPortlet	-12.8212
Independent	-12.8215
MethodInvocation	-12.8217
sIterator	-12.8218
isTest	-12.8218
EL	-12.8221
nonce	-12.8221
RENAME	-12.8221
HighlightDisplay	-12.8222
leftOperand	-12.8223
getChars	-12.8223
refName	-12.8226
joinChannel	-12.8228
FileNames	-12.823
splitSource	-12.8232
addCell	-12.8233
TextMessage	-12.8234
myCallback	-12.8238
SpatialJoin	-12.824
Rec	-12.824
Enrolment	-12.8241
orientation	-12.8241
runWith	-12.8241
edFields	-12.8244
Feedback	-12.8244
finalize	-12.8246
classMember	-12.8247
elementName	-12.8248
AUTHORI	-12.825
AbstractTest	-12.825
rf	-12.8251
highlighters	-12.8254
KS	-12.8255
SInteg	-12.8255
Denied	-12.8258
FromCache	-12.8259
ExecutionContext	-12.8259
EXACT	-12.8261
rnd	-12.8262
special	-12.8262
edges	-12.8267
CPDefinitions	-12.8267
ieu	-12.8268
ProjectPath	-12.8274
getConnector	-12.8275
Assign	-12.8275
MavenId	-12.8279
AndRestore	-12.8281
runConfiguration	-12.8282
large	-12.8283
systemProperties	-12.8284
myPatch	-12.8284
getTab	-12.8285
ItemId	-12.8287
declareObject	-12.829
processors	-12.8295
ClassFilter	-12.8298
createRandom	-12.8298
dy	-12.8299
ServiceKey	-12.83
keyCount	-12.83
ng	-12.8301
UserData	-12.8303
navigatable	-12.8303
ListPopup	-12.8303
par	-12.8304
JavaRefactoring	-12.8307
OperationMode	-12.8307
MappingMetadata	-12.8307
combined	-12.8308
TaskDependency	-12.8311
ToMove	-12.8313
IntList	-12.8314
parentTask	-12.8315
HashVariable	-12.8316
ResolutionResult	-12.8317
opConfig	-12.8318
Coercion	-12.8322
ai	-12.8323
Co	-12.8323
mutations	-12.8324
rightOperand	-12.8326
MemoryPool	-12.8331
getEffective	-12.8331
Trailing	-12.8331
cr	-12.8332
QueryContext	-12.8337
DDMForm	-12.8338
CHARS	-12.8339
RepairSession	-12.834
permission	-12.8343
SwingUtilities	-12.8344
Isolated	-12.8345
CommerceOrders	-12.8346
StartPosition	-12.8348
Transformers	-12.8349
Sec	-12.835
outputPath	-12.8354
linked	-12.8358
getURL	-12.8358
RemoteTask	-12.836
myEditors	-12.836
BOUND	-12.8361
isBoolean	-12.8361
WA	-12.8362
setDataSource	-12.8363
loading	-12.8364
Reentrant	-12.8365
showYesNo	-12.8367
isWindows	-12.8367
sessionFunction	-12.837
handledException	-12.8372
fold	-12.8373
toSystem	-12.8375
consumes	-12.8377
checkCanCreate	-12.8379
Pressed	-12.8379
addFile	-12.838
AnnotationHolder	-12.8381
Uses	-12.8383
Joined	-12.8384
arrayBlock	-12.8384
longitude	-12.8386
summation	-12.8386
COMMERCEDISCOUNT	-12.8386
fixture	-12.8386
SMALL	-12.8386
NonNegativeLong	-12.8386
CounterStat	-12.8387
Retriever	-12.8388
Overload	-12.839
managedCt	-12.8392
unlock	-12.8393
Dn	-12.8396
isMac	-12.8398
TabLabel	-12.8399
DAYS	-12.8399
decl	-12.8404
Detect	-12.8404
BillingAddress	-12.8405
setDate	-12.8406
envelope	-12.8407
mono	-12.8407
footer	-12.8408
CaseInsensitive	-12.8409
llocationDecider	-12.8412
setDelivery	-12.8415
ctProcess	-12.8416
nextIndex	-12.8418
eval	-12.8419
Route	-12.8422
DistributionType	-12.8423
textAttributes	-12.8424
restrict	-12.8426
CREATION	-12.8428
DEPENDENT	-12.8428
Hierarchical	-12.8428
DocId	-12.8428
UserDefined	-12.8428
MarkDistinct	-12.8428
toMap	-12.8431
ProcessOutput	-12.8437
targetPath	-12.844
pipelineId	-12.8441
evaluation	-12.8443
WithPort	-12.8445
registerError	-12.8446
JTA	-12.8449
getClasses	-12.8452
scaleFactor	-12.8452
defs	-12.8453
Dependents	-12.8455
AnalysisConfig	-12.8459
myLibrary	-12.8462
previousState	-12.8464
GrStatement	-12.8465
categories	-12.8468
assetTag	-12.8469
Ssang	-12.847
incompatible	-12.8471
virtual	-12.8472
getAppBuilderApp	-12.8474
ResourceRoot	-12.8474
Uninitialized	-12.8476
geom	-12.8476
getCompany	-12.8478
DocumentWindow	-12.8484
CAN	-12.8486
Ord	-12.8487
Locked	-12.8489
eventHandler	-12.8489
Ra	-12.849
PARSE	-12.8491
preferredSize	-12.8494
FileFilter	-12.8496
TestNG	-12.8496
getChange	-12.8497
Subtype	-12.8498
deny	-12.8499
ToInsert	-12.85
baseUrl	-12.8502
getEntries	-12.8503
IR	-12.8506
getRegion	-12.8508
hashChannels	-12.8508
getJava	-12.8509
ClassNode	-12.8512
MENU	-12.8512
HtmlPreviewEntry	-12.8512
columnFilter	-12.8512
PANEL	-12.8512
dis	-12.8514
shardFailures	-12.8514
nextStepKey	-12.8518
QueryTranslator	-12.8519
Datasource	-12.8521
variableKind	-12.8524
ResourceLoader	-12.8526
net	-12.8528
addHeader	-12.8529
tar	-12.8531
FOREGROUND	-12.8533
UpdatesOrDeletes	-12.8533
configurator	-12.8533
ENVIRONMENT	-12.8533
UNSUPPORTED	-12.8533
ADMIN	-12.8534
isInheritor	-12.8536
percent	-12.8536
InputFile	-12.8537
addAccountEntry	-12.8539
Business	-12.854
Lower	-12.8544
Precedence	-12.8545
BillingAddressId	-12.8546
"__	-12.8547
declareField	-12.8549
fg	-12.8552
MavenDom	-12.8552
Lombok	-12.8554
createPointer	-12.8556
Inlays	-12.8559
CommonAttribute	-12.856
ColumnFilter	-12.8561
FetchSource	-12.8561
TestDataPath	-12.8564
intSetting	-12.8568
oldState	-12.857
LOW	-12.8571
getConfig	-12.8572
headerValue	-12.8574
dwrfEncryption	-12.8578
subclassProperty	-12.8581
ModelAction	-12.8583
testRead	-12.8585
NotC	-12.8585
LocalRepository	-12.8588
myBuild	-12.8591
Folded	-12.8593
inputProperties	-12.8594
bridge	-12.8594
cfname	-12.8596
CLEAR	-12.8596
shouldBe	-12.8598
JavaLanguage	-12.86
AliasMetadata	-12.8601
ty	-12.8602
IdeaPluginDe	-12.8607
getResolveScope	-12.8608
PersistentState	-12.861
getAnnotations	-12.861
messaging	-12.8613
ga	-12.8615
CONNECT	-12.8617
Fire	-12.8617
toRemove	-12.8618
cassandra	-12.8618
ANNOTATED	-12.8618
CARD	-12.8619
blobContainer	-12.8619
ValueSet	-12.862
Bookmark	-12.8624
ConversionUtil	-12.8627
Effect	-12.8627
Elytron	-12.8628
myBranch	-12.8634
LineEnd	-12.8635
ListSelection	-12.8637
BaseTable	-12.8638
202	-12.8639
NANOS	-12.8639
prompt	-12.8639
testWrite	-12.8639
myPlace	-12.864
DecoderTest	-12.8643
isAfter	-12.8644
HostName	-12.8646
WriteRequest	-12.8647
sToProcess	-12.8649
FetchMode	-12.8653
StepHandler	-12.8654
myHandler	-12.8656
myExternal	-12.8658
Align	-12.8659
updateTime	-12.866
Barrier	-12.8661
LINEFEED	-12.8661
requireNo	-12.8662
Boxed	-12.8663
StatusText	-12.8664
ccr	-12.8665
Conjuncts	-12.8666
maxConcurrent	-12.8667
nodeIndex	-12.8667
ActionName	-12.8669
Persist	-12.8669
120	-12.8672
setQuery	-12.8676
currentTime	-12.8678
containerName	-12.8678
testNon	-12.8681
PLACE	-12.8681
transitive	-12.8682
RAW	-12.8683
DateTimeFormatt	-12.8683
LineStart	-12.8686
loadFactor	-12.8686
TaskStatus	-12.8687
findByCP	-12.8688
GSTRING	-12.8689
BucketCollector	-12.8689
processList	-12.8689
getF	-12.869
Callee	-12.8691
HibernateProxy	-12.8693
PRICE	-12.8696
DV	-12.8698
DumbMode	-12.87
associate	-12.87
caps	-12.8701
tools	-12.8702
IDLE	-12.8707
BuildSide	-12.8708
cascade	-12.871
windows	-12.8711
getArtifact	-12.8713
getCatalogName	-12.8714
Wall	-12.8715
FileChannel	-12.8716
Hard	-12.8716
ANode	-12.8717
Checking	-12.8718
nullSafe	-12.8718
"0	-12.8719
TaskExecution	-12.8721
ClassRule	-12.8723
ClusterName	-12.8724
myHistory	-12.8725
writeBytes	-12.8725
RETENTION	-12.8725
clusterUUID	-12.8725
isAuto	-12.8727
Cpp	-12.8729
Inserted	-12.873
sec	-12.8733
addParameters	-12.8735
dereference	-12.8736
ngineKey	-12.8736
Ordinals	-12.8736
Proportion	-12.8736
StatusLine	-12.8737
CANCEL	-12.8742
ValueAccessor	-12.8742
Stubs	-12.8742
getIndices	-12.8743
BuildCache	-12.8744
grok	-12.8744
ManagerListener	-12.8745
Validators	-12.8747
jmx	-12.8747
imumShouldMatch	-12.8747
FetchProfile	-12.8747
PARTITIONING	-12.8748
getOptional	-12.8751
FQN	-12.8752
TextArea	-12.8753
seconds	-12.8756
analysisConfig	-12.8756
comments	-12.8756
mentItemFinder	-12.8757
ResultCheckStyle	-12.8761
da	-12.8762
Forced	-12.8763
InjectionBean	-12.8764
AccountGroupRels	-12.8765
fileSize	-12.8765
reindex	-12.8766
EditorComponent	-12.8767
like	-12.8767
ascending	-12.8768
RowNumber	-12.8769
LocalName	-12.877
naturalIdCache	-12.877
objectInspector	-12.877
Paused	-12.8772
Breadcrumbs	-12.8772
fee	-12.878
accountGroupId	-12.8783
toAdd	-12.8784
assertEmpty	-12.8786
SearchTask	-12.879
INFORMATION	-12.879
FINALLY	-12.879
Swing	-12.879
myRevision	-12.8795
invert	-12.8796
pkg	-12.8797
Unmapped	-12.88
CoverageInfo	-12.88
myEndOffset	-12.8802
cacheRegion	-12.8803
Secret	-12.8804
baseURL	-12.8806
fieldTypes	-12.8807
InternalNode	-12.8808
Scheduling	-12.8808
TestExecution	-12.881
Thresholds	-12.881
CollectionType	-12.881
ImplUtil	-12.8811
Acquire	-12.8812
DICT	-12.8812
ApplyPatch	-12.8812
CommitContext	-12.8814
planFragment	-12.8815
TargetElement	-12.8815
opt	-12.8815
versionType	-12.8817
RecordReader	-12.8817
AndPositions	-12.8821
superMethods	-12.8823
PsiSwitchLabel	-12.8823
disk	-12.8824
createDirectory	-12.8826
UpTo	-12.8828
140	-12.8828
PHASE	-12.883
NamespaceManager	-12.8831
contentEntry	-12.8832
TreeMap	-12.8832
methodRef	-12.8832
myMatching	-12.8832
sw	-12.8832
SettingsToken	-12.8835
PropertyPath	-12.8838
AttributeName	-12.8838
DecimalType	-12.8838
SMCPK	-12.8839
timeUnit	-12.8839
aggregated	-12.884
SplitSource	-12.884
CTCollectionId	-12.8842
BasePath	-12.8842
featureName	-12.8843
CaseSensitive	-12.8845
extendsGenerics	-12.8845
tableNames	-12.8846
isEqual	-12.8847
Participant	-12.8847
doLayout	-12.8848
NamedScope	-12.885
assertVariable	-12.8852
PIPELINE	-12.8852
getRetainedSize	-12.8853
SINGLETON	-12.8855
fakeRestRequest	-12.8856
mean	-12.8856
IDEA	-12.8857
creation	-12.8858
MBeanServer	-12.8858
myConfig	-12.8859
Upper	-12.886
Avg	-12.8861
getRelativePath	-12.8862
ObjectException	-12.8863
mid	-12.8863
rawTypes	-12.8864
createRequest	-12.8865
Mod	-12.8867
AccountUserId	-12.8869
finishing	-12.8871
revalidate	-12.8872
FieldAccessor	-12.8873
PricingClasses	-12.8873
Backgroundable	-12.8873
Computable	-12.8877
executeCommand	-12.8879
CHANGES	-12.8883
ProjectView	-12.8884
secondLevelCache	-12.8884
injectionPoint	-12.8886
getFilePath	-12.8888
span	-12.8893
Reuse	-12.8894
testFile	-12.8895
FRAGMENT	-12.8899
Lexical	-12.8899
Vertex	-12.8899
CALENDAR	-12.8899
stderr	-12.8899
FollowNodeTask	-12.89
POA	-12.89
ClassInfo	-12.8903
NamedValue	-12.8903
Importance	-12.8904
PROFILES	-12.8904
sPerSecond	-12.8907
ttributesFactory	-12.8909
tCollectionId	-12.891
fileNames	-12.891
randomString	-12.8914
myDirectory	-12.8916
Negated	-12.8917
DefaultProject	-12.892
clientId	-12.8921
THEME	-12.8921
Footer	-12.8923
getUnique	-12.8923
CommittedChanges	-12.8926
ModelClassPK	-12.8926
minus	-12.8927
expectedSize	-12.8927
isHidden	-12.8931
rel	-12.8938
isReferenceTo	-12.8942
VALIDATE	-12.8942
modifiedTime	-12.8946
Signing	-12.8946
rollover	-12.8948
jackson	-12.895
getOptions	-12.8952
getTopLevel	-12.8953
createDeployment	-12.8955
getGeneric	-12.8956
myWidth	-12.8958
Buildable	-12.8959
committed	-12.896
NextStep	-12.896
getSubstitutor	-12.8961
OffHeap	-12.8962
Selectable	-12.8962
Look	-12.8963
UID	-12.8963
ModifiableRoot	-12.8964
ternary	-12.8965
assetRenderer	-12.8966
PREPARED	-12.8966
workspace	-12.8966
portletName	-12.8967
partitionCount	-12.8967
WriteCommand	-12.8967
addConstant	-12.8969
initializing	-12.897
onError	-12.8973
SH	-12.8974
ClassLoaderScope	-12.8975
totalRead	-12.8976
myOutput	-12.8978
adjusted	-12.8979
breaker	-12.898
Expansion	-12.898
factor	-12.8981
WriteAttribute	-12.8982
myProperty	-12.8983
OnPsiElement	-12.8983
RegistryBuilder	-12.8984
effectType	-12.8985
thenExpression	-12.8986
FilePaths	-12.8987
MAVEN	-12.8987
Lightweight	-12.8988
roleMapper	-12.8991
jsp	-12.8991
myFoldingModel	-12.8993
proc	-12.8993
isIgnored	-12.8995
setGroup	-12.8996
serial	-12.8999
ClusterChanged	-12.9008
Compressor	-12.901
&=	-12.901
Shortcuts	-12.9011
salt	-12.9011
AnActionButton	-12.9012
bigint	-12.9013
ToWrite	-12.9015
createTask	-12.9016
equality	-12.9021
StubElementType	-12.9023
createBuilder	-12.9025
ExceptionHandler	-12.9029
Tpch	-12.903
Exported	-12.9031
IM	-12.9032
tracer	-12.9032
pv	-12.9038
myBlock	-12.904
Executions	-12.9047
ones	-12.9049
Realms	-12.905
BuiltIn	-12.905
ToCreate	-12.9053
RoleDescriptor	-12.9053
BAD	-12.9053
UPPER	-12.9055
sBlock	-12.9056
Repaint	-12.9057
ShardInfo	-12.9057
LayoutManager	-12.9058
defaultCalendar	-12.906
myAttributes	-12.906
chemaVersionId	-12.9062
getActions	-12.9063
CLI	-12.9063
isEnum	-12.9064
doFix	-12.9066
varName	-12.9067
beanManager	-12.9067
PyElementType	-12.9069
tan	-12.907
edValue	-12.9072
dx	-12.9072
Week	-12.9073
Cli	-12.9073
ack	-12.9074
trans	-12.9076
HOME	-12.9076
ToOffset	-12.9077
Gear	-12.9078
getSignature	-12.9079
setFile	-12.908
testExecute	-12.9081
parentType	-12.9081
userMemory	-12.9083
ymentPersistence	-12.9085
CommerceOrderPa	-12.9087
countByCommerce	-12.9089
checkCollection	-12.9089
TaskAction	-12.9095
mapBlock	-12.9095
CommitId	-12.9096
igma	-12.9097
Flat	-12.9099
nonRollup	-12.9099
hieu	-12.9101
PsiDocComment	-12.9101
createPage	-12.9102
FILENAME	-12.9103
PsiArray	-12.9107
getLanguageLevel	-12.9108
Chro	-12.9109
callSite	-12.9109
moduleId	-12.911
myLookup	-12.9111
DataResolver	-12.9112
EndpointState	-12.9116
AffixSetting	-12.9117
accountGroupRel	-12.9117
ENGINE	-12.9121
COMPOSITE	-12.9121
question	-12.9121
CatalogService	-12.9121
GrTypeDefinition	-12.9122
indexAnalyzers	-12.9123
Cleaner	-12.9123
addBefore	-12.9123
configureBy	-12.9124
TypeRegistry	-12.9125
isProperty	-12.9126
overriding	-12.9127
lastChild	-12.9127
indentOptions	-12.9129
Decode	-12.9134
StreamReader	-12.9135
myDebugger	-12.9135
addMessage	-12.9136
IfPresent	-12.9136
LocalTime	-12.9137
postProcessor	-12.9137
BeanDefinitions	-12.9138
Dimensions	-12.9138
testId	-12.9138
Published	-12.9139
SYMBOL	-12.914
Whitespaces	-12.9141
pageSink	-12.9142
CHECKER	-12.9142
substitutions	-12.9143
UPGRADE	-12.9144
caching	-12.9144
discoveryNodes	-12.9144
GroupedExecution	-12.9144
visibleArea	-12.9145
UnaryOperator	-12.9145
PsiDocTag	-12.9145
authzInfo	-12.9145
StorageService	-12.9145
destIndex	-12.9145
HeapSize	-12.9146
chosen	-12.9149
epairedAt	-12.9151
assertValid	-12.9154
TransformIndexer	-12.9154
RoutingNodes	-12.9155
accountUserId	-12.9156
extracted	-12.9157
Modify	-12.9158
JBValue	-12.9158
TOO	-12.916
selectionEnd	-12.9165
Heartbeat	-12.9165
dimensions	-12.9169
PerPartition	-12.917
overridden	-12.9172
codeStyle	-12.9173
markup	-12.9177
PropertyMapping	-12.9178
getSecond	-12.9179
isTransient	-12.9179
JarFile	-12.9183
myAfter	-12.9184
sizeInBytes	-12.9185
maxLength	-12.9187
RelationType	-12.9188
radius	-12.9189
DataInputPlus	-12.9189
optimizer	-12.9189
RoutingNode	-12.9189
statsCalculator	-12.919
ensureCapacity	-12.919
REQUIRES	-12.919
getSuperClass	-12.9191
scheduling	-12.9193
Attached	-12.9196
ToAdd	-12.9196
indexing	-12.9199
connectors	-12.9199
setInteger	-12.9201
Minimum	-12.9202
act	-12.9202
141	-12.9203
ByFile	-12.9205
fieldMapper	-12.9205
BaseDir	-12.9206
getOrganization	-12.9207
terminate	-12.9209
MAXIMUM	-12.9211
Mutator	-12.9211
qualify	-12.9211
instant	-12.9211
comboBox	-12.9212
SimpleValue	-12.9213
EditorColors	-12.9216
syncD	-12.9218
optionalObject	-12.9221
TimeoutException	-12.9221
big	-12.9222
FindManager	-12.9223
AsyncClient	-12.9228
THREADS	-12.923
PM	-12.9232
RootPane	-12.9232
urrentTimeMillis	-12.9232
serde	-12.9234
bullet	-12.9234
oAuthConsumer	-12.9234
heredoc	-12.9234
controlFlow	-12.9234
qualsIgnoreCase	-12.9235
DiscountId	-12.9237
Above	-12.9237
httpMethod	-12.9237
getVisible	-12.9238
getPoint	-12.9239
Associated	-12.9239
ColumnNumber	-12.9239
preference	-12.924
Cycles	-12.9242
closing	-12.9242
updateN	-12.9243
Tip	-12.9244
PyCallExpression	-12.9244
addModule	-12.9248
myNotification	-12.9248
DataNodes	-12.925
Vendor	-12.9252
tcp	-12.9254
LevelVcsManager	-12.9257
stash	-12.9257
getSimpleName	-12.9257
ssProxy	-12.9258
cross	-12.9259
setMin	-12.9263
Quoted	-12.9263
exported	-12.9263
AggregationNode	-12.9265
CertificateAnd	-12.9265
Repr	-12.9265
SegmentsEntryId	-12.9266
AGG	-12.9266
getFunction	-12.9267
setHeader	-12.9268
structField	-12.9269
AMP	-12.9269
IsDispatchThread	-12.9271
ub	-12.9272
DataManager	-12.9274
termsOfUse	-12.9274
ENTER	-12.9275
Starting	-12.9276
NavBar	-12.9279
HIGHLIGHT	-12.9279
rawInputDataSize	-12.928
floor	-12.928
releasable	-12.928
myPrev	-12.928
menubar	-12.9281
NotAllowed	-12.9281
maxPoolSize	-12.9282
testRe	-12.9282
findElement	-12.9284
getFolder	-12.9284
MappingDocument	-12.9286
ImmutableA	-12.9287
DataFlow	-12.9287
nc	-12.9288
setKey	-12.9289
RemoteConnection	-12.9289
LocalExchange	-12.9296
Replicated	-12.9298
recent	-12.9299
outputDataSize	-12.93
STR	-12.9301
HINT	-12.9301
ighLevelClient	-12.9304
eBundle	-12.9305
CatalogBase	-12.9305
tabs	-12.9307
IdGenerator	-12.9307
Expectations	-12.9313
ByG	-12.9316
Accumulo	-12.9317
suggestedName	-12.932
GE	-12.9321
Renamed	-12.9321
getAliases	-12.9321
TreeSet	-12.9322
PA	-12.9323
LineSeparator	-12.9323
myRemote	-12.9324
assetEntries	-12.9324
GAP	-12.9325
applicable	-12.9325
FINISHED	-12.9325
compressor	-12.9326
XmlNSDescriptor	-12.9326
nitialCapacity	-12.9326
specification	-12.9327
myVertical	-12.9331
PropertyEditor	-12.9332
dataExtractor	-12.9333
myInner	-12.9334
getMerged	-12.9336
localAddress	-12.9337
ToSearch	-12.934
USED	-12.9342
getRootElement	-12.9345
WriteIndex	-12.9345
DONE	-12.9346
Packaging	-12.9346
Holders	-12.9346
ShardSnapshot	-12.9347
iae	-12.9347
Device	-12.9348
commerceOrderNot	-12.9348
ORDINAL	-12.9348
setRequired	-12.9349
BOLD	-12.935
Dispose	-12.9353
MODIFIERS	-12.9353
getCall	-12.9355
IvyArtifact	-12.9355
setBounds	-12.9355
setLong	-12.9355
sIndex	-12.9356
ARGUMENTS	-12.9356
CHA	-12.9359
IndexScope	-12.9359
RevocableMemory	-12.9359
CR	-12.936
MessageId	-12.936
Subscriber	-12.9361
SetOr	-12.9365
GutterComponent	-12.9367
isS	-12.9368
myRow	-12.9371
difference	-12.9371
TextOccurrences	-12.9372
displayStyle	-12.9372
setLocation	-12.9372
replicaPlan	-12.9372
getStatusByUser	-12.9373
rr	-12.9374
JRadioButton	-12.9376
testCustom	-12.938
FileVersion	-12.9381
FromClause	-12.9383
QueryExecution	-12.9384
getFrom	-12.9385
NoSuchDL	-12.9387
ServerRequest	-12.9389
SPILLE	-12.939
errorResult	-12.9391
Rad	-12.9391
ShortName	-12.9392
DDMStructure	-12.9392
sFix	-12.9394
Whole	-12.9394
Consumed	-12.9394
SHA	-12.9395
parseDelimited	-12.9395
getSubclass	-12.9396
AccessAllowed	-12.9396
VE	-12.9397
downloaded	-12.9397
SortedNumeric	-12.9402
successfulShard	-12.9402
RunProfile	-12.9403
OPS	-12.9404
orb	-12.9405
scriptField	-12.9406
duplicates	-12.9406
indexPattern	-12.9407
Painting	-12.9407
Ingest	-12.9407
AbstractTreeNode	-12.9408
propertyData	-12.9409
most	-12.9409
InFile	-12.9415
sShown	-12.9417
Metastore	-12.9417
getMember	-12.9418
Guide	-12.9418
FrameworkSupport	-12.9418
Emitter	-12.942
ITY	-12.942
RecordComponent	-12.9423
AsList	-12.9423
offsetToLogical	-12.9426
Require	-12.9428
101	-12.9432
MAPPINGS	-12.9432
ByPath	-12.9436
ByPrimaryKey	-12.9437
exporter	-12.944
getChanges	-12.944
unassigned	-12.9446
WriteInfo	-12.9447
MINUTES	-12.945
assetEntryUsage	-12.9453
iFunc	-12.9454
entityType	-12.9454
TOKENS	-12.9454
createElement	-12.9454
zipFile	-12.9458
odificationStamp	-12.9458
Dfs	-12.946
ScopeGroupId	-12.946
myFrom	-12.9463
sdkType	-12.9463
Inclusion	-12.9464
circle	-12.9464
getNextSibling	-12.9464
Locks	-12.9465
onia	-12.9466
RecoverySource	-12.9468
SUM	-12.9469
Syncer	-12.947
RefEntity	-12.947
fetchFields	-12.9471
rintedNote	-12.9473
getM	-12.9474
Wrappers	-12.9475
getJobId	-12.9476
baseType	-12.9478
JavaCompiler	-12.9481
Including	-12.9487
OGCGeometry	-12.9487
peakTotalMemory	-12.9487
Concatenation	-12.9487
CONCURRENT	-12.9487
JDOM	-12.949
typeText	-12.9492
getDefaultValue	-12.9493
startDate	-12.9495
expectedTypes	-12.9496
getCharset	-12.95
getBounds	-12.95
NT	-12.9503
WriteAccess	-12.9504
Isolation	-12.9509
dlFileEntry	-12.951
PART	-12.951
RETRIES	-12.951
SMART	-12.951
UNASSIGNED	-12.951
ATTEMPTS	-12.9511
RcFile	-12.9511
Dsl	-12.9512
myUser	-12.9513
DisplayNames	-12.9515
ten	-12.9515
setOutput	-12.9516
143	-12.9516
LogEntry	-12.9517
AfterCompletion	-12.9518
writeByte	-12.9519
stringArray	-12.952
OrcDataSource	-12.952
testVerify	-12.952
isPhysical	-12.952
produces	-12.9523
Describe	-12.9524
classification	-12.9524
shuffle	-12.9524
PsiConditional	-12.9525
RATE	-12.9525
overField	-12.9526
GenericType	-12.9528
maxMemory	-12.9529
IndexCommit	-12.9532
algorithm	-12.9534
Expiry	-12.9534
Stress	-12.9534
GrReference	-12.9534
freeze	-12.9534
BootstrapService	-12.9534
Hi	-12.9535
BYTECODE	-12.9535
Catalogs	-12.9535
getDisplay	-12.9538
selectionPath	-12.9538
multiResolve	-12.9539
ModCount	-12.9542
pred	-12.9544
Verb	-12.9545
checkCanDrop	-12.9548
Remover	-12.9548
getLatest	-12.9549
createPopup	-12.955
getNon	-12.955
getSingle	-12.955
parentElement	-12.9555
Major	-12.9555
testSingle	-12.9556
PARTITIONED	-12.9559
Reroute	-12.9559
assertIs	-12.9562
Executer	-12.9562
ServerSocket	-12.9564
capitalize	-12.9565
Ccr	-12.9567
RowMapper	-12.9567
getByC	-12.9571
IndexLifecycle	-12.9571
ErrorStripe	-12.9571
TestTask	-12.9573
AccountEntries	-12.9573
FriendlyURL	-12.9573
Io	-12.9574
correlation	-12.9575
cn	-12.9575
NonEmpty	-12.9576
Every	-12.9579
EmptyText	-12.958
DnD	-12.958
DblClick	-12.9581
Crumb	-12.9581
BasedTimeout	-12.9583
realmName	-12.9584
Bookmarks	-12.9586
apiKey	-12.9588
Kit	-12.9588
HandlerAdapter	-12.9591
VERSIONS	-12.9593
subelement	-12.9594
FactoryImpl	-12.9597
getCommand	-12.9597
BuildAction	-12.9603
Migrate	-12.9604
BOTH	-12.9604
IndicesStats	-12.9604
itemSelector	-12.9605
Dtd	-12.9606
targetNode	-12.9606
Caption	-12.9609
NewVirtualFile	-12.9611
interceptors	-12.9611
ModelListener	-12.9612
createInitial	-12.9613
readResource	-12.9615
Tcp	-12.9615
ModuleManager	-12.962
EscapedLiteral	-12.9621
tr	-12.9623
NodeIds	-12.9624
queryInfo	-12.9624
subdir	-12.9625
Cal	-12.9626
WHITE	-12.9627
Obsolete	-12.9628
REMOTING	-12.9628
IDE	-12.9628
revert	-12.9629
Subqueries	-12.9629
customSettings	-12.963
ReaderTemplates	-12.963
subs	-12.9631
SLOW	-12.9631
MemoryLimit	-12.9634
UserGroupRole	-12.9634
SEND	-12.964
getExpressions	-12.9642
declaredElement	-12.9644
grant	-12.9645
bootstrapMethod	-12.9646
OpenFile	-12.9651
FromSource	-12.9653
overrides	-12.9656
myFolder	-12.9657
223	-12.966
DocumentEx	-12.966
112	-12.9663
checkNotNull	-12.9666
memoryPool	-12.9669
dlApp	-12.9675
nanoTime	-12.9675
Batches	-12.9676
ddmFormFieldType	-12.9676
updateShipping	-12.9677
Abreve	-12.9677
SimpleColored	-12.9679
Must	-12.9681
RM	-12.9681
myTask	-12.9682
moved	-12.9683
113	-12.9684
Updating	-12.9686
myCan	-12.9687
ommerceChannelId	-12.9688
getRevision	-12.9688
Panels	-12.9691
Hie	-12.9694
QueryPhase	-12.9694
groupSearch	-12.9697
ModuleType	-12.9697
Introduction	-12.9699
PriceLists	-12.9699
discountAmount	-12.9699
myFont	-12.97
ua	-12.9702
PushDown	-12.9703
DispatchThread	-12.9708
getScheme	-12.9709
rOperand	-12.971
ResponseBody	-12.9711
currentVersion	-12.9715
104	-12.9715
ial	-12.9716
optimized	-12.9716
TimestampFormats	-12.9717
STAR	-12.9717
VersionSelector	-12.9718
invoker	-12.9719
resourceList	-12.9722
ScriptEngine	-12.9722
wsdl	-12.9723
newArray	-12.9723
frameId	-12.9723
TableId	-12.9723
HandlingMode	-12.9725
spanElement	-12.9725
SPILL	-12.9727
sByName	-12.9727
assertQuery	-12.9728
testS	-12.973
suggestion	-12.973
codePoint	-12.9732
Kt	-12.9733
reduceContext	-12.9735
markupModel	-12.9737
Scrollbar	-12.9737
getUpdate	-12.9738
javadoc	-12.9739
cnt	-12.9739
toFile	-12.9741
ByteOrder	-12.9741
Ear	-12.9741
JavaClass	-12.9742
BaseName	-12.9743
typeDefinition	-12.9745
Changing	-12.9745
checkInfo	-12.9745
fingerprint	-12.9745
Netty	-12.9746
accurate	-12.9746
HORI	-12.9746
hasText	-12.9747
ReplaceWith	-12.9747
internode	-12.9747
within	-12.9747
Keyboard	-12.9748
ForClass	-12.9749
timestampField	-12.975
testMerge	-12.975
Negation	-12.9753
Cors	-12.9753
acircumflex	-12.9753
addEntity	-12.9755
MultiBucket	-12.9756
svn	-12.9759
1_2	-12.976
Mnemonics	-12.976
InvalidRequest	-12.976
Walking	-12.9762
NoSuchPriceList	-12.9762
ToIndex	-12.9766
SecurityManager	-12.9768
acknowledge	-12.9768
Verify	-12.9768
144	-12.9769
exceptionType	-12.9769
hostId	-12.9769
ONTAL	-12.977
Animator	-12.977
SelfSigned	-12.977
stringValue	-12.9771
LocalMemory	-12.9772
ArgumentValue	-12.9773
Overlap	-12.9773
MetaAnnotation	-12.9776
setAttributes	-12.9778
FileUtils	-12.9779
expectedParams	-12.9779
configurer	-12.9779
scoreMode	-12.978
UserName	-12.9784
HeaderAccessor	-12.9785
myMerge	-12.9786
TableAlias	-12.9788
MockTransport	-12.9788
getSubject	-12.9789
FileIndex	-12.9789
Regression	-12.9793
Applier	-12.9793
OAuth	-12.9793
DEPENDENCIES	-12.9794
ORGANI	-12.9794
CascadeStyle	-12.9795
namedXContent	-12.9795
PropertyData	-12.9796
RuleContext	-12.9798
testNull	-12.9804
Detailed	-12.9806
ByCollectionId	-12.9806
TemplateService	-12.9808
addAfter	-12.9809
getMetaData	-12.9811
AssetCategoryId	-12.9816
undeploy	-12.9817
projectDir	-12.9818
CHILD	-12.9818
INSPECTOR	-12.9818
protobuf	-12.9818
ast	-12.9819
Construction	-12.9821
getMain	-12.9822
ddlRecordId	-12.9824
getDependency	-12.9824
Ecircumflex	-12.9825
idp	-12.9826
KeyspaceMetadata	-12.9831
ncludeLower	-12.9832
card	-12.9834
pin	-12.9836
createActions	-12.9838
CurrentValue	-12.9838
epState	-12.9838
PREDICATE	-12.9842
PrimaryKeysWhere	-12.9843
ServletException	-12.9851
logout	-12.9852
grow	-12.9852
assertHas	-12.9852
testContext	-12.9857
PartitionSize	-12.9858
handleException	-12.9862
RouterFunctions	-12.9864
billing	-12.9866
javaNamesTo	-12.9867
createTableGauge	-12.9867
ACCEPTED	-12.9867
HIDE	-12.9867
getPort	-12.9867
isLegacy	-12.9868
att	-12.987
BeanManager	-12.987
logicalLine	-12.9871
BB	-12.9871
ToRestore	-12.9873
Filename	-12.9873
KeyValuePair	-12.9874
myChangeList	-12.9875
Stateless	-12.9876
findMethodsBy	-12.9877
syntax	-12.9877
getDefinition	-12.9878
TERM	-12.9879
Fork	-12.9879
SITE	-12.988
dataPaths	-12.9883
IndexId	-12.989
AGGREGATE	-12.9891
TypeVariableFrom	-12.9892
myIn	-12.9892
ScoreFunction	-12.9893
memoryLimit	-12.9895
Ocircumflex	-12.9896
coverage	-12.9898
Produces	-12.9899
Repeated	-12.9899
Around	-12.9899
bufferPool	-12.9901
Reading	-12.9901
parentComponent	-12.9904
issuer	-12.9904
testBasic	-12.9905
DA	-12.9905
ReferencesSearch	-12.9907
Da	-12.991
getProtocol	-12.9911
just	-12.9913
LBRACK	-12.9915
LtM	-12.9915
Note	-12.9916
LineCount	-12.9916
NULLABLE	-12.9916
Enclosing	-12.9916
fieldMapping	-12.9916
WrittenDataSize	-12.9917
selectors	-12.9918
SubclassProperty	-12.9919
myReturnType	-12.9919
ChannelService	-12.9922
Serialize	-12.9923
fr	-12.9923
setCommerceShip	-12.9924
AssetLink	-12.9924
sourceElement	-12.9924
getOr	-12.9924
tp	-12.9925
CheckStyle	-12.9926
myPointer	-12.9927
containsValue	-12.993
percentile	-12.9931
Warehouse	-12.9934
testDynamic	-12.9935
myTop	-12.9935
ToArray	-12.9938
NodeCount	-12.9938
binOp	-12.994
CaseSensitivity	-12.994
SA	-12.994
ClsDir	-12.994
functionMetadata	-12.9941
unfiltered	-12.9941
InstanceN	-12.9942
PsiJavaModule	-12.9943
escaped	-12.9944
accessType	-12.9944
CommittedChange	-12.9944
emit	-12.9945
myRe	-12.9945
myCaretModel	-12.9946
PerTask	-12.995
Tracer	-12.995
dimension	-12.9952
idTo	-12.9953
getPlugins	-12.9953
RO	-12.9953
TempDirectory	-12.9956
revisions	-12.9956
GroupRelId	-12.9956
OverridingMethod	-12.9959
ChangedFiles	-12.9959
Implement	-12.996
onSuccess	-12.9961
newRoot	-12.9961
currentThread	-12.9962
checkBase	-12.9962
STRIPE	-12.9964
currentPosition	-12.9964
Vault	-12.9964
DESTINATION	-12.9964
orderStatuses	-12.9965
isNullable	-12.9969
CON	-12.997
memo	-12.9973
CV	-12.9975
hasValue	-12.9978
entryName	-12.9978
ScrollableResult	-12.9978
probeInput	-12.9978
registerCustom	-12.998
AN	-12.9981
getImport	-12.9981
Recorder	-12.9983
getWindow	-12.9983
Extend	-12.9986
addAs	-12.9987
Author	-12.9987
LowerCase	-12.9987
Attempt	-12.9988
Marked	-12.9988
PARQUET	-12.9988
POSITIVE	-12.9988
myCommand	-12.9988
onTheFly	-12.9988
succinct	-12.9988
visitCall	-12.9991
222	-12.9992
addPage	-12.9993
EJBClient	-12.9996
nameIdentifier	-12.9996
SourceFile	-12.9996
UriTemplate	-13.0001
ModuleDescriptor	-13.0001
setTime	-13.0002
throwException	-13.0003
getServer	-13.0006
oldIndex	-13.0008
withType	-13.001
Breaker	-13.0011
Facets	-13.0018
Em	-13.0019
StorageManager	-13.0019
Computed	-13.0019
getAffected	-13.0021
fetchSize	-13.0021
RowUpdate	-13.0024
getD	-13.0026
SortedMap	-13.0029
ToLoad	-13.003
quoted	-13.003
FU	-13.0031
PortletResource	-13.0032
rewriter	-13.0032
Forecast	-13.0032
Ast	-13.0032
Sensitive	-13.0034
searchResult	-13.0035
getN	-13.0035
myCancel	-13.0036
PATCH	-13.0037
Deletes	-13.0038
setIgnore	-13.0038
readVInt	-13.0038
delTime	-13.0038
mySide	-13.0039
ivy	-13.0039
BuildNumber	-13.004
Returned	-13.0042
findResult	-13.0045
NodeManager	-13.0045
snapshotIds	-13.0046
XOR	-13.0047
testMap	-13.0049
isVersion	-13.005
isFinal	-13.0054
Ns	-13.0056
Suitable	-13.0057
jts	-13.006
TA	-13.0061
AUTOWIRE	-13.0062
Pinned	-13.0062
claim	-13.0062
WELCOME	-13.0062
Subclasses	-13.0063
setBackground	-13.0065
CategoryId	-13.0065
fieldCaps	-13.0066
OrganizationRels	-13.0066
moduleVersion	-13.0072
createProject	-13.0074
getSubscription	-13.0075
allNodes	-13.0076
myMod	-13.0077
DIRECTION	-13.0079
UniqueKey	-13.008
PreferredSize	-13.0081
BREAK	-13.0083
ArtifactMetadata	-13.0083
isSingle	-13.0085
PageBuilder	-13.0086
Couple	-13.0087
Cyclic	-13.0087
blockedReason	-13.0087
isDate	-13.0088
StoredScript	-13.009
FromTimestamp	-13.0094
VariableKind	-13.0094
myComponents	-13.0095
eeModule	-13.0096
getDatabase	-13.0096
oc	-13.0098
ance	-13.0105
endX	-13.011
SystemIndex	-13.0111
ModelDescription	-13.0111
Agent	-13.0111
ANONYMOUS	-13.0111
annotator	-13.0111
touch	-13.0111
REJECTED	-13.0112
grandParent	-13.0112
commitLog	-13.0113
FORM	-13.0114
Unix	-13.0116
VisibleArea	-13.0116
HiveColumnHandle	-13.0117
myDir	-13.0121
getDfType	-13.0122
ipEntry	-13.0123
la	-13.0125
Swift	-13.0127
Certificates	-13.0132
IterationDate	-13.0133
lists	-13.0133
ENT	-13.0134
Dotted	-13.0136
MONITOR	-13.0136
ValueOtherThan	-13.0136
concurrency	-13.0136
Encrypted	-13.0137
thing	-13.0137
ncludeUpper	-13.0138
LocalDate	-13.0139
ModuleExtension	-13.014
232	-13.0141
orders	-13.0142
forecast	-13.0143
testSearch	-13.0146
fileTree	-13.0147
ChildDescription	-13.0148
exceptionHandler	-13.0152
failOn	-13.0153
TOOL	-13.0159
ab	-13.016
SQUARE	-13.0161
lombok	-13.0161
scenario	-13.0161
STRUCTURE	-13.0161
routerFunction	-13.0161
BREAKER	-13.0161
unableToClose	-13.0162
inheritanceState	-13.0162
tile	-13.0163
acc	-13.0164
SHOWN	-13.0164
GetAliases	-13.0164
readUTF	-13.0168
MergeRequest	-13.0169
hasChildren	-13.017
Defs	-13.017
Annotate	-13.0171
criteriaQuery	-13.0175
loadClass	-13.0176
NotExists	-13.0176
TagNames	-13.0177
HI	-13.0178
Continuation	-13.0179
HashComputation	-13.0179
GlobalInspection	-13.0184
InPredicate	-13.0184
Clauses	-13.0185
logEntry	-13.0186
Throwing	-13.0186
increase	-13.0186
MVCActionCommand	-13.0186
getMerge	-13.0186
isLast	-13.0188
essagingVersion	-13.019
CachedValues	-13.0192
DL	-13.0192
completedDriver	-13.0192
Booking	-13.0194
targetDir	-13.0197
sAscending	-13.0197
transition	-13.0198
Selections	-13.0199
AWTEvent	-13.0199
Reactive	-13.0202
getReferenced	-13.0203
TimeoutInM	-13.0206
ModuleGroup	-13.0206
weak	-13.0211
EXECUTE	-13.0211
MachineLearning	-13.0211
StartJoinRequest	-13.0211
timingStats	-13.0211
rValue	-13.0212
InCommand	-13.0214
myQualifier	-13.0215
isIgnore	-13.0215
myEvent	-13.0217
recoverySource	-13.0218
EventSource	-13.0218
Eql	-13.0219
SSLConfiguration	-13.0219
inputFunction	-13.0219
Suggestions	-13.0219
javaHome	-13.0219
Sorting	-13.0219
stripped	-13.022
BulkResponse	-13.0221
repaired	-13.0222
Preprocessor	-13.0223
Best	-13.0223
fh	-13.0224
JVM	-13.0225
queryParams	-13.0225
propertyNames	-13.0227
parentTaskId	-13.0228
SSLService	-13.0231
Cef	-13.0231
Cookies	-13.0231
fetchByU	-13.0232
getUn	-13.0234
244	-13.0234
Cron	-13.0236
STAMP	-13.0236
JBCheckBox	-13.0237
za	-13.0237
Stdout	-13.0237
getNodes	-13.0237
layoutData	-13.0239
tmpDir	-13.024
preselected	-13.0241
AnalysisScope	-13.0242
ClassFinder	-13.0243
ScopeOwner	-13.0244
IGNORED	-13.0245
cent	-13.0248
Explicitly	-13.0249
createContext	-13.0249
CompilerOutput	-13.0251
OutputDirectory	-13.0253
getOption	-13.0254
LowerBound	-13.0255
LocalSession	-13.0258
UD	-13.0258
negate	-13.0259
odifierAmount	-13.026
Recoveries	-13.0261
FractionDigits	-13.0261
echo	-13.0261
getDelivery	-13.0263
hashes	-13.0263
assertResult	-13.0263
AndValidate	-13.0264
RequestContext	-13.0265
lf	-13.0267
ORDERS	-13.0267
xmlAttribute	-13.0272
securityIndex	-13.0274
TimerService	-13.0277
getLevel	-13.0277
myMavenProject	-13.0278
ValueGeneration	-13.0278
unescape	-13.0279
singleValue	-13.028
testFetchB	-13.0283
yPrimaryKeysWith	-13.0283
executionTime	-13.0286
Trees	-13.0286
libraries	-13.0286
CURSOR	-13.0286
Synchronously	-13.0286
hover	-13.0287
containsAll	-13.0288
getAssetEntries	-13.0289
ru	-13.0291
associationPath	-13.0292
Integ	-13.0294
myTableModel	-13.0295
ColumnIndex	-13.0296
AssetCategoryIds	-13.0297
ExpectedType	-13.0297
countByA	-13.0298
CompositeType	-13.0298
argList	-13.0298
parentFile	-13.0298
Arithmetic	-13.0299
agesHashStrategy	-13.0299
Const	-13.03
mergedConfig	-13.0301
CellEditor	-13.0304
myParser	-13.0304
edBeans	-13.0304
blocking	-13.0305
dictionarySize	-13.0305
getPhysical	-13.0305
getID	-13.0307
underlying	-13.0311
elementAt	-13.0311
tzRounding	-13.0313
ScriptSource	-13.0313
isFalse	-13.0314
getEvent	-13.0317
myTabbedPane	-13.0322
erverHttpRequest	-13.0323
Sequential	-13.0324
InjectionSource	-13.0324
Party	-13.0326
224	-13.0327
getLibrary	-13.0327
blockSize	-13.0329
RootContainer	-13.0331
getOld	-13.0332
Titles	-13.0334
editorText	-13.0334
RuntimeBean	-13.0336
Discard	-13.0336
Nieun	-13.0337
isIndex	-13.0338
FailedException	-13.0339
signed	-13.0341
CFG	-13.0341
Acircumflex	-13.0342
setDefaultValue	-13.0344
TotalMemory	-13.0347
tion	-13.0348
ToolTip	-13.0349
formats	-13.0351
KeyboardShortcut	-13.0351
FromRoot	-13.0351
thrown	-13.0353
Places	-13.0354
checkContainer	-13.0354
Customization	-13.0358
Jars	-13.0359
PropertyKey	-13.036
SrcDir	-13.0361
buildScript	-13.0362
PRINT	-13.0362
Green	-13.0362
hyperlink	-13.0362
Quiet	-13.0362
wrong	-13.0362
peakUserMemory	-13.0362
CII	-13.0363
Decider	-13.0365
fraction	-13.0365
121	-13.0365
GetResult	-13.0366
StatsUser	-13.0366
SAX	-13.0368
testIDEA	-13.0368
EntityType	-13.0369
translated	-13.037
dDomainObject	-13.0371
connections	-13.0371
JoinTable	-13.0372
getNumber	-13.0373
ItemsCount	-13.0373
Car	-13.0374
LI	-13.0376
TCP	-13.0379
creator	-13.038
Operands	-13.038
myExpected	-13.038
realmType	-13.0383
Instanceof	-13.0383
keyValue	-13.0387
Dict	-13.0387
except	-13.0387
desired	-13.0388
polygon	-13.0388
REQUESTS	-13.0389
nodeA	-13.0389
Subset	-13.0392
OFF	-13.0396
getDestination	-13.0398
JList	-13.0398
ModelRule	-13.0402
outputDir	-13.0405
streams	-13.0408
modulePath	-13.0409
HighlightingPass	-13.041
NCE	-13.0413
PKCS	-13.0413
rtitionIterator	-13.0414
103	-13.0414
myUseNew	-13.0415
SoftWraps	-13.0415
csv	-13.0416
maps	-13.0417
UnfilteredPa	-13.042
Incomplete	-13.0426
POWER	-13.0426
110	-13.0429
LazyValue	-13.0431
getFailure	-13.0431
102	-13.0432
CriteriaQuery	-13.0432
Favorite	-13.0436
RESOURCES	-13.0439
MOCK	-13.0439
NANOSECOND	-13.0439
alef	-13.0439
Ternary	-13.044
EXPR	-13.044
_2_	-13.0442
parseLong	-13.0443
WindowState	-13.0443
xF	-13.0444
ByPowwowServerId	-13.0445
ClassMember	-13.0445
CallbackHandler	-13.0448
myLines	-13.0451
Futures	-13.0451
Deletions	-13.0455
ITEMS	-13.0455
PsiSwitch	-13.0457
getLookup	-13.046
ColumnMapping	-13.046
wc	-13.046
recorder	-13.046
MetaDataProvider	-13.0463
RELEASE	-13.0463
gutter	-13.0464
Enhancer	-13.0465
StyledTextOutput	-13.0465
MESSAGING	-13.0465
modify	-13.0465
ORIGINAL	-13.0465
agent	-13.0465
getSystem	-13.0467
checkCanceled	-13.0467
xam	-13.0469
align	-13.0469
tableStatistics	-13.047
refEntity	-13.047
logicalRow	-13.047
OutOf	-13.0472
ExcludeSpec	-13.0478
DocFreq	-13.0479
NodeVersion	-13.0482
visitClass	-13.0482
simpleName	-13.0486
ColumnEncoding	-13.0489
myPreview	-13.0489
ACCEPT	-13.049
CONCURRENCY	-13.049
RUNNER	-13.049
answer	-13.049
prepend	-13.049
transformation	-13.0491
bloomFilter	-13.0491
runtimeMappings	-13.0491
IfPossible	-13.0491
TupleScheme	-13.0492
innerJoin	-13.0492
startup	-13.0493
Intervals	-13.0496
sHelper	-13.0499
dataSize	-13.0502
myPreferred	-13.0503
jmsMessage	-13.0504
StatusBar	-13.0509
Ver	-13.0509
AndReturn	-13.0509
tokenFilter	-13.0509
AbstractAction	-13.0515
getReader	-13.0515
Locking	-13.0515
UNDER	-13.0516
wkt	-13.0516
Slot	-13.0517
modalityState	-13.0517
allowLazy	-13.0518
ble	-13.0518
executeQuery	-13.0519
setJson	-13.0524
SingleNode	-13.0526
123	-13.0528
Converted	-13.0531
ocircumflex	-13.0534
canonicalize	-13.0539
newDirectory	-13.0541
rootNode	-13.0541
Overlay	-13.0542
QUALIFIER	-13.0542
PRINTER	-13.0542
acknowledged	-13.0544
SCAN	-13.0546
getFloat	-13.055
typeConverter	-13.0553
runningDriver	-13.0554
BI	-13.0556
Druid	-13.0557
ContextLoader	-13.0558
Hunk	-13.0559
LOWER	-13.056
Waiting	-13.0568
LIFECYCLE	-13.0568
ADDITIONAL	-13.0568
SETUP	-13.0568
Samples	-13.0569
paintComponent	-13.0573
isFrom	-13.0574
SerializedSize	-13.0575
scripts	-13.0575
AspectJ	-13.0575
ofNullable	-13.0576
equiredSubfields	-13.0576
IncludedBuild	-13.0581
isClass	-13.0583
MultipartFile	-13.0588
142	-13.059
componentClass	-13.0592
Remoting	-13.0594
traverse	-13.0594
[...]
