<unk>	0
<s>	0
</s>	0
re	-0
me	-1
on	-2
ion	-3
nt	-4
ss	-5
te	-6
ment	-7
Ex	-8
od	-9
ssion	-10
pre	-11
pression	-12
Expression	-13
Re	-14
ce	-15
le	-16
nce	-17
fe	-18
rence	-19
ference	-20
Reference	-21
st	-22
Li	-23
ar	-24
ta	-25
lement	-26
Element	-27
List	-28
et	-29
Sta	-30
State	-31
Statement	-32
er	-33
ode	-34
ara	-35
ter	-36
al	-37
Code	-38
hod	-39
Met	-40
Method	-41
pe	-42
ype	-43
Type	-44
Para	-45
meter	-46
Parameter	-47
TypeElement	-48
fi	-49
va	-50
oc	-51
ava	-52
Java	-53
tion	-54
ReferenceElement	-55
JavaCode	-56
ifi	-57
Mod	-58
ifier	-59
Modifier	-60
ModifierList	-61
ur	-62
or	-63
loc	-64
lock	-65
Block	-66
tur	-67
turn	-68
CodeBlock	-69
in	-70
all	-71
ParameterList	-72
Call	-73
CallExpression	-74
ic	-75
ExpressionList	-76
mp	-77
ec	-78
Fi	-79
ld	-80
Return	-81
ReturnStatement	-82
eld	-83
ort	-84
Field	-85
ri	-86
mport	-87
ble	-88
la	-89
Dec	-90
at	-91
aration	-92
laration	-93
Declaration	-94
pu	-95
ro	-96
lic	-97
able	-98
ing	-99
an	-100
pub	-101
Loc	-102
public	-103
alExpression	-104
return	-105
An	-106
Local	-107
Liter	-108
no	-109
is	-110
tation	-111
Import	-112
notation	-113
Annotation	-114
ari	-115
get	-116
fin	-117
ariable	-118
Variable	-119
lass	-120
co	-121
tr	-122
LocalVariable	-123
ImportStatement	-124
ch	-125
it	-126
Co	-127
id	-128
If	-129
IfStatement	-130
Str	-131
pri	-132
de	-133
se	-134
String	-135
ew	-136
vate	-137
private	-138
ul	-139
final	-140
stat	-141
ate	-142
var	-143
ue	-144
In	-145
Con	-146
static	-147
Class	-148
int	-149
ac	-150
ge	-151
ary	-152
ame	-153
ig	-154
th	-155
Bin	-156
Binary	-157
BinaryExpression	-158
tor	-159
vi	-160
ad	-161
um	-162
vo	-163
oo	-164
mer	-165
BlockStatement	-166
ReferenceList	-167
my	-168
Id	-169
ex	-170
void	-171
ption	-172
import	-173
Ass	-174
vice	-175
ervice	-176
if	-177
Name	-178
mmer	-179
mmerce	-180
ign	-181
ation	-182
str	-183
ent	-184
ap	-185
jec	-186
De	-187
ers	-188
ignment	-189
si	-190
age	-191
set	-192
Assignment	-193
Service	-194
ject	-195
File	-196
ed	-197
alue	-198
ull	-199
nd	-200
up	-201
New	-202
ted	-203
pro	-204
NewExpression	-205
class	-206
Pro	-207
unt	-208
ver	-209
num	-210
By	-211
Ac	-212
new	-213
el	-214
con	-215
ild	-216
xt	-217
ert	-218
so	-219
text	-220
lean	-221
sta	-222
der	-223
oolean	-224
ot	-225
ry	-226
row	-227
ou	-228
ata	-229
ition	-230
bu	-231
boolean	-232
Th	-233
lo	-234
Commerce	-235
Value	-236
ong	-237
ult	-238
com	-239
iz	-240
as	-241
iste	-242
cted	-243
ve	-244
Bu	-245
ra	-246
Ca	-247
cess	-248
li	-249
long	-250
Ent	-251
Comp	-252
il	-253
ack	-254
Pers	-255
tory	-256
and	-257
dex	-258
ception	-259
throw	-260
us	-261
ey	-262
bject	-263
rea	-264
Ch	-265
art	-266
ER	-267
rent	-268
que	-269
Exception	-270
es	-271
en	-272
ger	-273
To	-274
istence	-275
ir	-276
Pre	-277
IN	-278
count	-279
null	-280
Not	-281
Po	-282
LocalService	-283
throws	-284
Object	-285
urce	-286
ction	-287
Stat	-288
Persistence	-289
ass	-290
qu	-291
un	-292
Se	-293
comp	-294
Me	-295
commerce	-296
CP	-297
Pat	-298
to	-299
ilder	-300
Te	-301
Over	-302
Set	-303
Psi	-304
Ar	-305
stance	-306
sc	-307
ON	-308
Map	-309
Null	-310
ride	-311
La	-312
Context	-313
Override	-314
this	-315
ery	-316
Option	-317
Pa	-318
reate	-319
quest	-320
ity	-321
Col	-322
ire	-323
sult	-324
Entry	-325
atch	-326
per	-327
Or	-328
for	-329
po	-330
ser	-331
Qu	-332
Date	-333
onent	-334
tected	-335
protected	-336
sp	-337
fix	-338
test	-339
ow	-340
Defin	-341
roup	-342
add	-343
ner	-344
create	-345
Definition	-346
ial	-347
itor	-348
act	-349
ray	-350
This	-351
scri	-352
NotNull	-353
Of	-354
Fo	-355
ange	-356
ThisExpression	-357
fo	-358
Test	-359
put	-360
sh	-361
assert	-362
TI	-363
name	-364
For	-365
odel	-366
ting	-367
ext	-368
fig	-369
Node	-370
ackage	-371
che	-372
Pri	-373
JavaFile	-374
ime	-375
data	-376
RE	-377
Key	-378
ST	-379
find	-380
tt	-381
Path	-382
ct	-383
Builder	-384
Instance	-385
pla	-386
Sh	-387
Index	-388
fa	-389
tem	-390
source	-391
file	-392
Rel	-393
Query	-394
Count	-395
ub	-396
Man	-397
ure	-398
ME	-399
pert	-400
Param	-401
ase	-402
chStatement	-403
ma	-404
Access	-405
Action	-406
ator	-407
ith	-408
umn	-409
fixExpression	-410
Dis	-411
St	-412
ule	-413
value	-414
Data	-415
ager	-416
ribu	-417
andle	-418
XK	-419
Order	-420
==	-421
actory	-422
ly	-423
Request	-424
pa	-425
Int	-426
LE	-427
Forea	-428
ForeachStatement	-429
cp	-430
out	-431
Array	-432
ard	-433
stant	-434
irec	-435
Model	-436
mb	-437
Static	-438
type	-439
ip	-440
TE	-441
Manager	-442
yn	-443
ory	-444
irectory	-445
mo	-446
ribute	-447
ParamList	-448
read	-449
start	-450
Tr	-451
Lo	-452
PrefixExpression	-453
With	-454
ializ	-455
tern	-456
Fin	-457
!=	-458
ImportStatic	-459
Constant	-460
Config	-461
Directory	-462
he	-463
context	-464
Factory	-465
date	-466
igh	-467
siz	-468
ument	-469
ssage	-470
lection	-471
component	-472
qual	-473
arator	-474
OR	-475
tings	-476
Price	-477
node	-478
Time	-479
Enum	-480
til	-481
ror	-482
Project	-483
AR	-484
arch	-485
Propert	-486
vent	-487
Ad	-488
tent	-489
Group	-490
ByComp	-491
result	-492
dition	-493
index	-494
DE	-495
some	-496
action	-497
of	-498
ies	-499
AccessExpression	-500
Util	-501
Package	-502
Parent	-503
element	-504
Al	-505
ive	-506
someString	-507
EnumConstant	-508
spon	-509
Handle	-510
Info	-511
table	-512
sponse	-513
sol	-514
ile	-515
java	-516
tadata	-517
Try	-518
end	-519
project	-520
else	-521
log	-522
eck	-523
ection	-524
cur	-525
TryStatement	-526
nds	-527
ut	-528
ress	-529
AL	-530
Cast	-531
im	-532
Be	-533
ersion	-534
play	-535
Text	-536
ca	-537
col	-538
fset	-539
gin	-540
CO	-541
org	-542
dis	-543
key	-544
ecu	-545
ans	-546
ize	-547
Un	-548
AN	-549
&&	-550
arget	-551
En	-552
ByComparator	-553
Result	-554
CastExpression	-555
order	-556
am	-557
JavaDirectory	-558
vis	-559
met	-560
TION	-561
lter	-562
fault	-563
ist	-564
Lin	-565
SE	-566
Account	-567
da	-568
ree	-569
So	-570
uid	-571
scription	-572
method	-573
ImportList	-574
PackageStatement	-575
lus	-576
exte	-577
CPDefinition	-578
service	-579
Ta	-580
Condition	-581
Table	-582
ping	-583
ader	-584
findBy	-585
ste	-586
alse	-587
CE	-588
Column	-589
ateg	-590
imp	-591
scrip	-592
And	-593
itializ	-594
Cache	-595
rom	-596
tal	-597
Item	-598
NA	-599
red	-600
Er	-601
gth	-602
Imp	-603
bstr	-604
exp	-605
ask	-606
Size	-607
Att	-608
TypeParameter	-609
Error	-610
bstract	-611
Attribute	-612
unction	-613
any	-614
lable	-615
Settings	-616
Source	-617
AT	-618
quals	-619
Resource	-620
Finder	-621
User	-622
Add	-623
extends	-624
Le	-625
Log	-626
ific	-627
ken	-628
vid	-629
tain	-630
Doc	-631
TY	-632
false	-633
try	-634
Message	-635
Liste	-636
sition	-637
mbda	-638
fer	-639
lu	-640
ual	-641
ream	-642
Component	-643
Content	-644
nel	-645
lient	-646
reg	-647
om	-648
ash	-649
group	-650
Ed	-651
val	-652
uration	-653
Parenthe	-654
On	-655
session	-656
Handler	-657
sized	-658
Lambda	-659
vel	-660
Initializ	-661
Parenthesized	-662
scriptor	-663
anyId	-664
update	-665
Task	-666
Metadata	-667
luster	-668
ification	-669
rite	-670
nde	-671
pat	-672
vider	-673
annel	-674
Bean	-675
FI	-676
user	-677
Ser	-678
amic	-679
ynamic	-680
Collection	-681
NT	-682
Sub	-683
Poly	-684
Response	-685
Property	-686
Com	-687
LambdaExpression	-688
Reg	-689
ClassObject	-690
request	-691
adic	-692
list	-693
Nul	-694
true	-695
Listener	-696
adicExpression	-697
para	-698
LO	-699
ID	-700
NAME	-701
ind	-702
Up	-703
Oper	-704
OptionValue	-705
builder	-706
ook	-707
ool	-708
field	-709
parent	-710
late	-711
Nullable	-712
len	-713
rap	-714
move	-715
SI	-716
cope	-717
->	-718
Ap	-719
RO	-720
Discount	-721
ys	-722
state	-723
pec	-724
Version	-725
bel	-726
ord	-727
Ho	-728
let	-729
Offset	-730
Change	-731
AC	-732
wit	-733
display	-734
par	-735
nc	-736
All	-737
Address	-738
Function	-739
package	-740
No	-741
Initializer	-742
inter	-743
Byte	-744
Pattern	-745
Pair	-746
Channel	-747
Trans	-748
target	-749
check	-750
ForStatement	-751
Impl	-752
oot	-753
Module	-754
Stream	-755
rst	-756
Editor	-757
ight	-758
instance	-759
Search	-760
ynamicQuery	-761
use	-762
column	-763
ark	-764
Provider	-765
lend	-766
lendar	-767
RI	-768
Types	-769
sub	-770
Inter	-771
AS	-772
map	-773
Process	-774
InstanceOf	-775
uper	-776
Ma	-777
Par	-778
load	-779
query	-780
be	-781
lete	-782
expression	-783
Execu	-784
lin	-785
pos	-786
ttp	-787
form	-788
dent	-789
length	-790
displayDate	-791
ategory	-792
tch	-793
iration	-794
Session	-795
mod	-796
Label	-797
_0	-798
ctor	-799
pected	-800
Au	-801
rol	-802
min	-803
build	-804
Ship	-805
Exp	-806
Root	-807
At	-808
ING	-809
From	-810
su	-811
ty	-812
Tree	-813
Range	-814
mit	-815
Default	-816
Throw	-817
irationDate	-818
Out	-819
ffer	-820
implement	-821
current	-822
Uuid	-823
Filter	-824
Entity	-825
Swit	-826
Resol	-827
abstract	-828
Section	-829
mplate	-830
ValuePair	-831
sk	-832
expirationDate	-833
lder	-834
Row	-835
ck	-836
Icon	-837
process	-838
NameValuePair	-839
App	-840
cpDefinition	-841
gu	-842
Descriptor	-843
visit	-844
path	-845
gs	-846
Category	-847
Base	-848
fetch	-849
Token	-850
abled	-851
implements	-852
Line	-853
ql	-854
_1	-855
PriceList	-856
Catch	-857
tual	-858
Spec	-859
hile	-860
lected	-861
ErrorElement	-862
remove	-863
ber	-864
doc	-865
sion	-866
Configuration	-867
gg	-868
Per	-869
companyId	-870
CommerceOrder	-871
max	-872
MP	-873
instanceof	-874
CatchSection	-875
mary	-876
That	-877
TH	-878
ics	-879
PE	-880
Values	-881
expected	-882
config	-883
Sc	-884
resol	-885
Event	-886
ous	-887
Level	-888
ron	-889
ob	-890
Shard	-891
assertThat	-892
Long	-893
KE	-894
PsiElement	-895
CH	-896
istr	-897
mpty	-898
ces	-899
ncy	-900
LI	-901
riter	-902
CON	-903
Su	-904
write	-905
pende	-906
UR	-907
size	-908
editor	-909
Match	-910
do	-911
pt	-912
artition	-913
uct	-914
ouble	-915
gument	-916
att	-917
entity	-918
Client	-919
Pan	-920
Scope	-921
sto	-922
Operation	-923
ute	-924
attribute	-925
finder	-926
ft	-927
Pr	-928
ystem	-929
Switch	-930
CT	-931
Conn	-932
MA	-933
ms	-934
low	-935
Document	-936
groupId	-937
line	-938
Status	-939
are	-940
upp	-941
ortal	-942
UL	-943
Template	-944
IO	-945
super	-946
Dir	-947
||	-948
Child	-949
root	-950
Names	-951
Vis	-952
Ref	-953
reak	-954
Run	-955
Check	-956
Properties	-957
TER	-958
Equals	-959
Im	-960
ternal	-961
Position	-962
Output	-963
bil	-964
GE	-965
yout	-966
search	-967
getCommerce	-968
NO	-969
ated	-970
lect	-971
ace	-972
He	-973
place	-974
Update	-975
oin	-976
Stats	-977
Assert	-978
Cur	-979
Registr	-980
_2	-981
Vir	-982
Virtual	-983
Pla	-984
Vi	-985
one	-986
nap	-987
ound	-988
liste	-989
SwitchLabel	-990
Tax	-991
message	-992
model	-993
Start	-994
Us	-995
Hash	-996
equals	-997
positor	-998
next	-999
napsh	-1000
napshot	-1001
execu	-1002
has	-1003
pend	-1004
propert	-1005
rig	-1006
di	-1007
ke	-1008
Page	-1009
Enabled	-1010
Cluster	-1011
Num	-1012
chema	-1013
Input	-1014
ATE	-1015
Contain	-1016
Inte	-1017
DER	-1018
BLE	-1019
ggreg	-1020
clu	-1021
Get	-1022
filter	-1023
ded	-1024
IOException	-1025
View	-1026
Last	-1027
child	-1028
cket	-1029
Portal	-1030
quire	-1031
psi	-1032
yment	-1033
Asset	-1034
task	-1035
commerceOrder	-1036
Non	-1037
contain	-1038
back	-1039
itle	-1040
ThrowStatement	-1041
point	-1042
ml	-1043
COL	-1044
default	-1045
Transaction	-1046
ized	-1047
As	-1048
parameter	-1049
UM	-1050
ched	-1051
ust	-1052
lugin	-1053
OptionValueRel	-1054
face	-1055
bility	-1056
Gen	-1057
gment	-1058
Calendar	-1059
cle	-1060
Fa	-1061
CPInstance	-1062
Bytes	-1063
Http	-1064
Invent	-1065
Display	-1066
Unit	-1067
ock	-1068
response	-1069
module	-1070
Min	-1071
Inventory	-1072
ister	-1073
handle	-1074
version	-1075
ved	-1076
PortalException	-1077
leg	-1078
First	-1079
ector	-1080
atalog	-1081
offset	-1082
imal	-1083
reader	-1084
Options	-1085
listener	-1086
parse	-1087
valid	-1088
DI	-1089
Sto	-1090
stru	-1091
Ident	-1092
Usage	-1093
assertEquals	-1094
Panel	-1095
Empty	-1096
Integer	-1097
EL	-1098
CommerceAccount	-1099
ified	-1100
Mon	-1101
LOG	-1102
Gener	-1103
While	-1104
EN	-1105
ht	-1106
Ins	-1107
pers	-1108
rou	-1109
position	-1110
Read	-1111
oper	-1112
Layout	-1113
Book	-1114
fetchBy	-1115
andom	-1116
UN	-1117
FA	-1118
className	-1119
Parser	-1120
entry	-1121
Boolean	-1122
Mark	-1123
DynamicQuery	-1124
ighl	-1125
py	-1126
mand	-1127
mi	-1128
Da	-1129
Cont	-1130
last	-1131
Fix	-1132
Wrap	-1133
cluster	-1134
Target	-1135
change	-1136
Py	-1137
ClassName	-1138
uuid	-1139
own	-1140
tach	-1141
pository	-1142
WhileStatement	-1143
metadata	-1144
settings	-1145
ped	-1146
app	-1147
ATION	-1148
TypeTest	-1149
base	-1150
Attributes	-1151
bar	-1152
shard	-1153
serviceContext	-1154
son	-1155
Registry	-1156
Form	-1157
TypeTestPattern	-1158
Supp	-1159
myProject	-1160
VirtualFile	-1161
Link	-1162
Ro	-1163
Buffer	-1164
Mapping	-1165
guage	-1166
Iter	-1167
PA	-1168
selected	-1169
lose	-1170
EX	-1171
Mode	-1172
ature	-1173
ish	-1174
Specification	-1175
ho	-1176
ync	-1177
Depende	-1178
time	-1179
client	-1180
Number	-1181
TYPE	-1182
delete	-1183
lector	-1184
ArrayInitializer	-1185
nal	-1186
hash	-1187
System	-1188
ouse	-1189
KEY	-1190
foo	-1191
AD	-1192
very	-1193
by	-1194
Next	-1195
UT	-1196
ning	-1197
double	-1198
Logger	-1199
Shipment	-1200
ant	-1201
End	-1202
getPersistence	-1203
dic	-1204
run	-1205
finderPath	-1206
dec	-1207
CL	-1208
from	-1209
lob	-1210
fter	-1211
QL	-1212
Val	-1213
catch	-1214
Build	-1215
tachment	-1216
ide	-1217
ULT	-1218
block	-1219
Len	-1220
Argument	-1221
ref	-1222
info	-1223
ifact	-1224
old	-1225
PriceEntry	-1226
init	-1227
Abstract	-1228
conn	-1229
error	-1230
getName	-1231
nsion	-1232
Sp	-1233
document	-1234
ork	-1235
RA	-1236
Post	-1237
Description	-1238
lication	-1239
Ava	-1240
Avai	-1241
Files	-1242
Big	-1243
og	-1244
Find	-1245
ret	-1246
ization	-1247
UP	-1248
item	-1249
maryKey	-1250
Subscription	-1251
cs	-1252
lit	-1253
Processor	-1254
append	-1255
mory	-1256
Ids	-1257
Attachment	-1258
stim	-1259
SER	-1260
Color	-1261
Decimal	-1262
ale	-1263
ren	-1264
ear	-1265
ible	-1266
left	-1267
property	-1268
sent	-1269
location	-1270
Reader	-1271
word	-1272
UE	-1273
Break	-1274
++	-1275
output	-1276
Aggreg	-1277
Container	-1278
resolve	-1279
space	-1280
Join	-1281
FIN	-1282
byte	-1283
code	-1284
option	-1285
total	-1286
ym	-1287
Ter	-1288
utable	-1289
au	-1290
content	-1291
trans	-1292
FAULT	-1293
XContent	-1294
DEFAULT	-1295
Valid	-1296
input	-1297
main	-1298
SION	-1299
ynch	-1300
Day	-1301
lat	-1302
ustom	-1303
Tool	-1304
ler	-1305
VER	-1306
ther	-1307
Tag	-1308
ne	-1309
Length	-1310
Notification	-1311
right	-1312
ynchron	-1313
AssertStatement	-1314
licy	-1315
dynamicQuery	-1316
Snapshot	-1317
case	-1318
bo	-1319
toString	-1320
Write	-1321
ls	-1322
sumer	-1323
Auth	-1324
statement	-1325
token	-1326
plo	-1327
fore	-1328
FileEntry	-1329
PAR	-1330
vlet	-1331
Thread	-1332
br	-1333
Optional	-1334
Fields	-1335
BU	-1336
range	-1337
pup	-1338
Create	-1339
mote	-1340
ortlet	-1341
anch	-1342
CommerceDiscount	-1343
TA	-1344
onym	-1345
gener	-1346
first	-1347
clude	-1348
status	-1349
Month	-1350
MENT	-1351
Hel	-1352
istics	-1353
call	-1354
SQL	-1355
Simp	-1356
BeanReference	-1357
ries	-1358
Shipping	-1359
ba	-1360
PRO	-1361
onymous	-1362
cache	-1363
Identifier	-1364
Is	-1365
ond	-1366
ansp	-1367
match	-1368
VAL	-1369
indow	-1370
DO	-1371
Loader	-1372
Plugin	-1373
Estim	-1374
We	-1375
Mult	-1376
values	-1377
oduct	-1378
cpInstance	-1379
Point	-1380
interface	-1381
Sec	-1382
Case	-1383
store	-1384
Pool	-1385
Role	-1386
bug	-1387
gress	-1388
COLUM	-1389
Partition	-1390
COLUMN	-1391
Resolver	-1392
PRE	-1393
ody	-1394
ansport	-1395
random	-1396
Booking	-1397
Anonymous	-1398
fs	-1399
GroupId	-1400
ELD	-1401
recur	-1402
Lan	-1403
ilure	-1404
OP	-1405
Catalog	-1406
cent	-1407
object	-1408
ASS	-1409
Format	-1410
Year	-1411
SS	-1412
parser	-1413
FIELD	-1414
Store	-1415
lability	-1416
Minute	-1417
Hour	-1418
Execution	-1419
mark	-1420
Highl	-1421
Rec	-1422
dk	-1423
led	-1424
asset	-1425
Such	-1426
userId	-1427
Executor	-1428
Simple	-1429
IG	-1430
ical	-1431
NoSuch	-1432
sec	-1433
idth	-1434
calendar	-1435
event	-1436
Schema	-1437
Max	-1438
require	-1439
baz	-1440
BigDecimal	-1441
Plan	-1442
Char	-1443
Memory	-1444
Estimate	-1445
Current	-1446
execute	-1447
ookup	-1448
Ali	-1449
Gr	-1450
Selection	-1451
Serializ	-1452
ChannelRel	-1453
AnonymousClass	-1454
pen	-1455
Control	-1456
inal	-1457
SH	-1458
other	-1459
Ori	-1460
local	-1461
Ur	-1462
Parameters	-1463
OptionRel	-1464
ClassInitializer	-1465
xy	-1466
buffer	-1467
description	-1468
Language	-1469
dot	-1470
arning	-1471
letion	-1472
Objects	-1473
MethodReference	-1474
resource	-1475
mon	-1476
LA	-1477
URL	-1478
view	-1479
UID	-1480
INT	-1481
variable	-1482
Server	-1483
MO	-1484
Gray	-1485
zz	-1486
Only	-1487
Origin	-1488
http	-1489
man	-1490
Xml	-1491
register	-1492
we	-1493
rail	-1494
actor	-1495
rer	-1496
roll	-1497
Marker	-1498
resh	-1499
External	-1500
orig	-1501
ynchronized	-1502
Rule	-1503
Wrapper	-1504
tree	-1505
Art	-1506
ndle	-1507
Servlet	-1508
inc	-1509
Internal	-1510
Helper	-1511
ED	-1512
ia	-1513
ategy	-1514
Exte	-1515
ReferenceCode	-1516
scope	-1517
now	-1518
sql	-1519
Ste	-1520
rame	-1521
level	-1522
ployment	-1523
orted	-1524
Bucket	-1525
mutable	-1526
Step	-1527
format	-1528
legate	-1529
ven	-1530
TaxCategory	-1531
title	-1532
Connection	-1533
Sql	-1534
Url	-1535
ite	-1536
UUID	-1537
partition	-1538
Visitor	-1539
Json	-1540
guard	-1541
Image	-1542
args	-1543
bean	-1544
lier	-1545
IT	-1546
Region	-1547
reference	-1548
Track	-1549
ally	-1550
commerceAccount	-1551
Consumer	-1552
sb	-1553
STAN	-1554
Command	-1555
GroupRel	-1556
ingClass	-1557
Availability	-1558
not	-1559
TR	-1560
tract	-1561
stamp	-1562
Writer	-1563
job	-1564
aly	-1565
external	-1566
Rep	-1567
TIME	-1568
with	-1569
lice	-1570
Dif	-1571
CPOption	-1572
descriptor	-1573
recursion	-1574
ragment	-1575
Setting	-1576
Nodes	-1577
factory	-1578
ations	-1579
Window	-1580
logger	-1581
Country	-1582
Iterator	-1583
CLASS	-1584
itu	-1585
round	-1586
SET	-1587
covery	-1588
FINDER	-1589
findByUuid	-1590
Sign	-1591
isted	-1592
Do	-1593
ingle	-1594
Artifact	-1595
op	-1596
Mo	-1597
aders	-1598
vious	-1599
Immutable	-1600
char	-1601
ill	-1602
options	-1603
ounds	-1604
My	-1605
SO	-1606
Parse	-1607
contains	-1608
PrimaryKey	-1609
ONE	-1610
getInstance	-1611
replace	-1612
Delete	-1613
Connector	-1614
TO	-1615
Progress	-1616
PO	-1617
raille	-1618
braille	-1619
url	-1620
setCommerce	-1621
ify	-1622
Repository	-1623
Entries	-1624
thread	-1625
structor	-1626
lation	-1627
PsiClass	-1628
chedule	-1629
MPTY	-1630
clear	-1631
annotation	-1632
nderer	-1633
EMPTY	-1634
Auto	-1635
Original	-1636
aClass	-1637
iter	-1638
STR	-1639
uture	-1640
iction	-1641
nore	-1642
apply	-1643
dots	-1644
nable	-1645
Prev	-1646
Scri	-1647
sa	-1648
Dependency	-1649
Folder	-1650
nder	-1651
Lock	-1652
Que	-1653
active	-1654
string	-1655
unk	-1656
lobal	-1657
ll	-1658
Use	-1659
Part	-1660
Pos	-1661
VE	-1662
Policy	-1663
show	-1664
mber	-1665
Meta	-1666
Strategy	-1667
ier	-1668
handler	-1669
mount	-1670
Selected	-1671
Script	-1672
commerceDiscount	-1673
Application	-1674
BO	-1675
_3	-1676
MAX	-1677
ative	-1678
::	-1679
Holder	-1680
CTION	-1681
Indi	-1682
vision	-1683
sTo	-1684
EntryId	-1685
dicate	-1686
ableDynamicQuery	-1687
stitu	-1688
Vcs	-1689
Queue	-1690
page	-1691
close	-1692
ialog	-1693
Supplier	-1694
Indices	-1695
Split	-1696
Custom	-1697
attributes	-1698
Failure	-1699
ps	-1700
Mapper	-1701
yle	-1702
prec	-1703
Statistics	-1704
PER	-1705
pattern	-1706
Collections	-1707
cu	-1708
istedModel	-1709
Operator	-1710
function	-1711
Proxy	-1712
Act	-1713
Bundle	-1714
original	-1715
IL	-1716
True	-1717
quence	-1718
bucket	-1719
getService	-1720
exception	-1721
Ob	-1722
Children	-1723
cheme	-1724
Mer	-1725
raph	-1726
brary	-1727
Amount	-1728
Commit	-1729
Back	-1730
Utils	-1731
array	-1732
iled	-1733
tton	-1734
asure	-1735
ycle	-1736
Job	-1737
rid	-1738
viron	-1739
jection	-1740
Bind	-1741
HE	-1742
COM	-1743
After	-1744
Actions	-1745
TRI	-1746
while	-1747
stra	-1748
Title	-1749
STANCE	-1750
Elements	-1751
vironment	-1752
Remote	-1753
copy	-1754
ont	-1755
ol	-1756
Renderer	-1757
ClusterState	-1758
actual	-1759
BreakStatement	-1760
tom	-1761
ins	-1762
INSTANCE	-1763
Columns	-1764
PsiMethod	-1765
Transport	-1766
can	-1767
configuration	-1768
previous	-1769
ParameterTypes	-1770
gine	-1771
its	-1772
VALUE	-1773
PAT	-1774
section	-1775
Cap	-1776
validate	-1777
AndNext	-1778
house	-1779
PrevAndNext	-1780
CalendarBooking	-1781
Maven	-1782
Present	-1783
ctx	-1784
Conver	-1785
Tracker	-1786
entic	-1787
arehouse	-1788
Rou	-1789
ged	-1790
stream	-1791
straint	-1792
Measure	-1793
Warehouse	-1794
Prefix	-1795
argument	-1796
Aggregation	-1797
TOR	-1798
gest	-1799
Args	-1800
incip	-1801
incipal	-1802
Super	-1803
Sa	-1804
ByCompanyId	-1805
Measurement	-1806
Diff	-1807
enter	-1808
press	-1809
parameters	-1810
Percent	-1811
ModelNode	-1812
Tests	-1813
ES	-1814
params	-1815
ByUuid	-1816
operation	-1817
schema	-1818
pection	-1819
Br	-1820
Comment	-1821
wrap	-1822
auth	-1823
MeasurementUnit	-1824
Style	-1825
ging	-1826
PK	-1827
condition	-1828
Struct	-1829
PsiFile	-1830
second	-1831
Extension	-1832
GRO	-1833
rep	-1834
BY	-1835
andid	-1836
andidate	-1837
Header	-1838
Down	-1839
UNT	-1840
Payment	-1841
ph	-1842
Frame	-1843
10	-1844
av	-1845
DisplayLayout	-1846
Nls	-1847
FOR	-1848
urity	-1849
access	-1850
ncies	-1851
ferred	-1852
Tab	-1853
ship	-1854
QU	-1855
isEmpty	-1856
COUNT	-1857
FinderCache	-1858
Work	-1859
Timeout	-1860
uce	-1861
account	-1862
Enc	-1863
voke	-1864
Double	-1865
Callback	-1866
cep	-1867
ACTION	-1868
processor	-1869
Keys	-1870
break	-1871
getCPDefinition	-1872
PsiType	-1873
Dialog	-1874
findByC	-1875
Branch	-1876
mission	-1877
lish	-1878
Show	-1879
exit	-1880
our	-1881
rency	-1882
BUTE	-1883
PersistedModel	-1884
Fixed	-1885
ners	-1886
Web	-1887
tag	-1888
Close	-1889
Methods	-1890
ait	-1891
NE	-1892
Lookup	-1893
repository	-1894
ALL	-1895
work	-1896
hashCode	-1897
Shards	-1898
Obj	-1899
Implement	-1900
gination	-1901
Tasks	-1902
Before	-1903
Single	-1904
getCP	-1905
dir	-1906
cont	-1907
finally	-1908
Button	-1909
ML	-1910
Debug	-1911
writer	-1912
entityManager	-1913
ATTRI	-1914
NonNull	-1915
desc	-1916
ATTRIBUTE	-1917
ffe	-1918
ArrayList	-1919
Hist	-1920
join	-1921
struction	-1922
address	-1923
lay	-1924
Scroll	-1925
Results	-1926
Ne	-1927
getUser	-1928
ShippingMethod	-1929
tail	-1930
CA	-1931
PsiExpression	-1932
assertTrue	-1933
_4	-1934
Copy	-1935
ali	-1936
mapping	-1937
Pass	-1938
delegate	-1939
Caret	-1940
istent	-1941
Sequence	-1942
Popup	-1943
Resolve	-1944
Changes	-1945
body	-1946
JB	-1947
Fragment	-1948
Predicate	-1949
Pagination	-1950
ShipmentItem	-1951
after	-1952
Highligh	-1953
URI	-1954
cept	-1955
ncel	-1956
MAP	-1957
WI	-1958
Inspection	-1959
NONE	-1960
Mock	-1961
Multi	-1962
Selector	-1963
Routing	-1964
valu	-1965
COMP	-1966
Qual	-1967
alyz	-1968
BIG	-1969
generate	-1970
Portlet	-1971
Principal	-1972
conver	-1973
ng	-1974
Scheme	-1975
Deprec	-1976
LIN	-1977
PsiBuilder	-1978
dp	-1979
striction	-1980
Constructor	-1981
depende	-1982
LogMessage	-1983
prepa	-1984
isting	-1985
tableName	-1986
VI	-1987
stitutor	-1988
serializ	-1989
Batch	-1990
Ow	-1991
Without	-1992
ker	-1993
TestCase	-1994
Alias	-1995
sure	-1996
roduct	-1997
Wh	-1998
mple	-1999
files	-2000
snapshot	-2001
ell	-2002
Limit	-2003
SU	-2004
getType	-2005
ices	-2006
GER	-2007
os	-2008
system	-2009
requireNonNull	-2010
getValue	-2011
Location	-2012
Signature	-2013
Classes	-2014
Getter	-2015
One	-2016
Foc	-2017
findAll	-2018
THO	-2019
INDE	-2020
Expire	-2021
patch	-2022
AGE	-2023
Compile	-2024
collection	-2025
ases	-2026
ain	-2027
script	-2028
NOT	-2029
param	-2030
Ge	-2031
Hint	-2032
discount	-2033
connector	-2034
PaginationFind	-2035
Generator	-2036
Runnable	-2037
Extr	-2038
BIGINT	-2039
Changed	-2040
Collector	-2041
FILE	-2042
ox	-2043
Fet	-2044
Future	-2045
Percentage	-2046
Record	-2047
ElementType	-2048
indices	-2049
sEntry	-2050
temp	-2051
bytes	-2052
ould	-2053
Params	-2054
Ig	-2055
AND	-2056
portlet	-2057
width	-2058
af	-2059
dest	-2060
initial	-2061
Deployment	-2062
ServletRequest	-2063
Locale	-2064
ENTI	-2065
clusterState	-2066
Term	-2067
popup	-2068
ested	-2069
types	-2070
SC	-2071
Engine	-2072
qualTo	-2073
SSION	-2074
Binding	-2075
Load	-2076
Graph	-2077
Completion	-2078
DateTime	-2079
Pric	-2080
TING	-2081
Ph	-2082
Domain	-2083
Revision	-2084
initializ	-2085
command	-2086
synchronized	-2087
PriceModifier	-2088
LIST	-2089
Named	-2090
Var	-2091
TED	-2092
empty	-2093
useFinderCache	-2094
Environment	-2095
men	-2096
llow	-2097
lush	-2098
Fetch	-2099
ian	-2100
ResourceList	-2101
ServiceContext	-2102
ByC	-2103
LOC	-2104
cpOption	-2105
AM	-2106
loat	-2107
ListEntry	-2108
HashMap	-2109
Counter	-2110
Variables	-2111
Slice	-2112
uple	-2113
STRING	-2114
ority	-2115
Product	-2116
sole	-2117
plan	-2118
pair	-2119
illis	-2120
site	-2121
termin	-2122
cfs	-2123
part	-2124
Require	-2125
Open	-2126
Library	-2127
Restriction	-2128
holder	-2129
Atom	-2130
ulk	-2131
Items	-2132
bounds	-2133
Matches	-2134
Structure	-2135
adle	-2136
Pub	-2137
sort	-2138
VAR	-2139
Cre	-2140
collect	-2141
ccess	-2142
Spa	-2143
Currency	-2144
down	-2145
bound	-2146
db	-2147
Warning	-2148
GROUP	-2149
PriceListId	-2150
Atomic	-2151
ine	-2152
combo	-2153
Replace	-2154
Timestamp	-2155
ach	-2156
sign	-2157
include	-2158
plugin	-2159
ick	-2160
AV	-2161
Permission	-2162
+=	-2163
Constraint	-2164
nota	-2165
ActionListener	-2166
shipping	-2167
COMM	-2168
izer	-2169
Async	-2170
properties	-2171
setCP	-2172
cla	-2173
wow	-2174
Converter	-2175
Select	-2176
Short	-2177
Sdk	-2178
Proble	-2179
enum	-2180
JE	-2181
invoke	-2182
raw	-2183
height	-2184
OL	-2185
wwow	-2186
sing	-2187
Visible	-2188
Tier	-2189
transaction	-2190
Expand	-2191
prepare	-2192
cre	-2193
ipe	-2194
prefix	-2195
catalog	-2196
Can	-2197
AP	-2198
bind	-2199
Paths	-2200
connection	-2201
untime	-2202
alcu	-2203
MI	-2204
OriginalValues	-2205
Box	-2206
Font	-2207
Width	-2208
template	-2209
Global	-2210
rop	-2211
limi	-2212
Modified	-2213
iterator	-2214
Bit	-2215
Sync	-2216
Pointer	-2217
ceptor	-2218
Top	-2219
antity	-2220
displayDateMonth	-2221
PricingClass	-2222
displayDateDay	-2223
supp	-2224
Body	-2225
getProject	-2226
displayDateHour	-2227
alm	-2228
print	-2229
HT	-2230
Host	-2231
getId	-2232
INDEX	-2233
posable	-2234
apter	-2235
Schedule	-2236
Init	-2237
riteria	-2238
ClassLoader	-2239
ocket	-2240
ORE	-2241
allow	-2242
entication	-2243
her	-2244
Functions	-2245
Fold	-2246
Arrays	-2247
CHAR	-2248
owner	-2249
combolist	-2250
JS	-2251
ENTITY	-2252
ignore	-2253
TABLE	-2254
FIX	-2255
WOR	-2256
resolved	-2257
Merge	-2258
ang	-2259
lan	-2260
Member	-2261
Note	-2262
displayDateYear	-2263
Docs	-2264
aggreg	-2265
Cell	-2266
vers	-2267
never	-2268
BuilderApp	-2269
role	-2270
split	-2271
select	-2272
anization	-2273
SETTING	-2274
ariant	-2275
SwitchStatement	-2276
Literal	-2277
pose	-2278
myEditor	-2279
Life	-2280
Runner	-2281
lative	-2282
life	-2283
debug	-2284
urable	-2285
licit	-2286
Highlight	-2287
Deprecated	-2288
Millis	-2289
vy	-2290
DL	-2291
subscription	-2292
voc	-2293
ground	-2294
ORT	-2295
before	-2296
dit	-2297
VERSION	-2298
AccountRel	-2299
Pages	-2300
ination	-2301
UserId	-2302
Focus	-2303
sum	-2304
Dependencies	-2305
ram	-2306
RAY	-2307
Allow	-2308
neverExpire	-2309
THOD	-2310
METHOD	-2311
Hive	-2312
MIN	-2313
Transactional	-2314
OUT	-2315
PATH	-2316
words	-2317
Segment	-2318
Accessor	-2319
Matcher	-2320
commerceChannel	-2321
descr	-2322
ts	-2323
Metr	-2324
ling	-2325
Mouse	-2326
CommerceAddress	-2327
Native	-2328
ResourceVariable	-2329
XT	-2330
host	-2331
latile	-2332
SPA	-2333
accept	-2334
meta	-2335
Active	-2336
json	-2337
Manage	-2338
open	-2339
tool	-2340
ssing	-2341
javax	-2342
Git	-2343
cycle	-2344
ATA	-2345
top	-2346
lator	-2347
Right	-2348
Serializable	-2349
sWith	-2350
tang	-2351
highl	-2352
oder	-2353
warning	-2354
getText	-2355
Tra	-2356
compare	-2357
Controller	-2358
commit	-2359
Rest	-2360
ARRAY	-2361
artifact	-2362
threadPool	-2363
STA	-2364
getParent	-2365
Port	-2366
ALI	-2367
Support	-2368
TEXT	-2369
Ord	-2370
Mi	-2371
XML	-2372
AssetEntry	-2373
osite	-2374
ParseField	-2375
SPACE	-2376
provider	-2377
ges	-2378
volatile	-2379
ACK	-2380
tangle	-2381
Watch	-2382
WITH	-2383
Random	-2384
methodHandler	-2385
core	-2386
lex	-2387
Indexable	-2388
FinderPath	-2389
oding	-2390
imum	-2391
manager	-2392
alias	-2393
should	-2394
Owner	-2395
Throwable	-2396
nodes	-2397
stats	-2398
container	-2399
gr	-2400
Common	-2401
Bound	-2402
Move	-2403
PARSER	-2404
CPOptionCategory	-2405
Fe	-2406
Stack	-2407
Pane	-2408
Left	-2409
DATE	-2410
cum	-2411
parator	-2412
Indent	-2413
ptim	-2414
LINE	-2415
TierPriceEntry	-2416
channel	-2417
NABLE	-2418
icon	-2419
ASK	-2420
Sort	-2421
paint	-2422
Headers	-2423
Arguments	-2424
Synchronized	-2425
flow	-2426
InputStream	-2427
custom	-2428
header	-2429
Usages	-2430
psiClass	-2431
remote	-2432
fields	-2433
Highlighter	-2434
leted	-2435
Geo	-2436
aster	-2437
UI	-2438
OF	-2439
AVA	-2440
inue	-2441
aw	-2442
getKey	-2443
orm	-2444
Transform	-2445
Temp	-2446
vile	-2447
headers	-2448
arg	-2449
language	-2450
toc	-2451
pack	-2452
Stor	-2453
JECT	-2454
med	-2455
getClass	-2456
""	-2457
elements	-2458
Interval	-2459
Aw	-2460
nown	-2461
alys	-2462
comment	-2463
alysis	-2464
Security	-2465
ENABLE	-2466
FieldName	-2467
pect	-2468
Remove	-2469
rc	-2470
Storage	-2471
jobId	-2472
Sm	-2473
Filters	-2474
expr	-2475
mask	-2476
OB	-2477
primary	-2478
flic	-2479
startOffset	-2480
commerceAddress	-2481
classPK	-2482
Di	-2483
used	-2484
Rate	-2485
river	-2486
usage	-2487
primaryKey	-2488
server	-2489
URCE	-2490
Second	-2491
>=	-2492
sl	-2493
SST	-2494
US	-2495
livery	-2496
setCPDefinition	-2497
TEST	-2498
lookup	-2499
myFile	-2500
12	-2501
mock	-2502
feed	-2503
persistence	-2504
Comb	-2505
qualifier	-2506
Adapter	-2507
commerceCountry	-2508
ie	-2509
Preferred	-2510
Sy	-2511
Interface	-2512
Org	-2513
lead	-2514
Roots	-2515
children	-2516
Rectangle	-2517
SSTable	-2518
ferences	-2519
MAT	-2520
finderArgs	-2521
Stand	-2522
Expr	-2523
ep	-2524
Vo	-2525
USE	-2526
ution	-2527
TIC	-2528
Console	-2529
ten	-2530
swit	-2531
results	-2532
executor	-2533
number	-2534
FER	-2535
io	-2536
verify	-2537
indexName	-2538
Discovery	-2539
JSON	-2540
deployment	-2541
DataSize	-2542
CPAttachment	-2543
ced	-2544
ORDER	-2545
Insert	-2546
operator	-2547
ENT	-2548
Sha	-2549
cast	-2550
sstable	-2551
ities	-2552
Constants	-2553
Disposable	-2554
Gro	-2555
zy	-2556
SELE	-2557
Dist	-2558
DS	-2559
The	-2560
BE	-2561
JAVA	-2562
link	-2563
legal	-2564
clazz	-2565
leton	-2566
orre	-2567
tocol	-2568
inner	-2569
cpTaxCategory	-2570
Runtime	-2571
policy	-2572
Organization	-2573
rec	-2574
Total	-2575
propertyName	-2576
Failed	-2577
tails	-2578
ists	-2579
Analyz	-2580
Invalid	-2581
Multip	-2582
getFile	-2583
MetaData	-2584
ab	-2585
returnObj	-2586
Cached	-2587
transport	-2588
ByteBuffer	-2589
LEMENT	-2590
..	-2591
ifiable	-2592
fieldName	-2593
ique	-2594
configure	-2595
convert	-2596
caret	-2597
ffix	-2598
Quantity	-2599
Checker	-2600
avig	-2601
ATOR	-2602
...	-2603
BOO	-2604
Publish	-2605
Allocation	-2606
jected	-2607
oRow	-2608
Setter	-2609
Profile	-2610
Standard	-2611
Aware	-2612
Available	-2613
defin	-2614
gra	-2615
CPTaxCategory	-2616
INTER	-2617
ormal	-2618
getRe	-2619
discountLevel	-2620
ision	-2621
Problem	-2622
Cancel	-2623
Sup	-2624
merge	-2625
Socket	-2626
lip	-2627
trace	-2628
pan	-2629
Same	-2630
Background	-2631
pass	-2632
countBy	-2633
sor	-2634
cluded	-2635
Sk	-2636
JsonProperty	-2637
CI	-2638
sCount	-2639
notated	-2640
Compiler	-2641
Audit	-2642
calendarBooking	-2643
lica	-2644
switch	-2645
xture	-2646
extract	-2647
classname	-2648
Evalu	-2649
shardId	-2650
ath	-2651
existing	-2652
Il	-2653
PercentageLevel	-2654
candidate	-2655
Kind	-2656
Ide	-2657
Illegal	-2658
SP	-2659
ating	-2660
ImmutableList	-2661
Fla	-2662
Api	-2663
cpAttachment	-2664
Listeners	-2665
Comparator	-2666
WN	-2667
CHE	-2668
Substitutor	-2669
schedule	-2670
TableName	-2671
TextAttributes	-2672
JComponent	-2673
imer	-2674
rs	-2675
CompanyId	-2676
ift	-2677
vir	-2678
Cy	-2679
WORD	-2680
getModel	-2681
Void	-2682
virtual	-2683
connectorId	-2684
23	-2685
LEAN	-2686
oduce	-2687
statistics	-2688
ovy	-2689
Concurrent	-2690
findMatches	-2691
aded	-2692
non	-2693
AssetListEntry	-2694
Instruction	-2695
ENABLED	-2696
over	-2697
queue	-2698
nse	-2699
nate	-2700
SOURCE	-2701
visitor	-2702
ipeline	-2703
skip	-2704
vocation	-2705
TaxAmount	-2706
wh	-2707
CEP	-2708
Persistent	-2709
methodKey	-2710
selection	-2711
Privile	-2712
Inner	-2713
Qualified	-2714
irect	-2715
tx	-2716
ELEMENT	-2717
priority	-2718
Side	-2719
lap	-2720
Implementor	-2721
findMatchesCount	-2722
war	-2723
OT	-2724
card	-2725
NonNls	-2726
Expected	-2727
Termin	-2728
Found	-2729
STATE	-2730
Composite	-2731
iber	-2732
em	-2733
Serializer	-2734
Chunk	-2735
Hang	-2736
sume	-2737
findByG	-2738
Op	-2739
Configurable	-2740
umer	-2741
enabled	-2742
ibernate	-2743
cl	-2744
Interceptor	-2745
oop	-2746
Mappings	-2747
Presentation	-2748
Bi	-2749
Stub	-2750
Hangul	-2751
stop	-2752
pth	-2753
bin	-2754
ordin	-2755
BOOLEAN	-2756
Many	-2757
Ignore	-2758
locale	-2759
Tuple	-2760
finderPathCount	-2761
Follow	-2762
Place	-2763
Fixture	-2764
StringBuilder	-2765
WithTaxAmount	-2766
Dom	-2767
ance	-2768
SY	-2769
keyspace	-2770
Lines	-2771
AST	-2772
ily	-2773
dbc	-2774
ogram	-2775
tab	-2776
iva	-2777
getData	-2778
classNameId	-2779
prev	-2780
mult	-2781
BYTE	-2782
Dynamic	-2783
PlanNode	-2784
CAC	-2785
OS	-2786
cap	-2787
ABLE	-2788
returnValue	-2789
Alloc	-2790
layout	-2791
sive	-2792
accessor	-2793
Preferences	-2794
ffect	-2795
present	-2796
timestamp	-2797
database	-2798
FT	-2799
PREFIX	-2800
cpDefinitionId	-2801
cut	-2802
ect	-2803
Space	-2804
IElementType	-2805
Gradle	-2806
Required	-2807
pr	-2808
ril	-2809
InBytes	-2810
DOU	-2811
nored	-2812
DOUBLE	-2813
that	-2814
rillic	-2815
save	-2816
columns	-2817
Cyrillic	-2818
CollectionId	-2819
Ver	-2820
Encoding	-2821
Safe	-2822
Iterable	-2823
PARE	-2824
LIC	-2825
11	-2826
Phase	-2827
tered	-2828
enc	-2829
stall	-2830
Validator	-2831
acy	-2832
actionRequest	-2833
Delegate	-2834
member	-2835
getColumn	-2836
DATA	-2837
Primary	-2838
Operations	-2839
findByCompanyId	-2840
modifier	-2841
Groovy	-2842
Feature	-2843
ReadOnly	-2844
commerceCatalog	-2845
Annotations	-2846
refresh	-2847
TIVE	-2848
PROPER	-2849
myModule	-2850
Leaf	-2851
FieldType	-2852
Ranges	-2853
ict	-2854
Codec	-2855
AnAction	-2856
Bounds	-2857
endOffset	-2858
False	-2859
anchor	-2860
ULE	-2861
setup	-2862
AppBuilderApp	-2863
Warnings	-2864
Sources	-2865
clusterService	-2866
TestUtil	-2867
short	-2868
Infos	-2869
Bitmask	-2870
Chain	-2871
licate	-2872
reset	-2873
Variant	-2874
rigger	-2875
Endpoint	-2876
umb	-2877
removeBy	-2878
directory	-2879
ention	-2880
CommerceCountry	-2881
expand	-2882
ak	-2883
FAC	-2884
Resolution	-2885
commerceCurrency	-2886
global	-2887
ERR	-2888
identity	-2889
startTime	-2890
Nested	-2891
psiFile	-2892
Nan	-2893
price	-2894
stor	-2895
Dest	-2896
Full	-2897
force	-2898
CProduct	-2899
imension	-2900
xml	-2901
lta	-2902
internal	-2903
NUM	-2904
Cla	-2905
counter	-2906
getDefault	-2907
spec	-2908
Suppress	-2909
Ab	-2910
Indic	-2911
insert	-2912
myCurrent	-2913
fla	-2914
fetchByC	-2915
dependency	-2916
TextRange	-2917
isIn	-2918
mapper	-2919
<=	-2920
DEN	-2921
orter	-2922
ARY	-2923
Checkpoint	-2924
ai	-2925
Border	-2926
myIs	-2927
ggest	-2928
uri	-2929
asic	-2930
CommerceChannel	-2931
ok	-2932
BaseParser	-2933
rule	-2934
liferay	-2935
Allowed	-2936
Rows	-2937
Candidate	-2938
ltered	-2939
Contract	-2940
equalTo	-2941
reshold	-2942
etwe	-2943
etween	-2944
named	-2945
getAttribute	-2946
Recur	-2947
upon	-2948
Duration	-2949
Indicator	-2950
20	-2951
100	-2952
float	-2953
ERROR	-2954
nded	-2955
metry	-2956
modified	-2957
Optim	-2958
failure	-2959
Lifecycle	-2960
sted	-2961
uponCode	-2962
Validation	-2963
Refresh	-2964
extension	-2965
losure	-2966
iv	-2967
commerceShipment	-2968
sku	-2969
Blog	-2970
resolver	-2971
finish	-2972
History	-2973
lease	-2974
Aliases	-2975
arted	-2976
compute	-2977
Injection	-2978
ason	-2979
UND	-2980
ADD	-2981
READ	-2982
Scan	-2983
Debugger	-2984
ServiceReference	-2985
Export	-2986
Factor	-2987
UserRel	-2988
limitation	-2989
itive	-2990
HashSet	-2991
Localization	-2992
CACHE	-2993
sed	-2994
SQLException	-2995
finderPathWith	-2996
STAR	-2997
CommerceCatalog	-2998
When	-2999
res	-3000
ARD	-3001
Identity	-3002
obj	-3003
commerceOrderId	-3004
Bar	-3005
Patch	-3006
AccountEntry	-3007
GET	-3008
virtualFile	-3009
allocation	-3010
matcher	-3011
Drop	-3012
formed	-3013
setUser	-3014
names	-3015
Positions	-3016
IndexMetadata	-3017
compile	-3018
CPDisplayLayout	-3019
GIN	-3020
TERN	-3021
24	-3022
Fam	-3023
13	-3024
doTest	-3025
getCommerceOrder	-3026
arac	-3027
FACTOR	-3028
aracter	-3029
batch	-3030
decla	-3031
weight	-3032
medi	-3033
Dete	-3034
opc	-3035
wait	-3036
timeout	-3037
buf	-3038
ful	-3039
isE	-3040
Armen	-3041
Armenian	-3042
ULL	-3043
Generic	-3044
Terms	-3045
den	-3046
acity	-3047
fragment	-3048
Separator	-3049
Hibernate	-3050
Persister	-3051
StartOffset	-3052
ited	-3053
serialize	-3054
positories	-3055
tention	-3056
LAN	-3057
Height	-3058
ANGE	-3059
Initialized	-3060
14	-3061
ChangeList	-3062
transform	-3063
mbol	-3064
CommerceShipment	-3065
perform	-3066
PRI	-3067
uplicate	-3068
quested	-3069
myTree	-3070
VARCHAR	-3071
post	-3072
exchange	-3073
QUE	-3074
SECON	-3075
filterFind	-3076
FileType	-3077
EP	-3078
Missing	-3079
TRAN	-3080
stanti	-3081
Formatter	-3082
ink	-3083
Breakpoint	-3084
Details	-3085
assetEntry	-3086
Finish	-3087
Powwow	-3088
MASK	-3089
less	-3090
Intention	-3091
manage	-3092
dd	-3093
Bulk	-3094
SCRI	-3095
HI	-3096
Services	-3097
qNo	-3098
rows	-3099
CONNE	-3100
arguments	-3101
Annotated	-3102
FIL	-3103
CRE	-3104
Word	-3105
tform	-3106
vm	-3107
Stop	-3108
CTOR	-3109
cProduct	-3110
ributor	-3111
Roles	-3112
Oc	-3113
UST	-3114
track	-3115
LinkPersistence	-3116
DataSource	-3117
Red	-3118
sy	-3119
Home	-3120
oci	-3121
Realm	-3122
cc	-3123
icator	-3124
chunk	-3125
Family	-3126
Requests	-3127
httpPrincipal	-3128
WithDynamicQuery	-3129
ade	-3130
Lazy	-3131
jb	-3132
persist	-3133
tri	-3134
LinkLocalService	-3135
Between	-3136
keywords	-3137
Decor	-3138
frame	-3139
STORE	-3140
Flush	-3141
delivery	-3142
getAll	-3143
rowser	-3144
Put	-3145
then	-3146
rouped	-3147
Navig	-3148
initializer	-3149
CPOptionValue	-3150
addCommerce	-3151
PaymentMethod	-3152
Pack	-3153
callback	-3154
aris	-3155
clip	-3156
Quick	-3157
OBJECT	-3158
Roll	-3159
util	-3160
probe	-3161
TreeNode	-3162
BeanDefinition	-3163
eting	-3164
addAll	-3165
routing	-3166
Deletion	-3167
Initial	-3168
Hits	-3169
former	-3170
CharSequence	-3171
minder	-3172
operand	-3173
CPSpecification	-3174
ups	-3175
EXPRE	-3176
MAN	-3177
Assign	-3178
setName	-3179
Conflic	-3180
ContainerUtil	-3181
ierarch	-3182
Dispatch	-3183
future	-3184
Thai	-3185
arison	-3186
Logical	-3187
ShippingFixed	-3188
Calcu	-3189
Dimension	-3190
getTable	-3191
record	-3192
Sum	-3193
box	-3194
Extractor	-3195
Reminder	-3196
the	-3197
DataContext	-3198
esca	-3199
required	-3200
XContentBuilder	-3201
1000	-3202
extr	-3203
ripe	-3204
Arch	-3205
scale	-3206
Multiple	-3207
getElement	-3208
begin	-3209
OPER	-3210
registr	-3211
Ara	-3212
SEC	-3213
returnType	-3214
endpoint	-3215
Registration	-3216
Addition	-3217
indent	-3218
Orc	-3219
dential	-3220
commerceRegion	-3221
Authentication	-3222
consumer	-3223
cal	-3224
Meeting	-3225
CODE	-3226
ee	-3227
Histogram	-3228
success	-3229
port	-3230
render	-3231
myRe	-3232
licas	-3233
UNK	-3234
clearCache	-3235
flush	-3236
Uri	-3237
getIndex	-3238
References	-3239
getProperty	-3240
CONFI	-3241
acade	-3242
md	-3243
CONTEXT	-3244
SqlBaseParser	-3245
verage	-3246
StringUtil	-3247
Any	-3248
ategor	-3249
BA	-3250
indicator	-3251
WarehouseItem	-3252
Basic	-3253
control	-3254
Lig	-3255
vcs	-3256
myRoot	-3257
utation	-3258
CodeStyle	-3259
PsiReference	-3260
Preview	-3261
COMMER	-3262
SCRIP	-3263
full	-3264
AU	-3265
White	-3266
moved	-3267
USER	-3268
persister	-3269
ribution	-3270
constructor	-3271
Clause	-3272
Arab	-3273
highlight	-3274
Has	-3275
Equal	-3276
Events	-3277
Exclude	-3278
ansi	-3279
marker	-3280
TestBean	-3281
dater	-3282
Arabic	-3283
BiConsumer	-3284
eries	-3285
Execute	-3286
feature	-3287
cacheResult	-3288
hs	-3289
Choo	-3290
OAuth	-3291
LOCK	-3292
currence	-3293
Each	-3294
step	-3295
OrganizationRel	-3296
icode	-3297
iService	-3298
DAvailability	-3299
methodName	-3300
Esc	-3301
SimpleAttribute	-3302
TimeValue	-3303
FLA	-3304
Raw	-3305
CPDefinitionId	-3306
Allocator	-3307
getMessage	-3308
segment	-3309
EXPRESSION	-3310
Final	-3311
dataContext	-3312
getClassName	-3313
send	-3314
ward	-3315
rup	-3316
tural	-3317
LON	-3318
Nanos	-3319
orrect	-3320
Analysis	-3321
Terminal	-3322
MS	-3323
ana	-3324
cf	-3325
numberOf	-3326
ibility	-3327
Success	-3328
consume	-3329
Charset	-3330
ensure	-3331
env	-3332
Soap	-3333
Password	-3334
tics	-3335
Components	-3336
upsert	-3337
alytics	-3338
FLAG	-3339
dataSource	-3340
Metrics	-3341
ansient	-3342
AssetCategory	-3343
MethodHandler	-3344
sync	-3345
CONFIG	-3346
EDI	-3347
attributeGetter	-3348
ildcard	-3349
cpOptionValue	-3350
getCPInstance	-3351
TAG	-3352
aging	-3353
OSG	-3354
OPTION	-3355
make	-3356
sdk	-3357
Toolbar	-3358
cpOptionCategory	-3359
ROW	-3360
security	-3361
userLocalService	-3362
ThreadPool	-3363
Exists	-3364
SearchResponse	-3365
criteria	-3366
cpSpecification	-3367
publish	-3368
OSGiService	-3369
lated	-3370
mitive	-3371
Character	-3372
AME	-3373
totalDiscount	-3374
sIn	-3375
Timer	-3376
Med	-3377
RowExpression	-3378
DB	-3379
ingFile	-3380
databaseName	-3381
assertNotNull	-3382
Modules	-3383
may	-3384
ToolWindow	-3385
color	-3386
Managed	-3387
ResultSet	-3388
MOD	-3389
reek	-3390
Setup	-3391
positionCount	-3392
NULL	-3393
Threshold	-3394
1"	-3395
Cycle	-3396
Presto	-3397
PaginationFindBy	-3398
progress	-3399
web	-3400
SessionFactory	-3401
Person	-3402
userName	-3403
LOW	-3404
Groups	-3405
TIMEOUT	-3406
panel	-3407
ending	-3408
TableHandle	-3409
getString	-3410
cpDisplayLayout	-3411
hint	-3412
Smart	-3413
RACE	-3414
HO	-3415
bulk	-3416
ENCE	-3417
Blob	-3418
Greek	-3419
Jar	-3420
myName	-3421
Visual	-3422
SearchScope	-3423
IS	-3424
aries	-3425
FILTER	-3426
ModifiedDate	-3427
Rename	-3428
hor	-3429
Bookmark	-3430
ServiceName	-3431
END	-3432
Exchange	-3433
FixedRate	-3434
Sof	-3435
Lt	-3436
Prepa	-3437
rit	-3438
Soft	-3439
Print	-3440
Additional	-3441
Inet	-3442
execution	-3443
Na	-3444
ident	-3445
window	-3446
START	-3447
Constraints	-3448
findByPrimaryKey	-3449
portal	-3450
Shared	-3451
struct	-3452
__	-3453
application	-3454
Repair	-3455
Mutable	-3456
fetchByUuid	-3457
known	-3458
createDate	-3459
Delay	-3460
Errors	-3461
NER	-3462
FACTORY	-3463
ax	-3464
Round	-3465
classLoader	-3466
ISO	-3467
RAP	-3468
Invocation	-3469
Criteria	-3470
Esca	-3471
tasks	-3472
BER	-3473
assertFalse	-3474
idx	-3475
folder	-3476
onical	-3477
dispose	-3478
QueryBuilder	-3479
FE	-3480
fileName	-3481
ReturnType	-3482
LOGGER	-3483
ASTNode	-3484
ploy	-3485
Binder	-3486
FilePath	-3487
ierarchy	-3488
SESSION	-3489
rest	-3490
CK	-3491
instruction	-3492
More	-3493
NOWN	-3494
BIT	-3495
EntityManager	-3496
roy	-3497
Pending	-3498
unit	-3499
meDisplay	-3500
Score	-3501
when	-3502
ChannelRelFinder	-3503
Continue	-3504
ise	-3505
cancel	-3506
CommerceTax	-3507
aggregation	-3508
mbers	-3509
mbed	-3510
tip	-3511
terminal	-3512
Cert	-3513
label	-3514
AccessControl	-3515
34	-3516
assignment	-3517
evalu	-3518
Archive	-3519
Math	-3520
Updater	-3521
SuperExpression	-3522
ivity	-3523
Templates	-3524
inct	-3525
Si	-3526
Cursor	-3527
Sorted	-3528
Unicode	-3529
INTE	-3530
password	-3531
sha	-3532
signature	-3533
LONG	-3534
Plugins	-3535
revision	-3536
JPanel	-3537
FORMAT	-3538
Based	-3539
reen	-3540
PROPERTY	-3541
Trace	-3542
indexMetadata	-3543
EntryPersistence	-3544
El	-3545
auto	-3546
nested	-3547
msg	-3548
pressed	-3549
SUB	-3550
chine	-3551
cause	-3552
Scheduled	-3553
UNCTION	-3554
CESS	-3555
Bytecode	-3556
Throws	-3557
Processing	-3558
OutputStream	-3559
Used	-3560
Float	-3561
substitutor	-3562
Arg	-3563
QUER	-3564
expect	-3565
Qualifier	-3566
PUT	-3567
dif	-3568
Unique	-3569
yload	-3570
LEN	-3571
PATTERN	-3572
cached	-3573
Ht	-3574
Html	-3575
ritten	-3576
UNKNOWN	-3577
repo	-3578
ificate	-3579
support	-3580
COMMERCE	-3581
tz	-3582
VALID	-3583
elementType	-3584
hive	-3585
destination	-3586
Combo	-3587
HER	-3588
aming	-3589
columnBitmask	-3590
each	-3591
actoring	-3592
Linked	-3593
ryption	-3594
NotFound	-3595
URITY	-3596
SECURITY	-3597
assign	-3598
Aggregator	-3599
ag	-3600
URE	-3601
FUNCTION	-3602
kana	-3603
commerceContext	-3604
MODULE	-3605
proxy	-3606
".	-3607
Times	-3608
getPreferred	-3609
MODE	-3610
STRI	-3611
ByName	-3612
library	-3613
Existing	-3614
SELECT	-3615
clean	-3616
powwow	-3617
singleton	-3618
QuickFix	-3619
Recovery	-3620
slice	-3621
filtered	-3622
modifiedDate	-3623
authentication	-3624
Inc	-3625
DED	-3626
Grid	-3627
analyz	-3628
category	-3629
Skip	-3630
eded	-3631
EXCEP	-3632
Reser	-3633
here	-3634
presentation	-3635
RequestBuilder	-3636
getPath	-3637
EndOffset	-3638
warn	-3639
qualified	-3640
Grouped	-3641
DiscountRel	-3642
finderCache	-3643
ular	-3644
ivate	-3645
Media	-3646
pector	-3647
enable	-3648
memory	-3649
queryPos	-3650
rew	-3651
Protocol	-3652
vance	-3653
FactoryUtil	-3654
scroll	-3655
EDITOR	-3656
getInteger	-3657
menu	-3658
SIG	-3659
ModelImpl	-3660
SuppressWarnings	-3661
SSL	-3662
Wait	-3663
classes	-3664
Flow	-3665
QUERY	-3666
Old	-3667
STAT	-3668
Inher	-3669
updated	-3670
AddressId	-3671
getSelected	-3672
JO	-3673
ired	-3674
LEFT	-3675
psiElement	-3676
Def	-3677
Area	-3678
Edit	-3679
entityName	-3680
lastic	-3681
unc	-3682
Analyzer	-3683
getDescription	-3684
Latch	-3685
term	-3686
CUR	-3687
race	-3688
Compaction	-3689
shards	-3690
Tri	-3691
MIL	-3692
flags	-3693
Conversion	-3694
metr	-3695
TextField	-3696
oducer	-3697
Lice	-3698
terms	-3699
est	-3700
Bits	-3701
Capa	-3702
Neg	-3703
BIN	-3704
ordinator	-3705
TRANS	-3706
emon	-3707
Closure	-3708
xContent	-3709
Orders	-3710
getMethod	-3711
iven	-3712
formation	-3713
Expressions	-3714
Started	-3715
myContext	-3716
KET	-3717
cumu	-3718
TypeManager	-3719
Mapped	-3720
igr	-3721
Buckets	-3722
listeners	-3723
calcu	-3724
myLast	-3725
Jdk	-3726
relative	-3727
Refactoring	-3728
keys	-3729
ROOT	-3730
Tokens	-3731
Core	-3732
createColumn	-3733
Pus	-3734
Patterns	-3735
EXCEPTION	-3736
PARAME	-3737
sessionFactory	-3738
Classpath	-3739
checked	-3740
TEMP	-3741
install	-3742
Writeable	-3743
Quo	-3744
Face	-3745
getCurrent	-3746
Messages	-3747
PARAMETER	-3748
Metric	-3749
servlet	-3750
Duplicate	-3751
geo	-3752
lines	-3753
Pipeline	-3754
PEN	-3755
visible	-3756
alled	-3757
32	-3758
fieldType	-3759
beanName	-3760
GHT	-3761
License	-3762
setUp	-3763
ByUuidAnd	-3764
IllegalArgument	-3765
ExpandoRow	-3766
bundle	-3767
lasticsearch	-3768
Strings	-3769
definition	-3770
rement	-3771
Resources	-3772
Dfa	-3773
Searcher	-3774
mapped	-3775
TokenType	-3776
Privileges	-3777
ADER	-3778
Capacity	-3779
VICE	-3780
Jps	-3781
Low	-3782
ootstr	-3783
Inspector	-3784
getComponent	-3785
font	-3786
Light	-3787
lambda	-3788
ootstrap	-3789
Main	-3790
getC	-3791
userPersistence	-3792
decimal	-3793
Push	-3794
Geometry	-3795
ATED	-3796
wo	-3797
Driver	-3798
Channels	-3799
sel	-3800
ALIAS	-3801
driver	-3802
Facade	-3803
hist	-3804
endTime	-3805
simple	-3806
OPERATION	-3807
Matching	-3808
Descriptors	-3809
SeqNo	-3810
supported	-3811
Operand	-3812
failed	-3813
writeTo	-3814
Generated	-3815
myType	-3816
IndexableAction	-3817
single	-3818
side	-3819
gex	-3820
getMax	-3821
RY	-3822
Analytics	-3823
irection	-3824
Men	-3825
Loop	-3826
Transformer	-3827
descriptionMap	-3828
Menu	-3829
follow	-3830
containingClass	-3831
mail	-3832
fileType	-3833
Primitive	-3834
Lex	-3835
irector	-3836
STE	-3837
Master	-3838
FileEntryFinder	-3839
Unknown	-3840
Platform	-3841
Comparison	-3842
Fail	-3843
RET	-3844
sets	-3845
Testing	-3846
normal	-3847
cei	-3848
Invo	-3849
identifier	-3850
Statements	-3851
FO	-3852
reet	-3853
Diction	-3854
sConfig	-3855
removeAll	-3856
pc	-3857
PathAddress	-3858
findByGroupId	-3859
Clean	-3860
merged	-3861
REG	-3862
BACK	-3863
Stamp	-3864
Shortcut	-3865
latch	-3866
INTEGER	-3867
realm	-3868
ANNOT	-3869
irectories	-3870
getLine	-3871
Machine	-3872
Colors	-3873
cover	-3874
CommerceRegion	-3875
ConnectorSession	-3876
Suite	-3877
OfType	-3878
moPrice	-3879
declare	-3880
Datafeed	-3881
isEqualTo	-3882
Cach	-3883
thon	-3884
getContent	-3885
AUTH	-3886
CTED	-3887
asList	-3888
ank	-3889
LED	-3890
getRoot	-3891
NODE	-3892
izon	-3893
depth	-3894
izontal	-3895
interval	-3896
InetAddress	-3897
AMImage	-3898
uf	-3899
rag	-3900
Jdbc	-3901
src	-3902
TableMetadata	-3903
orderBy	-3904
safe	-3905
Ui	-3906
Relation	-3907
myIn	-3908
clone	-3909
SERVICE	-3910
exclude	-3911
Render	-3912
Chooser	-3913
loader	-3914
Hit	-3915
ItemId	-3916
BlockBuilder	-3917
Database	-3918
RESS	-3919
FERENCE	-3920
waitFor	-3921
IndexName	-3922
Keyspace	-3923
FileSystem	-3924
Contributor	-3925
Weight	-3926
attributeName	-3927
ItemLocalService	-3928
Foo	-3929
Bund	-3930
MILLI	-3931
XContentParser	-3932
Stage	-3933
vable	-3934
IC	-3935
ORY	-3936
constraint	-3937
OK	-3938
myDocument	-3939
aml	-3940
rev	-3941
ns	-3942
loaded	-3943
serviceTracker	-3944
21	-3945
ridge	-3946
jar	-3947
highligh	-3948
Folding	-3949
Hierarchy	-3950
getContain	-3951
PING	-3952
FORE	-3953
SetterBiConsumer	-3954
ters	-3955
isValid	-3956
Namespace	-3957
CellRenderer	-3958
WRAP	-3959
mouse	-3960
zip	-3961
myText	-3962
maximum	-3963
Ignored	-3964
valueOf	-3965
NUMBER	-3966
Bro	-3967
setCommerceOrder	-3968
graph	-3969
sFor	-3970
fire	-3971
Supported	-3972
Retention	-3973
determin	-3974
SK	-3975
Dia	-3976
getAction	-3977
QualifiedName	-3978
CheckBox	-3979
dsl	-3980
Ms	-3981
continue	-3982
FIER	-3983
MESS	-3984
dist	-3985
fail	-3986
Information	-3987
Dictionary	-3988
tableHandle	-3989
DOC	-3990
Orig	-3991
SyncDL	-3992
REMO	-3993
attr	-3994
EJB	-3995
go	-3996
ATTR	-3997
items	-3998
filePath	-3999
BRACE	-4000
WA	-4001
Scheduler	-4002
predicate	-4003
EXP	-4004
tokens	-4005
subscriptionType	-4006
APP	-4007
LY	-4008
IfNe	-4009
getResource	-4010
MAR	-4011
IP	-4012
vert	-4013
UserPersistence	-4014
URN	-4015
myS	-4016
branch	-4017
Injected	-4018
BlogsEntry	-4019
HERE	-4020
urch	-4021
Destination	-4022
MAL	-4023
Ant	-4024
ndi	-4025
actions	-4026
PASS	-4027
Models	-4028
drop	-4029
viders	-4030
environment	-4031
ertion	-4032
ferent	-4033
Offsets	-4034
generator	-4035
ircum	-4036
ture	-4037
Span	-4038
limit	-4039
Than	-4040
WE	-4041
conf	-4042
notify	-4043
myTarget	-4044
leader	-4045
wa	-4046
myFixture	-4047
Modification	-4048
street	-4049
Sen	-4050
ddm	-4051
ice	-4052
PriceModifierRel	-4053
changes	-4054
trim	-4055
SUP	-4056
cell	-4057
Management	-4058
recovery	-4059
notification	-4060
DisplayName	-4061
multi	-4062
umeric	-4063
diction	-4064
indexSettings	-4065
ranges	-4066
Relative	-4067
Finished	-4068
Wildcard	-4069
LanguageLevel	-4070
Resolved	-4071
Tables	-4072
deploymentUnit	-4073
pending	-4074
getLast	-4075
TENT	-4076
maven	-4077
binding	-4078
Parameterized	-4079
self	-4080
Suffix	-4081
replacement	-4082
Credential	-4083
ColumnNames	-4084
myC	-4085
Sens	-4086
ClientConfig	-4087
ircumf	-4088
roke	-4089
WRI	-4090
getDocument	-4091
ANY	-4092
utter	-4093
Digest	-4094
inside	-4095
CPDAvailability	-4096
setCPInstance	-4097
getStatus	-4098
TIAL	-4099
Priority	-4100
watch	-4101
Sing	-4102
transportService	-4103
limitationTimes	-4104
Under	-4105
parsed	-4106
TEN	-4107
arsh	-4108
Disabled	-4109
Rules	-4110
push	-4111
Detector	-4112
AndTypeManager	-4113
verse	-4114
DA	-4115
aces	-4116
Dumb	-4117
testGet	-4118
dered	-4119
ready	-4120
increment	-4121
maybe	-4122
mySettings	-4123
plain	-4124
High	-4125
vFile	-4126
substring	-4127
Elasticsearch	-4128
Exceptions	-4129
SizeInBytes	-4130
SES	-4131
Are	-4132
ring	-4133
fill	-4134
targetClass	-4135
toXContent	-4136
Naming	-4137
Projects	-4138
EW	-4139
currentFieldName	-4140
Mac	-4141
Replica	-4142
datafeed	-4143
ilt	-4144
Tempor	-4145
ici	-4146
LANG	-4147
Inside	-4148
getEntity	-4149
Dispatcher	-4150
getModule	-4151
Extra	-4152
ableTo	-4153
runnable	-4154
Sca	-4155
mediate	-4156
RowCount	-4157
getFirst	-4158
Ack	-4159
STAMP	-4160
Leg	-4161
author	-4162
promoPrice	-4163
turalId	-4164
ATTRIBUTES	-4165
draw	-4166
Decoder	-4167
SCHE	-4168
ARCH	-4169
gradle	-4170
POS	-4171
dslQuery	-4172
ottom	-4173
setClassName	-4174
istic	-4175
profile	-4176
avai	-4177
declaration	-4178
atible	-4179
ions	-4180
DiscoveryNode	-4181
COLUMNS	-4182
Agg	-4183
BR	-4184
mem	-4185
usages	-4186
Tabs	-4187
Performed	-4188
DisplayPage	-4189
22	-4190
ORI	-4191
lick	-4192
Logging	-4193
pha	-4194
spaces	-4195
ItemPersistence	-4196
ColumnHandle	-4197
DEP	-4198
Closed	-4199
Versions	-4200
shift	-4201
INI	-4202
Rad	-4203
RIGHT	-4204
assetListEntry	-4205
Generation	-4206
Tags	-4207
urse	-4208
RoutingTable	-4209
Dispose	-4210
Dri	-4211
WHERE	-4212
rupted	-4213
Certificate	-4214
Queries	-4215
LATE	-4216
TreeUtil	-4217
ASH	-4218
PriceEntryId	-4219
stitution	-4220
indexOf	-4221
buckets	-4222
tuple	-4223
emp	-4224
getLong	-4225
getOriginal	-4226
searchResponse	-4227
comparator	-4228
head	-4229
FileName	-4230
restore	-4231
reason	-4232
Spaces	-4233
MESSAGE	-4234
CATION	-4235
allo	-4236
getChildren	-4237
Comments	-4238
FS	-4239
Added	-4240
maining	-4241
dependencies	-4242
asable	-4243
Equ	-4244
ysical	-4245
searchContext	-4246
proble	-4247
getField	-4248
Site	-4249
notNull	-4250
operations	-4251
atable	-4252
calculate	-4253
Disk	-4254
Bridge	-4255
decode	-4256
XmlTag	-4257
Anch	-4258
alar	-4259
CommandLine	-4260
stack	-4261
quo	-4262
columnIndex	-4263
IF	-4264
mu	-4265
Cycles	-4266
encode	-4267
kind	-4268
Loading	-4269
createQuery	-4270
NORE	-4271
protocol	-4272
HighlightInfo	-4273
PORT	-4274
Rollup	-4275
Members	-4276
forEach	-4277
Suggest	-4278
Trigger	-4279
advance	-4280
loy	-4281
ssl	-4282
SERVER	-4283
IGNORE	-4284
countByC	-4285
getChild	-4286
transient	-4287
calendarResource	-4288
ERC	-4289
Idea	-4290
persistent	-4291
ationContext	-4292
DELE	-4293
Merged	-4294
getGroup	-4295
CreateDate	-4296
sample	-4297
leaf	-4298
FamilyStore	-4299
DING	-4300
pant	-4301
Facet	-4302
getBean	-4303
Profiles	-4304
DIRE	-4305
icipant	-4306
cpd	-4307
logical	-4308
getGroupId	-4309
cpdAvailability	-4310
BUIL	-4311
HashCode	-4312
uses	-4313
Anchor	-4314
Created	-4315
missing	-4316
ShardId	-4317
assigned	-4318
VIEW	-4319
Failures	-4320
Legacy	-4321
UTF	-4322
ife	-4323
span	-4324
lenish	-4325
lenishment	-4326
binary	-4327
UserLocalService	-4328
purch	-4329
destroy	-4330
Browser	-4331
iod	-4332
anded	-4333
getSource	-4334
ave	-4335
hot	-4336
Python	-4337
edQuantity	-4338
Loaded	-4339
delta	-4340
Replenishment	-4341
complete	-4342
entrySet	-4343
Rank	-4344
vered	-4345
PsiVariable	-4346
rt	-4347
Rect	-4348
IMP	-4349
itable	-4350
processed	-4351
sFolder	-4352
LAY	-4353
Bundler	-4354
FromText	-4355
groupIds	-4356
commerceTax	-4357
States	-4358
StringBundler	-4359
Hand	-4360
methods	-4361
RemoteException	-4362
Graphics	-4363
RESOURCE	-4364
BLOCK	-4365
origin	-4366
GTH	-4367
LENGTH	-4368
domain	-4369
ui	-4370
Extended	-4371
CLI	-4372
Inject	-4373
Complete	-4374
stage	-4375
matches	-4376
CONNECTION	-4377
ffective	-4378
SECONDS	-4379
Threads	-4380
LU	-4381
STRE	-4382
breakpoint	-4383
Distribution	-4384
transactionId	-4385
charset	-4386
Occurrence	-4387
Typed	-4388
STREAM	-4389
IntentionAction	-4390
Synt	-4391
COLLE	-4392
person	-4393
stantiator	-4394
Stripe	-4395
SIGN	-4396
Attr	-4397
BASE	-4398
DIS	-4399
RUN	-4400
master	-4401
Callable	-4402
Running	-4403
ModelType	-4404
calendarId	-4405
requested	-4406
AtomicBoolean	-4407
hql	-4408
kernel	-4409
Prepared	-4410
newName	-4411
prop	-4412
CHECK	-4413
couponCode	-4414
AndPort	-4415
30	-4416
Creator	-4417
ircumflex	-4418
ejb	-4419
ump	-4420
idden	-4421
REFERENCE	-4422
Implicit	-4423
QueryUtil	-4424
}"	-4425
Evaluator	-4426
ActionGroup	-4427
analysis	-4428
report	-4429
dataStream	-4430
Dirty	-4431
image	-4432
connect	-4433
Associ	-4434
HttpRequest	-4435
themeDisplay	-4436
Artifacts	-4437
crete	-4438
scheme	-4439
LanguageId	-4440
Und	-4441
phase	-4442
Shift	-4443
bling	-4444
NodeId	-4445
STATUS	-4446
MAIN	-4447
Tooltip	-4448
replica	-4449
vn	-4450
STATIC	-4451
Partitioning	-4452
clusive	-4453
Changeset	-4454
rules	-4455
appBuilderApp	-4456
ByteArray	-4457
visor	-4458
CURRE	-4459
Explicit	-4460
Else	-4461
Sink	-4462
Restore	-4463
STEM	-4464
ivale	-4465
Assertion	-4466
nameMap	-4467
suffix	-4468
projection	-4469
NC	-4470
Indexed	-4471
variant	-4472
sm	-4473
pointer	-4474
Coverage	-4475
BookedQuantity	-4476
Flag	-4477
defaultValue	-4478
Points	-4479
crement	-4480
SYSTEM	-4481
agg	-4482
Categor	-4483
yper	-4484
KEYWORD	-4485
Previous	-4486
Live	-4487
Send	-4488
myState	-4489
alloon	-4490
ek	-4491
Lease	-4492
ShippingMethodId	-4493
unableTo	-4494
Delta	-4495
DocCount	-4496
na	-4497
Incorrect	-4498
generated	-4499
dictionary	-4500
"]	-4501
Factories	-4502
accountEntry	-4503
Highlighting	-4504
Gutter	-4505
sBy	-4506
pck	-4507
pckg	-4508
expandoRow	-4509
ANNOTATION	-4510
EmptyStatement	-4511
getOr	-4512
optional	-4513
Aggregations	-4514
getOSGiService	-4515
Stored	-4516
Blocks	-4517
Symbol	-4518
supports	-4519
TIMESTAMP	-4520
strategy	-4521
Creation	-4522
RES	-4523
Normal	-4524
REF	-4525
ATEG	-4526
CPDefinitionRel	-4527
Subclass	-4528
DiscountAmount	-4529
PARENT	-4530
PAGE	-4531
Viewer	-4532
reduce	-4533
BITMASK	-4534
paths	-4535
Indexer	-4536
Idx	-4537
OrderBy	-4538
JOIN	-4539
Inline	-4540
controller	-4541
QUEST	-4542
engine	-4543
REAL	-4544
Subsystem	-4545
PsiStatement	-4546
BEFORE	-4547
compareTo	-4548
registry	-4549
book	-4550
ifest	-4551
Include	-4552
Decorator	-4553
ToXContent	-4554
ient	-4555
uspend	-4556
found	-4557
Contexts	-4558
expressions	-4559
CalendarResource	-4560
IR	-4561
ComboBox	-4562
aller	-4563
DESCRIP	-4564
2"	-4565
blog	-4566
elf	-4567
unique	-4568
myElement	-4569
CouponCode	-4570
currentState	-4571
ingest	-4572
ToMany	-4573
getTransaction	-4574
OperatorFactory	-4575
Other	-4576
ProductPrice	-4577
PAGIN	-4578
PAGINATION	-4579
arm	-4580
updateCommerce	-4581
Edge	-4582
":	-4583
tect	-4584
escape	-4585
ingContext	-4586
entries	-4587
Decla	-4588
suggest	-4589
trigger	-4590
setParameter	-4591
ListEntryId	-4592
Jvm	-4593
ManagerImpl	-4594
onFailure	-4595
Accessible	-4596
abul	-4597
legacy	-4598
Configure	-4599
ADDRESS	-4600
filters	-4601
HEADER	-4602
RANGE	-4603
cho	-4604
Implementation	-4605
SubscriptionType	-4606
Sets	-4607
getOutput	-4608
Into	-4609
Daemon	-4610
Drivers	-4611
findByCommerce	-4612
CONTENT	-4613
peer	-4614
randomInt	-4615
storage	-4616
extra	-4617
getTest	-4618
ExecutorService	-4619
sStats	-4620
BytesReference	-4621
Depth	-4622
PAREN	-4623
blockBuilder	-4624
toArray	-4625
SING	-4626
STATEMENT	-4627
sequence	-4628
PU	-4629
getResult	-4630
FINI	-4631
Defined	-4632
Workflow	-4633
isRe	-4634
Deleted	-4635
istered	-4636
bilities	-4637
async	-4638
ChangeListener	-4639
Embed	-4640
Splitter	-4641
cumulator	-4642
PowwowMeeting	-4643
myContent	-4644
PLA	-4645
Extract	-4646
Screen	-4647
Monitor	-4648
ele	-4649
Producer	-4650
getQuery	-4651
Escape	-4652
pipeline	-4653
Cons	-4654
REQUEST	-4655
POP	-4656
blob	-4657
orc	-4658
Author	-4659
lapsed	-4660
MBean	-4661
lue	-4662
inless	-4663
Distinct	-4664
mbst	-4665
amImage	-4666
positions	-4667
Translog	-4668
tempor	-4669
hotpopup	-4670
Parsed	-4671
rott	-4672
checkCan	-4673
TypeDescriptor	-4674
PASSWORD	-4675
hasNext	-4676
junction	-4677
verity	-4678
need	-4679
addition	-4680
EntriesCount	-4681
dl	-4682
lower	-4683
Excluded	-4684
namespace	-4685
Hg	-4686
odu	-4687
grade	-4688
SHO	-4689
subst	-4690
HttpPrincipal	-4691
pages	-4692
ExternalSystem	-4693
acute	-4694
req	-4695
setId	-4696
MUL	-4697
Direct	-4698
faces	-4699
common	-4700
TS	-4701
ResolveResult	-4702
foc	-4703
just	-4704
Exact	-4705
ignored	-4706
actionId	-4707
invalid	-4708
tance	-4709
Scale	-4710
available	-4711
GENER	-4712
release	-4713
activate	-4714
Checked	-4715
Publisher	-4716
alth	-4717
actionPerformed	-4718
mode	-4719
LOCAL	-4720
SearchRequest	-4721
liter	-4722
Snapshots	-4723
Directories	-4724
Numeric	-4725
highlighter	-4726
consumeToken	-4727
igration	-4728
successful	-4729
CS	-4730
diff	-4731
Conflict	-4732
OVER	-4733
route	-4734
Help	-4735
wrapper	-4736
inot	-4737
converter	-4738
region	-4739
ied	-4740
removeByC	-4741
EXT	-4742
MATCH	-4743
BYTES	-4744
jdbc	-4745
initialize	-4746
getNode	-4747
ffected	-4748
und	-4749
getLocal	-4750
PsiSubstitutor	-4751
grant	-4752
reground	-4753
getEditor	-4754
ln	-4755
solute	-4756
license	-4757
Dialect	-4758
product	-4759
istency	-4760
TP	-4761
NEW	-4762
Increment	-4763
TIL	-4764
Framework	-4765
Extensions	-4766
40	-4767
tax	-4768
INTERVAL	-4769
changed	-4770
MethodParameter	-4771
cv	-4772
TEMPLATE	-4773
Problems	-4774
checkArgument	-4775
replicas	-4776
myDefault	-4777
ToString	-4778
StreamInput	-4779
methodVisitor	-4780
managed	-4781
PersistenceImpl	-4782
ctCollectionId	-4783
selector	-4784
Apply	-4785
paired	-4786
Participant	-4787
Splits	-4788
dialog	-4789
ShardRouting	-4790
PsiUtil	-4791
visual	-4792
CPDefinitionLink	-4793
Encryption	-4794
TASK	-4795
COLOR	-4796
Flags	-4797
nowled	-4798
getState	-4799
pk	-4800
Watcher	-4801
ToOne	-4802
Clustering	-4803
hel	-4804
Cor	-4805
pedModel	-4806
CHANGE	-4807
Two	-4808
groups	-4809
separator	-4810
dfs	-4811
isSelected	-4812
ServletResponse	-4813
AG	-4814
Synchron	-4815
catalogName	-4816
COMMAND	-4817
myModel	-4818
UserData	-4819
statements	-4820
ast	-4821
myClass	-4822
inte	-4823
assetCategory	-4824
AF	-4825
countAll	-4826
uter	-4827
THREAD	-4828
published	-4829
Age	-4830
conflic	-4831
additional	-4832
CF	-4833
ivation	-4834
off	-4835
inher	-4836
VirtualSetting	-4837
big	-4838
adget	-4839
Worker	-4840
<<	-4841
Shape	-4842
oom	-4843
DescriptionMap	-4844
ssue	-4845
MethodKey	-4846
net	-4847
Drag	-4848
Activity	-4849
Indexes	-4850
Inference	-4851
LL	-4852
SA	-4853
alType	-4854
FolderId	-4855
getUserId	-4856
randomBoolean	-4857
myMethod	-4858
EstimateService	-4859
Lib	-4860
symbol	-4861
deserialize	-4862
AnActionEvent	-4863
management	-4864
CKET	-4865
Javadoc	-4866
sce	-4867
Desc	-4868
PARTI	-4869
Summary	-4870
clustering	-4871
Vector	-4872
console	-4873
Tail	-4874
ifStatement	-4875
NotePersistence	-4876
getTarget	-4877
ritable	-4878
thing	-4879
EventListener	-4880
horizontal	-4881
SUCH	-4882
Rounding	-4883
Click	-4884
Convert	-4885
createTest	-4886
vor	-4887
Press	-4888
TypeName	-4889
WAR	-4890
Heap	-4891
Lower	-4892
estim	-4893
PsiTreeUtil	-4894
oneId	-4895
useCouponCode	-4896
ImmutableMap	-4897
upper	-4898
stand	-4899
Calculator	-4900
PsiField	-4901
Cl	-4902
Enable	-4903
PARTITION	-4904
BeanFactory	-4905
columnName	-4906
bers	-4907
Alarm	-4908
REE	-4909
username	-4910
RED	-4911
atal	-4912
setValue	-4913
POOL	-4914
Partial	-4915
localDateTime	-4916
containsKey	-4917
Upper	-4918
errors	-4919
Ele	-4920
tmp	-4921
filterFindBy	-4922
alloc	-4923
primaryKeys	-4924
PsiClassType	-4925
getPrimaryKey	-4926
Release	-4927
TitleMap	-4928
KW	-4929
Deploy	-4930
mt	-4931
ich	-4932
oAuth	-4933
myParent	-4934
TransportService	-4935
_1_0	-4936
ExecutionContext	-4937
Pe	-4938
HAND	-4939
modifiers	-4940
ALLOW	-4941
Folders	-4942
ness	-4943
Chars	-4944
Declared	-4945
Force	-4946
Paint	-4947
jector	-4948
columnBitmasks	-4949
EC	-4950
DataStream	-4951
KEN	-4952
BUF	-4953
Hyper	-4954
Keyword	-4955
sw	-4956
SyncDLObject	-4957
STRICT	-4958
Providers	-4959
0_	-4960
CN	-4961
cts	-4962
CLIENT	-4963
DeploymentUnit	-4964
POPUP	-4965
MULTI	-4966
CURRENT	-4967
POSI	-4968
Net	-4969
Secure	-4970
abulary	-4971
serializer	-4972
KED	-4973
NON	-4974
MavenProject	-4975
QUI	-4976
company	-4977
aliases	-4978
ffered	-4979
COVER	-4980
AssetEntryRel	-4981
CREATE	-4982
EntryFinder	-4983
PARAM	-4984
repositories	-4985
Disposed	-4986
LookupElement	-4987
SM	-4988
brew	-4989
annotations	-4990
threadContext	-4991
Decision	-4992
Modal	-4993
numDocs	-4994
repositoryId	-4995
SegmentsEntry	-4996
Updated	-4997
getCompanyId	-4998
deleteCommerce	-4999
COLLECTION	-5000
mant	-5001
Equivale	-5002
Icons	-5003
AtomicInteger	-5004
sorted	-5005
Defaults	-5006
Company	-5007
Shown	-5008
ObjectName	-5009
vation	-5010
SettingsUnicode	-5011
2_	-5012
titleMap	-5013
getVersion	-5014
def	-5015
Projection	-5016
firstReminder	-5017
ARG	-5018
Late	-5019
isNull	-5020
injection	-5021
rename	-5022
isEnabled	-5023
AccountGroup	-5024
SearchContext	-5025
modifiable	-5026
ClusterService	-5027
vely	-5028
Alpha	-5029
ssaging	-5030
Plain	-5031
VARI	-5032
Arrange	-5033
rant	-5034
folderId	-5035
Dot	-5036
QueueEntry	-5037
getBoolean	-5038
startsWith	-5039
createChild	-5040
Lexer	-5041
interceptor	-5042
StreamReader	-5043
PrimaryKeys	-5044
HTTP	-5045
indexShard	-5046
acted	-5047
calc	-5048
setText	-5049
Counts	-5050
SoftWrap	-5051
Singleton	-5052
RETURN	-5053
MET	-5054
Save	-5055
Sku	-5056
expectThrows	-5057
Brace	-5058
stomer	-5059
urator	-5060
Modifiable	-5061
PsiManager	-5062
Money	-5063
SchemaTableName	-5064
referenced	-5065
NING	-5066
losing	-5067
tableId	-5068
VO	-5069
ered	-5070
superClass	-5071
okie	-5072
Append	-5073
CALL	-5074
ObjectParser	-5075
Markup	-5076
tb	-5077
ITE	-5078
Small	-5079
ApiKey	-5080
Dependent	-5081
FieldValue	-5082
Georg	-5083
Georgian	-5084
Replicas	-5085
Committed	-5086
persistedModel	-5087
myPanel	-5088
objectOutput	-5089
WarehouseId	-5090
keySet	-5091
getIcon	-5092
Delivery	-5093
override	-5094
ItemFinder	-5095
Visibility	-5096
secondReminder	-5097
Intr	-5098
Contains	-5099
usePercentage	-5100
Regex	-5101
SECOND	-5102
DENTI	-5103
UPDATE	-5104
PROJECT	-5105
IndexShard	-5106
constant	-5107
Compression	-5108
Enumer	-5109
Replacement	-5110
UTO	-5111
iw	-5112
Mutation	-5113
OptionRelId	-5114
avin	-5115
hebrew	-5116
mv	-5117
ROLE	-5118
payload	-5119
outer	-5120
Reason	-5121
dynamic	-5122
TRY	-5123
DataFrame	-5124
dia	-5125
Env	-5126
ks	-5127
cting	-5128
Beans	-5129
Exit	-5130
score	-5131
limitationType	-5132
TimeUnit	-5133
exists	-5134
myShow	-5135
Handlers	-5136
UTIL	-5137
Sample	-5138
Built	-5139
mise	-5140
TaskId	-5141
EXTEN	-5142
IDENTI	-5143
iles	-5144
native	-5145
TreePath	-5146
Off	-5147
Bootstrap	-5148
CommerceCurrency	-5149
MODI	-5150
KP	-5151
roots	-5152
STRU	-5153
InventoryAudit	-5154
lhs	-5155
setModifiedDate	-5156
lineNumber	-5157
DD	-5158
Configurations	-5159
tracker	-5160
moduleName	-5161
DIR	-5162
ItemService	-5163
BookmarksFolder	-5164
subtotal	-5165
methodCall	-5166
RST	-5167
JavaPsi	-5168
getNext	-5169
getBase	-5170
SourceRoot	-5171
Updates	-5172
checker	-5173
AddressRel	-5174
BUFFER	-5175
Self	-5176
Resolvable	-5177
rolment	-5178
SINGLE	-5179
authentic	-5180
board	-5181
Privilege	-5182
primaryKeyObj	-5183
braries	-5184
Permissions	-5185
Trail	-5186
adcast	-5187
percent	-5188
Reservation	-5189
AUTO	-5190
rewrite	-5191
FIRST	-5192
Replication	-5193
compression	-5194
multip	-5195
searcher	-5196
openSession	-5197
cmd	-5198
scribe	-5199
rift	-5200
Retry	-5201
KER	-5202
countByUuid	-5203
Should	-5204
Cost	-5205
Sw	-5206
metric	-5207
UsageInfo	-5208
ServiceRegistry	-5209
ero	-5210
AGER	-5211
free	-5212
Compare	-5213
SegmentsEntryRel	-5214
Db	-5215
cpInstanceId	-5216
currency	-5217
ses	-5218
vention	-5219
CountDown	-5220
Svn	-5221
Rewriter	-5222
Alignment	-5223
createTable	-5224
lash	-5225
SearchResult	-5226
Parts	-5227
getIn	-5228
equal	-5229
ATCH	-5230
EXEC	-5231
only	-5232
updateImpl	-5233
FieldMapper	-5234
lar	-5235
licable	-5236
tokenType	-5237
Fly	-5238
1_	-5239
setMax	-5240
PAC	-5241
Voc	-5242
Arrangement	-5243
Packages	-5244
PY	-5245
prent	-5246
Staged	-5247
SPE	-5248
SEPAR	-5249
Sensitive	-5250
ddmStructure	-5251
Go	-5252
Processed	-5253
course	-5254
candidates	-5255
real	-5256
Contents	-5257
gavin	-5258
MODEL	-5259
FileVersion	-5260
follower	-5261
CLO	-5262
DECI	-5263
randomIntBetween	-5264
STIC	-5265
getObject	-5266
valueType	-5267
qualifiedName	-5268
repoName	-5269
Canonical	-5270
Balloon	-5271
StateException	-5272
Given	-5273
mbstone	-5274
renderer	-5275
SSTableReader	-5276
gt	-5277
charAt	-5278
quantity	-5279
runner	-5280
planation	-5281
IDER	-5282
println	-5283
mappings	-5284
assertNull	-5285
gh	-5286
RuntimeException	-5287
Outer	-5288
nodeId	-5289
Df	-5290
LOY	-5291
beled	-5292
KEYSPACE	-5293
Variants	-5294
disable	-5295
runtime	-5296
chain	-5297
nextToken	-5298
contentType	-5299
MANAGER	-5300
coming	-5301
Serialization	-5302
modules	-5303
ADATA	-5304
lib	-5305
associ	-5306
MouseEvent	-5307
comb	-5308
Scalar	-5309
METADATA	-5310
BI	-5311
JPA	-5312
DECIMAL	-5313
"_	-5314
impl	-5315
optim	-5316
myVcs	-5317
permission	-5318
inputStream	-5319
NoteLocalService	-5320
COMPANY	-5321
PropertyName	-5322
subtotalDiscount	-5323
PROP	-5324
EntityName	-5325
izes	-5326
myList	-5327
ImmutableSet	-5328
ways	-5329
COMMENT	-5330
MediaType	-5331
SharedSession	-5332
strict	-5333
IndexSettings	-5334
Eval	-5335
ADDED	-5336
idd	-5337
oned	-5338
Cance	-5339
MARY	-5340
lear	-5341
cedure	-5342
Caching	-5343
DEPLOY	-5344
Device	-5345
rm	-5346
languageId	-5347
ToUse	-5348
ExportAction	-5349
FRO	-5350
FileEntryId	-5351
ssible	-5352
Functional	-5353
ScrollPane	-5354
policyName	-5355
VirtualOrder	-5356
targetType	-5357
Sizes	-5358
popu	-5359
getUn	-5360
canonical	-5361
_12	-5362
myResult	-5363
Removed	-5364
PropertiesSet	-5365
FileEntryService	-5366
loyee	-5367
Navigation	-5368
DOMAIN	-5369
BatchEngine	-5370
OptionRelService	-5371
eq	-5372
ha	-5373
ACC	-5374
button	-5375
MER	-5376
lapse	-5377
limiter	-5378
beanFactory	-5379
bit	-5380
IndexRequest	-5381
getTime	-5382
DAY	-5383
searchRequest	-5384
containingFile	-5385
NaN	-5386
cls	-5387
reque	-5388
jndi	-5389
NAMES	-5390
remaining	-5391
recei	-5392
Parsing	-5393
Coordinator	-5394
getReference	-5395
raction	-5396
icle	-5397
MAPPING	-5398
Cause	-5399
PsiAnnotation	-5400
Later	-5401
OptionService	-5402
Period	-5403
StepKey	-5404
MIT	-5405
Gadget	-5406
Health	-5407
browser	-5408
added	-5409
Unt	-5410
closed	-5411
throwable	-5412
ned	-5413
myComponent	-5414
JSONObject	-5415
Forward	-5416
cleanup	-5417
myTable	-5418
HttpResponse	-5419
mantic	-5420
myManager	-5421
neg	-5422
Combin	-5423
pp	-5424
Done	-5425
InProgress	-5426
Like	-5427
displayName	-5428
userService	-5429
Iteration	-5430
compressed	-5431
subject	-5432
Pom	-5433
ids	-5434
Already	-5435
myBuilder	-5436
LOAD	-5437
iddle	-5438
validation	-5439
Pipe	-5440
problem	-5441
Grouping	-5442
roles	-5443
DisplayPageEntry	-5444
AFTER	-5445
Invoker	-5446
COMPANYID	-5447
compiler	-5448
Mono	-5449
socket	-5450
resultSet	-5451
utdown	-5452
TYPES	-5453
MANAGE	-5454
was	-5455
Words	-5456
pag	-5457
Lay	-5458
math	-5459
Reflection	-5460
Connect	-5461
schemaName	-5462
CacheModel	-5463
invocation	-5464
MethodHandle	-5465
cri	-5466
TOKEN	-5467
ournal	-5468
Processors	-5469
Deprecation	-5470
SKU	-5471
DocValues	-5472
USTER	-5473
chars	-5474
IfNeeded	-5475
literal	-5476
Mater	-5477
Interrupted	-5478
33	-5479
testRe	-5480
FileCollection	-5481
grid	-5482
newValue	-5483
readOnly	-5484
AB	-5485
infos	-5486
CLUSTER	-5487
LevelClient	-5488
Refs	-5489
THOUT	-5490
WITHOUT	-5491
Presentable	-5492
CountDownLatch	-5493
offsets	-5494
serialized	-5495
configurable	-5496
JOB	-5497
scan	-5498
mySearch	-5499
MemoryContext	-5500
Free	-5501
MEM	-5502
evaluate	-5503
classType	-5504
SCO	-5505
ACT	-5506
Painless	-5507
Overrid	-5508
stalled	-5509
taskContext	-5510
timer	-5511
allback	-5512
PsiDirectory	-5513
TIES	-5514
ICON	-5515
minator	-5516
Quote	-5517
getCPAttachment	-5518
)"	-5519
KEEP	-5520
MILLIS	-5521
Gu	-5522
api	-5523
Keywords	-5524
TOP	-5525
Substitution	-5526
cursor	-5527
Ordinal	-5528
Foreground	-5529
stripe	-5530
Numbers	-5531
wrapped	-5532
Validate	-5533
getParameter	-5534
Complex	-5535
_123	-5536
getSession	-5537
OFF	-5538
ordinate	-5539
OLD	-5540
BaseImpl	-5541
Bindings	-5542
Nullability	-5543
ObjectInspector	-5544
SEARCH	-5545
Actual	-5546
setSelected	-5547
_14	-5548
Strict	-5549
Cpu	-5550
Builders	-5551
PublishDate	-5552
Maps	-5553
setDefault	-5554
"]"	-5555
UMENT	-5556
Private	-5557
cepted	-5558
Aggregate	-5559
VisualPosition	-5560
asca	-5561
Syntax	-5562
myValue	-5563
ArrayUtil	-5564
WRITE	-5565
Breaker	-5566
Focused	-5567
AtomicReference	-5568
analyzer	-5569
ving	-5570
LtD	-5571
cat	-5572
SEPARATOR	-5573
SHORT	-5574
FileEditor	-5575
VcsLog	-5576
KeyStore	-5577
--	-5578
PROV	-5579
RunConfiguration	-5580
Conjunction	-5581
UTE	-5582
segments	-5583
rounding	-5584
TRUE	-5585
fold	-5586
loop	-5587
CENT	-5588
Install	-5589
imeType	-5590
getMin	-5591
ParamUtil	-5592
Head	-5593
LICATION	-5594
rich	-5595
HttpHeaders	-5596
OperationContext	-5597
PI	-5598
SHOW	-5599
PRIMARY	-5600
CLU	-5601
Vocabulary	-5602
completion	-5603
GR	-5604
ascade	-5605
Imports	-5606
completed	-5607
Card	-5608
MethodCall	-5609
classNameService	-5610
zon	-5611
removeByUuid	-5612
stored	-5613
geometry	-5614
packageName	-5615
DELETE	-5616
Reduce	-5617
VARIABLE	-5618
Distance	-5619
fatal	-5620
Sibling	-5621
Checksum	-5622
getSettings	-5623
Assignable	-5624
Cleanup	-5625
ILD	-5626
decoder	-5627
Capability	-5628
qName	-5629
emptyList	-5630
driverContext	-5631
soft	-5632
exec	-5633
rhs	-5634
Recursive	-5635
LER	-5636
parseFrom	-5637
Spe	-5638
setting	-5639
backs	-5640
relation	-5641
HASH	-5642
quet	-5643
Canceled	-5644
DEPLOYMENT	-5645
IDENTIFIER	-5646
Capabilities	-5647
TimeMillis	-5648
TIN	-5649
Lists	-5650
mazon	-5651
FROM	-5652
mapperService	-5653
LocalServiceUtil	-5654
assetEntryQuery	-5655
ialized	-5656
Real	-5657
Hints	-5658
ClassType	-5659
criminator	-5660
ummy	-5661
ControlFlow	-5662
Rt	-5663
DDM	-5664
Gap	-5665
Where	-5666
await	-5667
Whitespace	-5668
shardRouting	-5669
getter	-5670
",	-5671
ValuesSource	-5672
DocumentManager	-5673
Ejb	-5674
Negative	-5675
Executable	-5676
RESULT	-5677
GroupIds	-5678
SL	-5679
startLine	-5680
BEAN	-5681
Undo	-5682
Formatting	-5683
_32	-5684
NumberOf	-5685
Std	-5686
dep	-5687
ross	-5688
ESTestCase	-5689
primaryTerm	-5690
InMillis	-5691
RESH	-5692
Generics	-5693
fetchByG	-5694
memState	-5695
Libraries	-5696
zen	-5697
Users	-5698
JsonSchema	-5699
AccountRole	-5700
DisplayContext	-5701
Working	-5702
indexer	-5703
powwowMeeting	-5704
tron	-5705
Ance	-5706
cost	-5707
Labeled	-5708
Different	-5709
dependent	-5710
lazy	-5711
IMPORT	-5712
Requested	-5713
descriptors	-5714
preferred	-5715
principal	-5716
_24	-5717
hide	-5718
TOOL	-5719
ENTRY	-5720
Amazon	-5721
unknown	-5722
Identifiable	-5723
singletonList	-5724
setDescription	-5725
CPK	-5726
audit	-5727
Manifest	-5728
validator	-5729
ggle	-5730
created	-5731
Wrapped	-5732
LITY	-5733
createFile	-5734
fromXContent	-5735
Addresses	-5736
getContext	-5737
ked	-5738
Clear	-5739
deploy	-5740
Repositories	-5741
Nulls	-5742
FileRank	-5743
Segments	-5744
myDelegate	-5745
getAsset	-5746
Requirement	-5747
cert	-5748
Effect	-5749
entityCache	-5750
getPartition	-5751
effective	-5752
getStartOffset	-5753
city	-5754
PLACE	-5755
Ancestor	-5756
beginTransaction	-5757
pool	-5758
allowed	-5759
sstables	-5760
TreeModel	-5761
Locator	-5762
Scrolling	-5763
PsiParameter	-5764
where	-5765
LockMode	-5766
illing	-5767
minimum	-5768
Vert	-5769
Unpack	-5770
Rewrite	-5771
CommerceMoney	-5772
fetchCommerce	-5773
OG	-5774
ider	-5775
dispatch	-5776
RegExp	-5777
iller	-5778
columnNames	-5779
JMS	-5780
ServiceImpl	-5781
ds	-5782
myData	-5783
day	-5784
31	-5785
SSTables	-5786
SELECTION	-5787
getModelClass	-5788
lied	-5789
iming	-5790
Download	-5791
ccVersion	-5792
background	-5793
peak	-5794
MockHttp	-5795
Using	-5796
inters	-5797
Authentic	-5798
Remo	-5799
submit	-5800
VEL	-5801
Insets	-5802
disposable	-5803
email	-5804
lifecycle	-5805
routingTable	-5806
FetchBy	-5807
Payload	-5808
live	-5809
acing	-5810
arDown	-5811
nowledged	-5812
startElement	-5813
Conflicts	-5814
SNA	-5815
REALM	-5816
running	-5817
Writable	-5818
Applicable	-5819
SNAP	-5820
Configurator	-5821
XPath	-5822
indexId	-5823
SecurityDomain	-5824
Macro	-5825
BaseModel	-5826
MethodName	-5827
NEXT	-5828
getB	-5829
rozen	-5830
getTotal	-5831
Unsupported	-5832
blogsEntry	-5833
ColumnMetadata	-5834
NS	-5835
Three	-5836
tempDir	-5837
visitPy	-5838
enrolment	-5839
MON	-5840
NlsSafe	-5841
Rollback	-5842
assertSame	-5843
hook	-5844
Placeholder	-5845
sessionId	-5846
injected	-5847
UsageEntry	-5848
API	-5849
getBy	-5850
onResponse	-5851
TAR	-5852
Optimizer	-5853
Expando	-5854
WebSocket	-5855
PositionCount	-5856
MB	-5857
Saml	-5858
groupBy	-5859
Buffered	-5860
scheduler	-5861
flue	-5862
JavaPsiFacade	-5863
tot	-5864
decor	-5865
export	-5866
ula	-5867
media	-5868
Registered	-5869
expectedType	-5870
"}"	-5871
partitioning	-5872
BuildOperation	-5873
FailedException	-5874
Days	-5875
keep	-5876
indexed	-5877
cr	-5878
LEG	-5879
PROVIDER	-5880
myStart	-5881
VM	-5882
GroupBy	-5883
RequestOptions	-5884
Blocked	-5885
ACCESS	-5886
jor	-5887
TARGET	-5888
Credentials	-5889
Grant	-5890
Advice	-5891
setPrimaryKey	-5892
lover	-5893
DumbAware	-5894
ived	-5895
car	-5896
ReturnValue	-5897
organization	-5898
BILITY	-5899
CProductId	-5900
Filtering	-5901
Ingest	-5902
determine	-5903
declared	-5904
cessary	-5905
ColumnStatistics	-5906
LIMIT	-5907
ORTED	-5908
navig	-5909
PROPERTIES	-5910
NativeQuery	-5911
marsh	-5912
Ordered	-5913
DITION	-5914
delay	-5915
inality	-5916
SETTINGS	-5917
fileEntryId	-5918
codec	-5919
HiveClientConfig	-5920
ased	-5921
Association	-5922
rulesConjunction	-5923
high	-5924
OutputBuffer	-5925
SCHEMA	-5926
INITIAL	-5927
fluence	-5928
ActionFuture	-5929
GrExpression	-5930
AccessException	-5931
Weak	-5932
collector	-5933
coordinator	-5934
Does	-5935
SHOT	-5936
TAB	-5937
Absent	-5938
Painter	-5939
Physical	-5940
subclass	-5941
zzUnpack	-5942
rate	-5943
ditor	-5944
defined	-5945
ield	-5946
RangeMarker	-5947
getSelection	-5948
myH	-5949
Der	-5950
SNAPSHOT	-5951
CTCollection	-5952
ONLY	-5953
Then	-5954
same	-5955
pectation	-5956
wr	-5957
ansition	-5958
composite	-5959
ryp	-5960
OPEN	-5961
pane	-5962
DomElement	-5963
FeaturesConfig	-5964
GroupedEntry	-5965
EQU	-5966
mBits	-5967
StreamOutput	-5968
focus	-5969
nemon	-5970
AtomicLong	-5971
components	-5972
managementClient	-5973
INFO	-5974
duration	-5975
Completed	-5976
firm	-5977
COMPAR	-5978
Inputs	-5979
TokenSet	-5980
quote	-5981
LogicalPosition	-5982
serve	-5983
precision	-5984
taskId	-5985
sources	-5986
apt	-5987
ceive	-5988
dialect	-5989
AMImageEntry	-5990
getAnnotation	-5991
PACK	-5992
argin	-5993
COVERY	-5994
dead	-5995
getS	-5996
usted	-5997
initValue	-5998
expectedValues	-5999
Repo	-6000
isInitialized	-6001
serviceRegistry	-6002
Cho	-6003
explicit	-6004
assetListEntryId	-6005
FICATION	-6006
INVALID	-6007
ilation	-6008
MPLE	-6009
myView	-6010
Exprent	-6011
ClassNames	-6012
LEVEL	-6013
ench	-6014
flat	-6015
QName	-6016
shippingDiscount	-6017
Ke	-6018
CONSTAN	-6019
BatchSize	-6020
Capture	-6021
gc	-6022
myDe	-6023
Equivalent	-6024
CaretModel	-6025
OfLength	-6026
REMOTE	-6027
itance	-6028
Packaging	-6029
Fast	-6030
MethodSignature	-6031
Unsafe	-6032
below	-6033
FAI	-6034
OUTPUT	-6035
DOWN	-6036
FieldData	-6037
YE	-6038
myUse	-6039
NaturalId	-6040
Prop	-6041
Trash	-6042
requestId	-6043
getAttributes	-6044
Bag	-6045
CAST	-6046
closure	-6047
AssetCategoryRel	-6048
Affected	-6049
BLAN	-6050
BLANK	-6051
Public	-6052
psiMethod	-6053
Superclass	-6054
occurrence	-6055
getTree	-6056
rip	-6057
FileUtil	-6058
PathElement	-6059
ii	-6060
NoSuchEntry	-6061
HOST	-6062
utode	-6063
Filtered	-6064
mySource	-6065
SED	-6066
Integr	-6067
getCPTaxCategory	-6068
DY	-6069
doIn	-6070
FORMATTER	-6071
Iso	-6072
html	-6073
IM	-6074
Rele	-6075
subsystem	-6076
fixed	-6077
Partitions	-6078
stub	-6079
Stroke	-6080
PageSource	-6081
PortletURL	-6082
XMLExtended	-6083
BigInteger	-6084
ResolvableType	-6085
War	-6086
Quant	-6087
Unary	-6088
setModel	-6089
objectInput	-6090
Absolute	-6091
billing	-6092
Specific	-6093
tearDown	-6094
startIndex	-6095
AGG	-6096
DoWhileStatement	-6097
OPTIONS	-6098
aggregations	-6099
sup	-6100
Indexing	-6101
enchmark	-6102
Tracking	-6103
formatter	-6104
getLogger	-6105
upsertCommerce	-6106
44	-6107
Pinot	-6108
writeScope	-6109
ilde	-6110
Instant	-6111
Jta	-6112
XMLStream	-6113
ism	-6114
PUB	-6115
Exist	-6116
Closeable	-6117
Documentation	-6118
Duplicates	-6119
edModel	-6120
recurrence	-6121
xContentRegistry	-6122
>>	-6123
TheFly	-6124
Ag	-6125
Keep	-6126
typeName	-6127
suite	-6128
targets	-6129
gon	-6130
started	-6131
Some	-6132
given	-6133
TAIN	-6134
itude	-6135
DebugProcess	-6136
setAttribute	-6137
ope	-6138
retri	-6139
AndGet	-6140
Special	-6141
QueryPos	-6142
Synchronization	-6143
thmet	-6144
hit	-6145
WIN	-6146
ResourceBundle	-6147
rees	-6148
ModuleComponent	-6149
OAuthApplication	-6150
Aspect	-6151
sStatsUser	-6152
estimated	-6153
bed	-6154
aseOrder	-6155
General	-6156
queries	-6157
thenReturn	-6158
urer	-6159
isStatic	-6160
Unfiltered	-6161
Wal	-6162
odo	-6163
andra	-6164
Compatible	-6165
ExpandoBridge	-6166
addTo	-6167
Procedure	-6168
wk	-6169
LOCATION	-6170
dt	-6171
concrete	-6172
getInt	-6173
localDate	-6174
catalogMetadata	-6175
Dirs	-6176
muta	-6177
binder	-6178
workflow	-6179
APPLICATION	-6180
Emp	-6181
Targets	-6182
Upgrade	-6183
Mask	-6184
style	-6185
Constru	-6186
ircu	-6187
getScope	-6188
oduction	-6189
ircuit	-6190
TT	-6191
thmetic	-6192
DataPoint	-6193
ConnectorId	-6194
maxSubscription	-6195
Explain	-6196
ufact	-6197
instantiator	-6198
PricingClassId	-6199
BAR	-6200
IfAbsent	-6201
ActionRequest	-6202
LINES	-6203
metrics	-6204
AnnotationMethod	-6205
Pl	-6206
Marked	-6207
Tools	-6208
EvalContext	-6209
distribution	-6210
LocalServiceImpl	-6211
PyType	-6212
myLine	-6213
ClassNameId	-6214
LITER	-6215
ample	-6216
Bottom	-6217
Temporary	-6218
Plus	-6219
ufacturer	-6220
HighLevelClient	-6221
PluginDescriptor	-6222
OPTI	-6223
OPTIMI	-6224
findByA	-6225
Generate	-6226
checksum	-6227
contributor	-6228
ImageSelector	-6229
choice	-6230
Fragments	-6231
parameterTypes	-6232
ones	-6233
setCompanyId	-6234
_13	-6235
nding	-6236
entryId	-6237
ClientException	-6238
Mv	-6239
Severity	-6240
ExtensionPoint	-6241
FRA	-6242
trust	-6243
WAIT	-6244
nowIn	-6245
LITERAL	-6246
Tombstone	-6247
ProxyProvider	-6248
poser	-6249
Seconds	-6250
keyType	-6251
isAssignable	-6252
oost	-6253
utodetect	-6254
DataBuffer	-6255
PropertyAccessor	-6256
Bus	-6257
Fore	-6258
sively	-6259
Translator	-6260
bro	-6261
capture	-6262
createIndex	-6263
aseOrderNumber	-6264
erce	-6265
factor	-6266
Broadcast	-6267
Transient	-6268
AsString	-6269
lang	-6270
Report	-6271
clus	-6272
BufferSize	-6273
Definitions	-6274
WriteAction	-6275
adapter	-6276
LOB	-6277
boved	-6278
bovedot	-6279
partitioner	-6280
setCPTaxCategory	-6281
WHI	-6282
getMetadata	-6283
ByUuidAndGroupId	-6284
ByteSize	-6285
DataType	-6286
mySelected	-6287
park	-6288
OrderEntry	-6289
RestRequest	-6290
SqlUpdate	-6291
Occurrences	-6292
Article	-6293
RON	-6294
btree	-6295
PartNumber	-6296
Introduce	-6297
ROWS	-6298
Within	-6299
bookmark	-6300
DeployAuth	-6301
Partitioned	-6302
setProperty	-6303
Called	-6304
newInstance	-6305
SIC	-6306
mat	-6307
Vars	-6308
Reload	-6309
analyze	-6310
FoldRegion	-6311
ability	-6312
belowdot	-6313
reater	-6314
PACKAGE	-6315
Verifier	-6316
finished	-6317
exceptions	-6318
cons	-6319
POINT	-6320
covered	-6321
itute	-6322
myUpdate	-6323
ArgumentList	-6324
hance	-6325
WARNING	-6326
Messaging	-6327
getParentOfType	-6328
Tip	-6329
ix	-6330
Margin	-6331
stroke	-6332
details	-6333
blocked	-6334
randomAlpha	-6335
TypeInfo	-6336
getToken	-6337
Consistency	-6338
canBe	-6339
ACTIVE	-6340
patterns	-6341
ACY	-6342
CONSTANT	-6343
Disposer	-6344
retention	-6345
manufacturer	-6346
COR	-6347
Spark	-6348
mutation	-6349
Accumulator	-6350
getVirtualFile	-6351
_0_0	-6352
VersionId	-6353
columnTypes	-6354
StatsEstimate	-6355
Blocking	-6356
LocalQuickFix	-6357
TemplateId	-6358
ColumnName	-6359
XY	-6360
UpTo	-6361
excluded	-6362
Interfaces	-6363
dfa	-6364
Alive	-6365
setCPAttachment	-6366
Urls	-6367
Ty	-6368
TREE	-6369
getLog	-6370
myTest	-6371
PagesBuilder	-6372
uzz	-6373
MethodId	-6374
newExpression	-6375
gges	-6376
aEntity	-6377
fetchByCompanyId	-6378
COLON	-6379
helper	-6380
jsonObject	-6381
ContentType	-6382
requestFocus	-6383
Hover	-6384
Migration	-6385
toolWindow	-6386
Enter	-6387
STICS	-6388
getCache	-6389
Unchecked	-6390
idAllocator	-6391
FAL	-6392
lel	-6393
choo	-6394
llel	-6395
Eql	-6396
Ret	-6397
hole	-6398
ALY	-6399
ASSIGN	-6400
resolveResult	-6401
Keymap	-6402
Convention	-6403
ANALY	-6404
Scoped	-6405
dc	-6406
Issue	-6407
Categories	-6408
GROUPID	-6409
UsageView	-6410
Verification	-6411
escapedModel	-6412
GROUND	-6413
removed	-6414
Notation	-6415
sProvider	-6416
getTitle	-6417
findModel	-6418
MultiValue	-6419
Audi	-6420
setter	-6421
bf	-6422
Dig	-6423
soap	-6424
STAND	-6425
ServiceWrapper	-6426
INPUT	-6427
Insight	-6428
Fraction	-6429
metaData	-6430
orderDate	-6431
Constructing	-6432
textRange	-6433
lux	-6434
gtin	-6435
OFFSET	-6436
elementTo	-6437
light	-6438
Handling	-6439
REA	-6440
BINARY	-6441
myAction	-6442
EE	-6443
JD	-6444
CES	-6445
ANCE	-6446
WORK	-6447
oting	-6448
platform	-6449
copyOf	-6450
ServiceUtil	-6451
cpInstanceUuid	-6452
FAIL	-6453
COMMA	-6454
expanded	-6455
setEnabled	-6456
Conditional	-6457
getDisplayName	-6458
prox	-6459
Thrift	-6460
jndiName	-6461
Metastore	-6462
PriceEntries	-6463
mavenProject	-6464
onedDateTime	-6465
MINUTE	-6466
ingestDocument	-6467
partial	-6468
artifacts	-6469
dpOrig	-6470
bundleContext	-6471
categor	-6472
relativePath	-6473
prepared	-6474
RandomTestUtil	-6475
FALSE	-6476
FAILED	-6477
psiAnnotation	-6478
classpath	-6479
Travers	-6480
initialConfig	-6481
serviceName	-6482
getSize	-6483
DESC	-6484
Props	-6485
PriceModifierId	-6486
encoder	-6487
matched	-6488
ReadAction	-6489
Converters	-6490
accountEntryId	-6491
getResponse	-6492
NotE	-6493
Inser	-6494
isSet	-6495
retrie	-6496
commandLine	-6497
CLUDE	-6498
Injector	-6499
RevisionNumber	-6500
LAP	-6501
REGI	-6502
invalidate	-6503
unmodifiable	-6504
nul	-6505
sAnd	-6506
STATI	-6507
Multipart	-6508
ITEM	-6509
lices	-6510
tained	-6511
STATISTICS	-6512
PaymentMethodKey	-6513
SCOPE	-6514
modifierList	-6515
Shel	-6516
tags	-6517
Readable	-6518
getSub	-6519
Arrow	-6520
CY	-6521
Mu	-6522
Train	-6523
queryRunner	-6524
Cookie	-6525
credential	-6526
CASE	-6527
seqNo	-6528
Hyperlink	-6529
buildOperation	-6530
CPTaxCategoryId	-6531
plugins	-6532
getShort	-6533
Documents	-6534
TAL	-6535
home	-6536
changeset	-6537
IDE	-6538
ConsoleView	-6539
newState	-6540
oto	-6541
OptionId	-6542
BytecodeBlock	-6543
DOW	-6544
_23	-6545
events	-6546
ze	-6547
jdk	-6548
Separa	-6549
WINDOW	-6550
tached	-6551
STANDARD	-6552
Acknowledged	-6553
Ml	-6554
discovery	-6555
testClass	-6556
00	-6557
CATEG	-6558
Hidden	-6559
totype	-6560
annotated	-6561
conversion	-6562
tableMetadata	-6563
TypeParameters	-6564
Limits	-6565
URATION	-6566
renderRequest	-6567
uff	-6568
ByType	-6569
FIELDS	-6570
Asc	-6571
lexer	-6572
Vari	-6573
pable	-6574
scriptScope	-6575
Vfs	-6576
idea	-6577
AndSet	-6578
compatible	-6579
QUO	-6580
Annota	-6581
LEGACY	-6582
seed	-6583
UIUtil	-6584
PARENTHE	-6585
matching	-6586
HTML	-6587
myNode	-6588
buildPages	-6589
references	-6590
shake	-6591
rottle	-6592
HA	-6593
bootstrap	-6594
MutableTreeNode	-6595
setResource	-6596
operatorContext	-6597
rough	-6598
Registrar	-6599
gro	-6600
digest	-6601
TestRule	-6602
PyExpression	-6603
PsiModifierList	-6604
tables	-6605
Leases	-6606
aggregate	-6607
operationContext	-6608
Hasher	-6609
scheduled	-6610
LogFactoryUtil	-6611
Caps	-6612
history	-6613
readString	-6614
CONTAIN	-6615
Branches	-6616
Ordering	-6617
purchasable	-6618
myIndex	-6619
GEX	-6620
REGEX	-6621
iness	-6622
deprec	-6623
signed	-6624
XmlElement	-6625
QUEUE	-6626
riend	-6627
PROCESS	-6628
BINDING	-6629
ServiceTracker	-6630
SuperClass	-6631
COLLAP	-6632
conflicts	-6633
Since	-6634
GA	-6635
cli	-6636
std	-6637
Union	-6638
keyed	-6639
ounded	-6640
Encoder	-6641
Importer	-6642
manticScope	-6643
ExportTask	-6644
Serialized	-6645
responseType	-6646
commerceRegionId	-6647
IndexTemplate	-6648
Mnemon	-6649
Expired	-6650
repaint	-6651
TransactionId	-6652
CTS	-6653
yy	-6654
props	-6655
ImportTask	-6656
ACCOUNT	-6657
TRUST	-6658
bottom	-6659
myPath	-6660
oldValue	-6661
getRequest	-6662
getE	-6663
Marsh	-6664
InspectionTool	-6665
nest	-6666
languageLevel	-6667
translog	-6668
sCache	-6669
duplicate	-6670
filterCount	-6671
gap	-6672
Expanded	-6673
Recei	-6674
substitute	-6675
PROTO	-6676
Locations	-6677
clause	-6678
Listenable	-6679
typeParameter	-6680
Checkbox	-6681
myProgress	-6682
Ivy	-6683
INDENT	-6684
ScrollBar	-6685
Written	-6686
naturalId	-6687
SingleValue	-6688
PUBLIC	-6689
ArrayType	-6690
parentFolderId	-6691
Exec	-6692
myKey	-6693
probePages	-6694
myError	-6695
DESCRIPTOR	-6696
implementation	-6697
illi	-6698
uman	-6699
newNode	-6700
Resolvers	-6701
cProductId	-6702
unwrap	-6703
TopLevel	-6704
parentDisposable	-6705
Sim	-6706
TokenTypes	-6707
Unresolved	-6708
encryption	-6709
Cu	-6710
findFile	-6711
JsonCodec	-6712
changeList	-6713
outputBuffer	-6714
Initialization	-6715
Vertical	-6716
pluginId	-6717
ClassPath	-6718
setStatus	-6719
EntityCache	-6720
arge	-6721
rewritten	-6722
Calculation	-6723
DeletionTime	-6724
VcsException	-6725
FILES	-6726
rupt	-6727
resis	-6728
IsNull	-6729
POST	-6730
Analyze	-6731
AutoTag	-6732
endLine	-6733
COMPARATOR	-6734
fileSystem	-6735
wner	-6736
MEMORY	-6737
FLO	-6738
licated	-6739
JoinRequest	-6740
>"	-6741
myNew	-6742
unpack	-6743
DIRECTOR	-6744
ev	-6745
EQUAL	-6746
Center	-6747
SqlType	-6748
defaults	-6749
DOT	-6750
okies	-6751
DECL	-6752
bigArrays	-6753
mac	-6754
Make	-6755
rowCount	-6756
getOrCreate	-6757
ThreadContext	-6758
ef	-6759
Peer	-6760
Admin	-6761
Encode	-6762
secure	-6763
populate	-6764
DEPEN	-6765
HttpClient	-6766
txn	-6767
ControllerClient	-6768
RangeHighlighter	-6769
dom	-6770
inspection	-6771
patial	-6772
Recursively	-6773
columnLabel	-6774
NlsContexts	-6775
RESO	-6776
ByteSizeValue	-6777
cpInstanceFinder	-6778
blocks	-6779
Editable	-6780
ityState	-6781
wm	-6782
ForTesting	-6783
och	-6784
Collectors	-6785
GroupRelService	-6786
fetchByUUID	-6787
ournalArticle	-6788
COMPLE	-6789
BeanName	-6790
docCount	-6791
getOffset	-6792
Ops	-6793
LBRACE	-6794
addCPInstance	-6795
Benchmark	-6796
Assignments	-6797
getCollection	-6798
Src	-6799
osed	-6800
DoesNot	-6801
suspend	-6802
ColorsScheme	-6803
Confirm	-6804
Markers	-6805
semanticScope	-6806
Responses	-6807
JUnit	-6808
myMouse	-6809
DialogWrapper	-6810
LinkService	-6811
dataSourceNode	-6812
SUPP	-6813
VENT	-6814
portletURL	-6815
dataFolder	-6816
Ready	-6817
criteriaExecutor	-6818
latest	-6819
testUpdate	-6820
pl	-6821
CLAS	-6822
MILLISECONDS	-6823
arr	-6824
inser	-6825
Modifiers	-6826
AutoTagger	-6827
Flat	-6828
LAST	-6829
COLLAPSE	-6830
VFile	-6831
SOCKET	-6832
Regular	-6833
deletion	-6834
CONDITION	-6835
setUserId	-6836
getDe	-6837
preter	-6838
Entities	-6839
NoteService	-6840
myMap	-6841
Ep	-6842
izard	-6843
ByUser	-6844
TestEntity	-6845
CommerceContext	-6846
adjust	-6847
ProcessHandler	-6848
LogManager	-6849
ThemeDisplay	-6850
direct	-6851
MIC	-6852
_1_	-6853
BytesRef	-6854
TRANSACTION	-6855
indexService	-6856
ircuitBreaker	-6857
OM	-6858
Caches	-6859
Trust	-6860
Embedded	-6861
DIRECTORY	-6862
fg	-6863
TupleDomain	-6864
VirtualOrderItem	-6865
argumentList	-6866
PED	-6867
EnumSet	-6868
Candidates	-6869
getCPOption	-6870
THRESH	-6871
dbexpected	-6872
Materialized	-6873
PersistenceUnit	-6874
BASIC	-6875
MARKER	-6876
adow	-6877
queued	-6878
grouping	-6879
unch	-6880
icted	-6881
Always	-6882
Inters	-6883
requency	-6884
JLabel	-6885
concat	-6886
EXTENSION	-6887
orderStatus	-6888
highlightInfo	-6889
ParameterInfo	-6890
receiver	-6891
VisualLine	-6892
myRepository	-6893
CC	-6894
MV	-6895
CNI	-6896
MCNI	-6897
Fixes	-6898
ServletContext	-6899
annotationList	-6900
eresis	-6901
AssetEntryUsage	-6902
Todo	-6903
HOUR	-6904
caretOffset	-6905
BlogsStatsUser	-6906
Possible	-6907
shippingAmount	-6908
FORM	-6909
uess	-6910
COMMIT	-6911
packed	-6912
PyClass	-6913
CARD	-6914
lored	-6915
Direction	-6916
licenseState	-6917
deleted	-6918
CONNECTOR	-6919
parentCommerce	-6920
|=	-6921
typeElement	-6922
acquire	-6923
RollupJob	-6924
SUF	-6925
Separate	-6926
getParameters	-6927
ListenableFuture	-6928
KS	-6929
testAdd	-6930
getCProduct	-6931
THRESHOLD	-6932
mySelection	-6933
REL	-6934
resp	-6935
PARENTHESES	-6936
Until	-6937
accountRole	-6938
41	-6939
alance	-6940
ClassPK	-6941
AccountEntryId	-6942
LUGIN	-6943
getBytes	-6944
ROLL	-6945
Inspections	-6946
Ok	-6947
ategies	-6948
encoding	-6949
stantiate	-6950
XmlAttribute	-6951
EntryService	-6952
myW	-6953
BREA	-6954
hits	-6955
Clone	-6956
Timing	-6957
pectations	-6958
TU	-6959
ordered	-6960
clock	-6961
Audited	-6962
Cancellable	-6963
DESCRIPTION	-6964
SnapshotResponse	-6965
combine	-6966
IfNecessary	-6967
sn	-6968
Startup	-6969
Determin	-6970
Invoke	-6971
Toggle	-6972
PROTOCOL	-6973
Inbound	-6974
Subject	-6975
ors	-6976
HandlerMethod	-6977
attachment	-6978
aring	-6979
curence	-6980
billingAddressId	-6981
SERT	-6982
ThreadLocal	-6983
TaskExecutor	-6984
cOrig	-6985
ARGUMENT	-6986
MarkupModel	-6987
ITY	-6988
small	-6989
DEFINI	-6990
explanation	-6991
Interceptors	-6992
DU	-6993
Bid	-6994
spill	-6995
SUBSYSTEM	-6996
LinkedHashMap	-6997
comparison	-6998
TableLayout	-6999
warningCollector	-7000
DEFINITION	-7001
Compilation	-7002
valuesSource	-7003
getPreferredSize	-7004
CQL	-7005
edge	-7006
JoinNode	-7007
Retries	-7008
wildcard	-7009
Trip	-7010
addCPDefinition	-7011
")"	-7012
VED	-7013
arity	-7014
acket	-7015
myIcon	-7016
callable	-7017
DataProvider	-7018
SystemId	-7019
Versioned	-7020
JoinColumn	-7021
Dummy	-7022
Known	-7023
divid	-7024
phone	-7025
DfType	-7026
StartTime	-7027
histogram	-7028
_10	-7029
Insn	-7030
STRATEG	-7031
getList	-7032
OnTheFly	-7033
Concurrency	-7034
nl	-7035
ivo	-7036
Requires	-7037
Buf	-7038
Ut	-7039
Let	-7040
Deleg	-7041
responses	-7042
Readers	-7043
getError	-7044
IndentOptions	-7045
bad	-7046
Automat	-7047
CalendarBookings	-7048
Mix	-7049
forced	-7050
TableModel	-7051
SHARD	-7052
ifica	-7053
indexRequest	-7054
Every	-7055
PluginId	-7056
SqlFunction	-7057
vs	-7058
Reset	-7059
Polygon	-7060
constraints	-7061
43	-7062
REQUI	-7063
ributed	-7064
nan	-7065
grave	-7066
border	-7067
Sent	-7068
getBody	-7069
RECOVERY	-7070
Trailing	-7071
snapshotId	-7072
Records	-7073
LoggerFactory	-7074
Ct	-7075
brace	-7076
typeParameters	-7077
SideSetup	-7078
ModelResource	-7079
visited	-7080
MultiMap	-7081
OptionName	-7082
projectPath	-7083
done	-7084
getActive	-7085
IndexWriter	-7086
featuresConfig	-7087
DataKeys	-7088
isAvailable	-7089
resultList	-7090
META	-7091
myScope	-7092
physical	-7093
ValueType	-7094
assertNot	-7095
startObject	-7096
Combinations	-7097
ObjectMapper	-7098
registration	-7099
getCPOptionValue	-7100
uncate	-7101
iterable	-7102
offsetTo	-7103
Lang	-7104
ivot	-7105
vars	-7106
SUFFIX	-7107
Outside	-7108
isPresent	-7109
getIdentifier	-7110
Inlay	-7111
Verify	-7112
ggested	-7113
randomFrom	-7114
thenBranch	-7115
getLocation	-7116
ManagerConfig	-7117
vg	-7118
cql	-7119
allDay	-7120
getCustom	-7121
["	-7122
resolution	-7123
typeManager	-7124
idget	-7125
AGGREG	-7126
DataRecord	-7127
It	-7128
ster	-7129
SCRIPT	-7130
TotalMemory	-7131
wrf	-7132
reaterThan	-7133
CPInstanceUuid	-7134
Busy	-7135
HIVE	-7136
"<	-7137
isTrue	-7138
getExpression	-7139
uring	-7140
testCreate	-7141
velope	-7142
getCounter	-7143
42	-7144
LD	-7145
INITI	-7146
quent	-7147
Exclus	-7148
reverse	-7149
Inherited	-7150
ClassNameService	-7151
Ld	-7152
Ldap	-7153
Varch	-7154
Varchar	-7155
Cancelled	-7156
RESOL	-7157
defaultLocale	-7158
admin	-7159
WithNull	-7160
MappedFieldType	-7161
Jndi	-7162
getVariable	-7163
Middle	-7164
Destroy	-7165
Handles	-7166
POSITION	-7167
PoolSize	-7168
getPreferredName	-7169
served	-7170
Inheritance	-7171
CPInstanceId	-7172
tm	-7173
mas	-7174
strings	-7175
PARAMETERS	-7176
Typing	-7177
FIND	-7178
dete	-7179
XPack	-7180
PLUGIN	-7181
Compiled	-7182
findElement	-7183
refs	-7184
Through	-7185
searchScope	-7186
AsMap	-7187
structure	-7188
Edges	-7189
Formula	-7190
Transfer	-7191
sourceIndex	-7192
Instantiator	-7193
ChangesetEntry	-7194
SKUCombinations	-7195
ols	-7196
SPLI	-7197
logy	-7198
rase	-7199
myOptions	-7200
DBC	-7201
worker	-7202
UserService	-7203
coverImage	-7204
myListeners	-7205
setUserName	-7206
pressor	-7207
written	-7208
redirect	-7209
XContentType	-7210
CPInstanceFinder	-7211
Ssl	-7212
axb	-7213
inPos	-7214
Stu	-7215
Attach	-7216
getTask	-7217
STRATEGY	-7218
ANT	-7219
Instances	-7220
PsiCodeBlock	-7221
getProperties	-7222
included	-7223
refElement	-7224
CAPA	-7225
ester	-7226
Cannot	-7227
Customer	-7228
isDefault	-7229
SW	-7230
BitSet	-7231
Enumerator	-7232
parentNode	-7233
PrestoSpark	-7234
getEndOffset	-7235
PrimaryTerm	-7236
getRectangle	-7237
Spatial	-7238
decoded	-7239
limited	-7240
portletRequest	-7241
YEAR	-7242
keycode	-7243
Msg	-7244
FLOAT	-7245
INITIALI	-7246
AccountRelFinder	-7247
InventoryService	-7248
needs	-7249
contents	-7250
checkState	-7251
CacheKey	-7252
getTextRange	-7253
Discriminator	-7254
ay	-7255
Ari	-7256
jun	-7257
edit	-7258
ordering	-7259
errorMessage	-7260
hdfs	-7261
ected	-7262
VALUES	-7263
riendly	-7264
capacity	-7265
myOriginal	-7266
Cass	-7267
XmlFile	-7268
Exclusive	-7269
httpClient	-7270
SourceFactory	-7271
EntityPersister	-7272
BATCH	-7273
ForFile	-7274
localNode	-7275
ProtocolVersion	-7276
Now	-7277
Slash	-7278
myCb	-7279
generic	-7280
InnerClass	-7281
runSQL	-7282
scal	-7283
Delayed	-7284
quick	-7285
Cassandra	-7286
columnType	-7287
myProperties	-7288
CONFIGURATION	-7289
toSoap	-7290
HANDLER	-7291
myCached	-7292
="	-7293
outbound	-7294
MISS	-7295
Billing	-7296
privile	-7297
getBuild	-7298
Transformation	-7299
SHA	-7300
adapt	-7301
ActionCallback	-7302
Via	-7303
nowInSec	-7304
ackson	-7305
oTime	-7306
Compact	-7307
fragments	-7308
threshold	-7309
ModifierProperty	-7310
LICY	-7311
POLICY	-7312
Extends	-7313
Removal	-7314
getAudit	-7315
writeLong	-7316
minQuantity	-7317
PSI	-7318
Jobs	-7319
ReaderContext	-7320
getQualifiedName	-7321
globalCheckpoint	-7322
embed	-7323
targetElement	-7324
Collapse	-7325
XContentRegistry	-7326
LET	-7327
NOTI	-7328
Autow	-7329
FINAL	-7330
Outbound	-7331
createParser	-7332
xContentType	-7333
SEN	-7334
Network	-7335
Spacing	-7336
getLanguage	-7337
aste	-7338
imap	-7339
members	-7340
MX	-7341
DfaValue	-7342
factories	-7343
setColumn	-7344
CacheMode	-7345
myId	-7346
orith	-7347
getRaw	-7348
DocComment	-7349
Authorization	-7350
aaEntity	-7351
insidepart	-7352
ViewProvider	-7353
gorith	-7354
handled	-7355
FileVersionDiff	-7356
Pushdown	-7357
BookmarksEntry	-7358
May	-7359
Latest	-7360
fetchByExternal	-7361
Colored	-7362
Printer	-7363
Detection	-7364
SearchPhase	-7365
keyspaceName	-7366
METHODS	-7367
cpTaxCategoryId	-7368
going	-7369
ByFile	-7370
WithTime	-7371
ElementTypes	-7372
functionName	-7373
distinct	-7374
findClass	-7375
Evaluation	-7376
Serde	-7377
ancestor	-7378
detector	-7379
edSearch	-7380
Suggestion	-7381
requestCallback	-7382
Needed	-7383
lockMode	-7384
docs	-7385
rowse	-7386
undant	-7387
getPresentable	-7388
jo	-7389
IGH	-7390
IGHT	-7391
king	-7392
sens	-7393
FQ	-7394
testNo	-7395
keyword	-7396
fallback	-7397
elseBranch	-7398
ObjectUtils	-7399
PortletRequest	-7400
rem	-7401
Muta	-7402
sink	-7403
locations	-7404
CommerceOrders	-7405
VInt	-7406
regex	-7407
normalize	-7408
Successful	-7409
Flux	-7410
GLOB	-7411
Streams	-7412
retrieve	-7413
ProjectPath	-7414
requests	-7415
fileCollection	-7416
BUILDER	-7417
Promise	-7418
disabled	-7419
HttpMethod	-7420
filterFindByG	-7421
attributeNames	-7422
Influence	-7423
SUPPORTED	-7424
PackageName	-7425
Highlighters	-7426
AccountGroupRel	-7427
ApiStatus	-7428
Decorated	-7429
setCounter	-7430
PsiJavaCode	-7431
AutoEscape	-7432
Sn	-7433
generation	-7434
Miss	-7435
RULE	-7436
OrNull	-7437
unregister	-7438
stateMachine	-7439
originalElement	-7440
JDK	-7441
Compat	-7442
SCHEME	-7443
uriVariables	-7444
versed	-7445
Evaluate	-7446
andOperator	-7447
FOL	-7448
insets	-7449
serial	-7450
batchEngine	-7451
CLASSES	-7452
DataInput	-7453
myPattern	-7454
outputType	-7455
getModifiedDate	-7456
"."	-7457
WaitFor	-7458
visitElement	-7459
jvm	-7460
objects	-7461
payment	-7462
Gau	-7463
atio	-7464
AllIcons	-7465
IGN	-7466
CUST	-7467
shortcut	-7468
Links	-7469
Collect	-7470
getCreateDate	-7471
Accept	-7472
Gc	-7473
Employee	-7474
myCustom	-7475
Coordinate	-7476
newElement	-7477
BUG	-7478
Restrictions	-7479
Ctx	-7480
outPos	-7481
partitionKey	-7482
setCreateDate	-7483
NotS	-7484
zone	-7485
EXECU	-7486
shared	-7487
SyncDevice	-7488
ableAction	-7489
txt	-7490
isShow	-7491
dst	-7492
omp	-7493
two	-7494
myPopup	-7495
Lead	-7496
getFont	-7497
jwk	-7498
RequestCondition	-7499
Js	-7500
_"	-7501
invo	-7502
FORCE	-7503
Shadow	-7504
TargetExpression	-7505
modelClassNameId	-7506
sen	-7507
Tabbed	-7508
rier	-7509
powner	-7510
Parquet	-7511
psiManager	-7512
visitMethod	-7513
setTitle	-7514
df	-7515
MOVE	-7516
standard	-7517
LocalDateTime	-7518
FRAME	-7519
Tester	-7520
Overlap	-7521
callSite	-7522
CAPABILITY	-7523
Releasable	-7524
isReadOnly	-7525
temporalType	-7526
ToXContentObject	-7527
Steps	-7528
daemon	-7529
Restart	-7530
LabeledStatement	-7531
JDBC	-7532
corer	-7533
gorithm	-7534
Yaml	-7535
assetEntryId	-7536
ALIGN	-7537
Example	-7538
Returns	-7539
variables	-7540
Cron	-7541
Hold	-7542
Windows	-7543
powwowServer	-7544
DateHistogram	-7545
doGet	-7546
PsiMember	-7547
restriction	-7548
Ear	-7549
Have	-7550
Moved	-7551
under	-7552
repaired	-7553
CreateIndex	-7554
Navigatable	-7555
queryBuilder	-7556
obox	-7557
PlanNodeId	-7558
CARET	-7559
AtCaret	-7560
Exporter	-7561
NOR	-7562
Hide	-7563
MOUSE	-7564
Executer	-7565
GroupRelFinder	-7566
white	-7567
CTEntry	-7568
Queued	-7569
Pressed	-7570
etplace	-7571
overrid	-7572
lon	-7573
OfUse	-7574
Prepare	-7575
transformer	-7576
FocusedComponent	-7577
most	-7578
Integ	-7579
getCached	-7580
parentId	-7581
myPosition	-7582
StyleManager	-7583
EXTERN	-7584
attach	-7585
divider	-7586
appBuilderAppId	-7587
loom	-7588
USAGE	-7589
chemas	-7590
coerce	-7591
encoded	-7592
testDelete	-7593
Ip	-7594
mun	-7595
ptm	-7596
empt	-7597
keystore	-7598
getPresentation	-7599
Mis	-7600
eds	-7601
Prec	-7602
parts	-7603
countDown	-7604
ManyToMany	-7605
Choose	-7606
Resize	-7607
myExpression	-7608
PlanMatch	-7609
Jms	-7610
syncDL	-7611
Outputs	-7612
Revisions	-7613
translate	-7614
Declarations	-7615
_2_	-7616
Frozen	-7617
requires	-7618
GetterUtil	-7619
WhiteSpace	-7620
getCatalog	-7621
working	-7622
rollback	-7623
viewport	-7624
sensitive	-7625
getUserName	-7626
myAll	-7627
Categorization	-7628
SubscriptionInfo	-7629
PR	-7630
bg	-7631
queryId	-7632
fileEntry	-7633
finalPrice	-7634
TCH	-7635
addr	-7636
inputs	-7637
ByDefault	-7638
TOTAL	-7639
vided	-7640
statuses	-7641
PersistentTasks	-7642
services	-7643
Connections	-7644
rink	-7645
annota	-7646
TableScan	-7647
MD	-7648
rypted	-7649
creation	-7650
executable	-7651
INIT	-7652
getR	-7653
facet	-7654
alignment	-7655
FF	-7656
Io	-7657
FEED	-7658
Router	-7659
rollup	-7660
Ev	-7661
DAT	-7662
Large	-7663
Activate	-7664
superMethod	-7665
servletContext	-7666
Cascade	-7667
protocolVersion	-7668
JBU	-7669
Digits	-7670
auditor	-7671
CATEGORY	-7672
Redirect	-7673
getBlock	-7674
myInitial	-7675
setCPOptionValue	-7676
aptor	-7677
Optimized	-7678
DLFileRank	-7679
NOTIFICATION	-7680
ActionHandler	-7681
cb	-7682
Layer	-7683
implicit	-7684
FIED	-7685
getArray	-7686
convertTo	-7687
BACKGROUND	-7688
cfg	-7689
fixes	-7690
LISTEN	-7691
millis	-7692
recover	-7693
partitions	-7694
Notify	-7695
Arithmetic	-7696
getFactory	-7697
getArguments	-7698
Repe	-7699
Sur	-7700
reload	-7701
myPlugin	-7702
DEBUG	-7703
getCaretModel	-7704
THER	-7705
Gauge	-7706
Activation	-7707
PowwowServer	-7708
Week	-7709
Statuses	-7710
nodeName	-7711
planNodeId	-7712
setCPOption	-7713
AbstractType	-7714
processHandler	-7715
JSONArray	-7716
LowerCase	-7717
sessionID	-7718
getJava	-7719
PropertyManager	-7720
strip	-7721
Formats	-7722
DiffRequest	-7723
Dn	-7724
ru	-7725
izable	-7726
Aliased	-7727
Accepted	-7728
Following	-7729
orizontal	-7730
3"	-7731
irror	-7732
getUserData	-7733
MessageConverter	-7734
Topic	-7735
Referenced	-7736
visualLine	-7737
WID	-7738
mpt	-7739
Func	-7740
Enrich	-7741
GLOBAL	-7742
PACKED	-7743
CONSTRU	-7744
het	-7745
getNew	-7746
hand	-7747
getInput	-7748
Insensitive	-7749
FLU	-7750
WILD	-7751
DISABLE	-7752
orderByCondition	-7753
mx	-7754
icker	-7755
Backed	-7756
Endpoints	-7757
PRIV	-7758
ORB	-7759
lank	-7760
getAnnotated	-7761
riendlyURL	-7762
RC	-7763
translation	-7764
securityDomain	-7765
PlanMatchPattern	-7766
WO	-7767
BRAC	-7768
vant	-7769
Enhance	-7770
rollable	-7771
erc	-7772
elem	-7773
CodeFragment	-7774
uzzy	-7775
SchemaName	-7776
myBase	-7777
TypeEvalContext	-7778
endObject	-7779
PyFunction	-7780
RelPersistence	-7781
AssetEntryQuery	-7782
Once	-7783
ISOCode	-7784
sourceSet	-7785
DateFormatter	-7786
OTHER	-7787
BUCKET	-7788
Subquery	-7789
GlobalCheckpoint	-7790
isAssignableFrom	-7791
firstName	-7792
TreeElement	-7793
accessControl	-7794
Impor	-7795
JavaDoc	-7796
alformed	-7797
ared	-7798
Swing	-7799
choose	-7800
QueryRunner	-7801
01	-7802
BRACKET	-7803
countByG	-7804
Transition	-7805
indicesOptions	-7806
Freq	-7807
ipher	-7808
pageSize	-7809
"-	-7810
ib	-7811
None	-7812
LISTENER	-7813
intValue	-7814
facade	-7815
accumulator	-7816
Cal	-7817
getAs	-7818
DataNode	-7819
Occurence	-7820
Own	-7821
getUrl	-7822
performRequest	-7823
CHAN	-7824
bove	-7825
EXTERNAL	-7826
isNotNull	-7827
statusText	-7828
initialized	-7829
Cwm	-7830
Assigned	-7831
Equality	-7832
isDirectory	-7833
reve	-7834
isDisposed	-7835
CONT	-7836
ORIG	-7837
MONTH	-7838
getDescriptor	-7839
ldap	-7840
Ascii	-7841
WRITER	-7842
addChild	-7843
storeType	-7844
Signing	-7845
getDeclared	-7846
getTableName	-7847
CLOSE	-7848
OPERATOR	-7849
"{	-7850
ieu	-7851
CTSContent	-7852
3_	-7853
rele	-7854
myMax	-7855
ManyToOne	-7856
SourceSet	-7857
grouped	-7858
Repaired	-7859
substitution	-7860
createAccessor	-7861
Paste	-7862
allocate	-7863
subscribe	-7864
divisor	-7865
promise	-7866
synchron	-7867
getOrderBy	-7868
propag	-7869
PsiModifier	-7870
StateMachine	-7871
PackagingElement	-7872
Parentheses	-7873
DocumentMapper	-7874
illa	-7875
GMENT	-7876
nulls	-7877
DECLAR	-7878
visitExpression	-7879
YA	-7880
JTree	-7881
vocable	-7882
createTime	-7883
Marketplace	-7884
checkResult	-7885
persistentClass	-7886
git	-7887
Multimap	-7888
RelLocalService	-7889
Ext	-7890
Fing	-7891
fake	-7892
SPLIT	-7893
StringPool	-7894
getExternal	-7895
expectedDate	-7896
Scanner	-7897
createTemp	-7898
scriptService	-7899
ose	-7900
INVO	-7901
mutate	-7902
MISSING	-7903
objectFactory	-7904
ALOG	-7905
SIST	-7906
retry	-7907
datafeedId	-7908
DeliveryDate	-7909
Compatibility	-7910
ExpirationDate	-7911
WorkflowInstance	-7912
createAdd	-7913
GitRepository	-7914
sig	-7915
Finger	-7916
testUn	-7917
findChild	-7918
LifecyclePolicy	-7919
inu	-7920
curr	-7921
hints	-7922
SystemException	-7923
qn	-7924
ws	-7925
TagName	-7926
TagNames	-7927
stricted	-7928
LanguageIds	-7929
REP	-7930
Too	-7931
InMemory	-7932
Searchable	-7933
snapshotName	-7934
ORIGIN	-7935
Sensit	-7936
addListener	-7937
bw	-7938
DSL	-7939
ogi	-7940
shutdown	-7941
Extracted	-7942
Separately	-7943
Interpreter	-7944
PageTemplate	-7945
ResolutionInfo	-7946
buildSideSetup	-7947
EQ	-7948
ASY	-7949
ONT	-7950
EXPE	-7951
saved	-7952
Pricing	-7953
ird	-7954
SKIP	-7955
-=	-7956
UNIT	-7957
Buttons	-7958
myTitle	-7959
compiled	-7960
Conditions	-7961
hasFocus	-7962
sToDelete	-7963
circumflex	-7964
myChildren	-7965
yogi	-7966
CUSTOM	-7967
handlerFunction	-7968
Cef	-7969
DocValue	-7970
parameterIndex	-7971
Mnemonic	-7972
joinType	-7973
riterion	-7974
SourceBuilder	-7975
locate	-7976
Configured	-7977
lockOptions	-7978
Ast	-7979
come	-7980
DIRECT	-7981
Rating	-7982
archive	-7983
tryCast	-7984
Ring	-7985
paque	-7986
Deletes	-7987
standing	-7988
testFind	-7989
HIGH	-7990
nost	-7991
Yield	-7992
isModified	-7993
getAuditReader	-7994
getExportAction	-7995
Stomp	-7996
getEntityManager	-7997
myField	-7998
EK	-7999
queryParameters	-8000
Tx	-8001
NEL	-8002
Yes	-8003
Spiller	-8004
Excludes	-8005
Difference	-8006
VEN	-8007
izers	-8008
Scopes	-8009
Vectors	-8010
direction	-8011
FactoryBean	-8012
ResolverService	-8013
Applied	-8014
Malformed	-8015
ProjectFile	-8016
JavaTokenType	-8017
authenticator	-8018
mbok	-8019
myFirst	-8020
WrappedService	-8021
Mem	-8022
ToMove	-8023
Significa	-8024
leaderIndex	-8025
segmentsEntryId	-8026
ERO	-8027
trie	-8028
human	-8029
setLast	-8030
tooltip	-8031
addCommerceOrder	-8032
Edt	-8033
Tile	-8034
_134	-8035
arable	-8036
Assertions	-8037
TargetType	-8038
DECLARATION	-8039
FamilyName	-8040
Commits	-8041
Concrete	-8042
generatedType	-8043
getColumnBitmask	-8044
jms	-8045
Calls	-8046
Backward	-8047
Precision	-8048
Fingerprint	-8049
Look	-8050
complex	-8051
XDebugger	-8052
myChanges	-8053
ingStrategy	-8054
anno	-8055
isSame	-8056
Suspend	-8057
TypeSignature	-8058
ye	-8059
igrate	-8060
incoming	-8061
LABLE	-8062
accent	-8063
moveTo	-8064
MimeType	-8065
DataRecordLink	-8066
ModelAttribute	-8067
testMethod	-8068
annotationType	-8069
WS	-8070
mbe	-8071
CHANNEL	-8072
TOOLBAR	-8073
modelId	-8074
restrictions	-8075
lastPublishDate	-8076
myMin	-8077
accepts	-8078
IgnoreCase	-8079
ItemSelector	-8080
configurations	-8081
messages	-8082
FlushMode	-8083
CodeInsight	-8084
Jpa	-8085
illian	-8086
quillian	-8087
clusterAlias	-8088
RetentionLease	-8089
Radio	-8090
myInfo	-8091
CanBe	-8092
RoundTrip	-8093
getFilter	-8094
Choice	-8095
migration	-8096
Register	-8097
ternative	-8098
indicesService	-8099
methodExpression	-8100
cmp	-8101
STIN	-8102
Advisor	-8103
INCLUDE	-8104
CONSTRUCTOR	-8105
ServiceProvider	-8106
animal	-8107
PRIVATE	-8108
Skipped	-8109
SQLQuery	-8110
TaskInfo	-8111
filterFindByUuid	-8112
ROP	-8113
TimeStamp	-8114
IndicesOptions	-8115
callExpression	-8116
criteriaBuilder	-8117
WEEK	-8118
_124	-8119
DataPath	-8120
gb	-8121
_34	-8122
Trim	-8123
Email	-8124
testSimple	-8125
WebExchange	-8126
clusterSettings	-8127
PARAMS	-8128
getStart	-8129
Arquillian	-8130
LOOK	-8131
PRECI	-8132
dable	-8133
PRECISION	-8134
mvccVersion	-8135
gen	-8136
inlay	-8137
nullable	-8138
createNative	-8139
ACCEP	-8140
toType	-8141
shiftdown	-8142
CallMatcher	-8143
bucketCount	-8144
powwowMeetingId	-8145
WITHIN	-8146
RadComponent	-8147
DOM	-8148
queryString	-8149
replication	-8150
allocationId	-8151
SchemeFactory	-8152
arded	-8153
boxed	-8154
Boundary	-8155
baseClass	-8156
CommandResult	-8157
Fake	-8158
Chunks	-8159
SCH	-8160
SERVICES	-8161
Separators	-8162
checkReadOnly	-8163
directories	-8164
Star	-8165
_234	-8166
apiKey	-8167
inline	-8168
MODIFIER	-8169
verifier	-8170
CLASSNAME	-8171
accountId	-8172
customSQL	-8173
CTCollectionId	-8174
Liferay	-8175
severity	-8176
strument	-8177
getAvailable	-8178
InjectedValue	-8179
JN	-8180
Exempt	-8181
EXECUTION	-8182
Tokenizer	-8183
irectional	-8184
getRepository	-8185
DIT	-8186
Fill	-8187
EVENT	-8188
iling	-8189
mbean	-8190
Correct	-8191
ONENT	-8192
corre	-8193
define	-8194
presto	-8195
projects	-8196
PsiTypeParameter	-8197
REN	-8198
ANCH	-8199
buff	-8200
Latency	-8201
nextOffset	-8202
LinkedHashSet	-8203
repositoryName	-8204
lst	-8205
Descriptions	-8206
FACE	-8207
DoNot	-8208
REMOVE	-8209
repair	-8210
AUTHENTI	-8211
myFilter	-8212
Immediate	-8213
inherited	-8214
AccessType	-8215
UserMemory	-8216
WithNo	-8217
myMain	-8218
versions	-8219
SessionId	-8220
getBucket	-8221
myAdditional	-8222
summary	-8223
Optimize	-8224
aPackage	-8225
sqlQuery	-8226
ReadWrite	-8227
DecoratedKey	-8228
Joins	-8229
models	-8230
Editors	-8231
Rie	-8232
ital	-8233
Rieul	-8234
Decider	-8235
GrMethod	-8236
templates	-8237
occurrences	-8238
Callbacks	-8239
hibernate	-8240
RootManager	-8241
Translation	-8242
WeDeployAuth	-8243
DELAY	-8244
hetic	-8245
setType	-8246
KEYSTORE	-8247
Compressed	-8248
Overriding	-8249
ROL	-8250
OutOf	-8251
shape	-8252
ACH	-8253
LPAREN	-8254
PerAccount	-8255
ModelSnapshot	-8256
PsiLocalVariable	-8257
iso	-8258
guess	-8259
getManager	-8260
COMPONENT	-8261
tokenizer	-8262
KeywordsMap	-8263
ctCollection	-8264
Mag	-8265
DROP	-8266
Ping	-8267
MERGE	-8268
OPTIONAL	-8269
assertNo	-8270
endsWith	-8271
ExtraPrice	-8272
DomainObject	-8273
setC	-8274
Browse	-8275
Reporter	-8276
certificate	-8277
remoteCluster	-8278
Annotator	-8279
getRow	-8280
mbd	-8281
INNER	-8282
Least	-8283
STRUCT	-8284
parameterList	-8285
ural	-8286
Walker	-8287
vorite	-8288
Expiration	-8289
sInProgress	-8290
createExpression	-8291
OUND	-8292
myChange	-8293
problems	-8294
Autodetect	-8295
EOF	-8296
getSystem	-8297
DefaultValue	-8298
SENT	-8299
newFile	-8300
getSelect	-8301
processKey	-8302
cor	-8303
Epoch	-8304
PsiPackage	-8305
Integration	-8306
customer	-8307
viewName	-8308
Cardinality	-8309
ENUM	-8310
ansion	-8311
Sequent	-8312
EXPECTED	-8313
createType	-8314
SIMPLE	-8315
association	-8316
getRequired	-8317
instantiate	-8318
findByUserId	-8319
HEAD	-8320
INTERN	-8321
myJava	-8322
ForType	-8323
Shutdown	-8324
CharacterStream	-8325
lt	-8326
chedul	-8327
baseDir	-8328
getExpected	-8329
lled	-8330
systemException	-8331
putAll	-8332
MockServer	-8333
InputPositions	-8334
sizeOf	-8335
iterate	-8336
Quota	-8337
delimiter	-8338
OptionalInt	-8339
ModalityState	-8340
bool	-8341
Proto	-8342
myOld	-8343
aggregator	-8344
myListener	-8345
getQualifier	-8346
MapperService	-8347
docId	-8348
detect	-8349
Lifespan	-8350
CommitLog	-8351
patternIndex	-8352
Es	-8353
pch	-8354
AUDIT	-8355
FLUSH	-8356
Invoked	-8357
shippable	-8358
Publication	-8359
consistency	-8360
findByAsset	-8361
CategoryCount	-8362
ConsistencyLevel	-8363
bd	-8364
kPattern	-8365
isOnTheFly	-8366
Ker	-8367
Laf	-8368
rold	-8369
Fully	-8370
fully	-8371
roldown	-8372
tempFile	-8373
controldown	-8374
initialState	-8375
DDL	-8376
pop	-8377
Ratio	-8378
omaly	-8379
NotationParser	-8380
WIDTH	-8381
FAILURE	-8382
TestProxy	-8383
Partitioner	-8384
NodeDescriptor	-8385
BOM	-8386
desce	-8387
failures	-8388
TestClass	-8389
sqlParser	-8390
Configurer	-8391
CreateTable	-8392
MemoryUsage	-8393
Confirmation	-8394
STY	-8395
DELI	-8396
PIPE	-8397
Views	-8398
shippingDate	-8399
rp	-8400
findByU	-8401
eredPane	-8402
EscapedModel	-8403
partitionName	-8404
country	-8405
unassigned	-8406
Shrink	-8407
DataKey	-8408
Cacheable	-8409
checkpoint	-8410
BasePriceList	-8411
GEO	-8412
ior	-8413
derived	-8414
MemoryState	-8415
itch	-8416
Perform	-8417
errorCode	-8418
RESTART	-8419
emptyMap	-8420
Estimated	-8421
BOUND	-8422
users	-8423
Widget	-8424
Shelved	-8425
cending	-8426
INTERNAL	-8427
startJoinRequest	-8428
TX	-8429
Caption	-8430
JCheckBox	-8431
SizeStats	-8432
getLayout	-8433
expectedPrice	-8434
GT	-8435
Scrollable	-8436
ti	-8437
Prefixes	-8438
statusCode	-8439
signer	-8440
Disable	-8441
Imported	-8442
Unassigned	-8443
crumb	-8444
Operators	-8445
Unused	-8446
center	-8447
MethodVisitor	-8448
AutoTaggerEntry	-8449
Launch	-8450
Cancellation	-8451
PortletResponse	-8452
PL	-8453
iry	-8454
gram	-8455
STYLE	-8456
getRemote	-8457
temporary	-8458
getTimestamp	-8459
Limi	-8460
Editing	-8461
ExternalResource	-8462
Warn	-8463
myReplace	-8464
getConnection	-8465
snapshots	-8466
SecondPass	-8467
instanceOf	-8468
SchemaVersion	-8469
DirectoryReader	-8470
EventDispatcher	-8471
cannot	-8472
updates	-8473
PreferredSize	-8474
Locking	-8475
nextTokenIs	-8476
isS	-8477
FileTree	-8478
FileStatus	-8479
getAccount	-8480
visitStatement	-8481
Deferred	-8482
urlTitleMap	-8483
DEF	-8484
putUserData	-8485
setCProduct	-8486
Intermediate	-8487
QueryOptions	-8488
paymentStatus	-8489
ASO	-8490
Begin	-8491
arrow	-8492
CENTER	-8493
Slices	-8494
integer	-8495
getNamed	-8496
nullSafe	-8497
analytics	-8498
operatorFactory	-8499
getConfiguration	-8500
STATS	-8501
ASOURCE	-8502
getRange	-8503
bufferSize	-8504
MaxSubscription	-8505
gad	-8506
ApiKeys	-8507
scaling	-8508
resources	-8509
expectedResult	-8510
fetchByGroupId	-8511
findByLtD	-8512
CalendarIds	-8513
cedilla	-8514
Ing	-8515
Seed	-8516
seen	-8517
OnWrite	-8518
argumentTypes	-8519
StagedModelType	-8520
MEGA	-8521
poly	-8522
hidden	-8523
Secondary	-8524
ShardFollow	-8525
ImmutableOpen	-8526
MappingException	-8527
basic	-8528
codes	-8529
SUPPORT	-8530
topLevel	-8531
OneToMany	-8532
JOURN	-8533
train	-8534
Voting	-8535
JOURNAL	-8536
myCache	-8537
Externalizer	-8538
ExpressionType	-8539
SMALL	-8540
isNot	-8541
forClass	-8542
expectations	-8543
servletRequest	-8544
getAggregations	-8545
sParameterTypes	-8546
Hdfs	-8547
CAPAC	-8548
Secret	-8549
ByUserId	-8550
CAPACITY	-8551
PageSink	-8552
Breakpoints	-8553
advanceStatus	-8554
SHI	-8555
oth	-8556
Aggs	-8557
Spill	-8558
issue	-8559
ddmStructureKey	-8560
oAuthApplication	-8561
jps	-8562
Goto	-8563
month	-8564
integr	-8565
Letters	-8566
already	-8567
taskInfo	-8568
dao	-8569
LINK	-8570
StreamSource	-8571
elapsed	-8572
threads	-8573
normalized	-8574
Bidirectional	-8575
Cfg	-8576
elli	-8577
what	-8578
FETCH	-8579
balance	-8580
logging	-8581
Whitespaces	-8582
freeShipping	-8583
eventListener	-8584
Clob	-8585
Must	-8586
parents	-8587
Compound	-8588
fontType	-8589
myBranch	-8590
CPOptionId	-8591
writeString	-8592
EventType	-8593
nullValue	-8594
ordinal	-8595
OptionValueRelId	-8596
tcp	-8597
Coll	-8598
DT	-8599
Propag	-8600
clipse	-8601
Localized	-8602
Redundant	-8603
metaKeywordsMap	-8604
employee	-8605
Decoration	-8606
modelSnapshot	-8607
0"	-8608
isDebug	-8609
NodeScope	-8610
Agent	-8611
ooled	-8612
LongRange	-8613
ToProcess	-8614
isVisible	-8615
myVariable	-8616
rootElement	-8617
JtaTransaction	-8618
Detail	-8619
getFunction	-8620
Streaming	-8621
ParseException	-8622
XA	-8623
dating	-8624
CaseSensitive	-8625
MouseListener	-8626
("	-8627
ORC	-8628
RETRY	-8629
uffle	-8630
Flight	-8631
zoneId	-8632
HitCount	-8633
interfaces	-8634
HashEnabled	-8635
Pk	-8636
Cross	-8637
ColorKey	-8638
DSLQuery	-8639
lec	-8640
Anim	-8641
_1234	-8642
ChangeLists	-8643
RadioButton	-8644
VariableValue	-8645
TON	-8646
TTL	-8647
mav	-8648
testName	-8649
functions	-8650
laringClass	-8651
caseSensitive	-8652
resolveContext	-8653
myHas	-8654
Backup	-8655
mimeType	-8656
operands	-8657
zzMarked	-8658
concurrent	-8659
zzMarkedPos	-8660
EqlBaseParser	-8661
numberOfShards	-8662
DRI	-8663
mediaType	-8664
Conf	-8665
mainder	-8666
upgrade	-8667
Allocate	-8668
Follower	-8669
SELECTED	-8670
fileText	-8671
unexpected	-8672
ErrorMessage	-8673
AttributeValue	-8674
PROXY	-8675
ignKey	-8676
Utilities	-8677
AUTHENTICATION	-8678
Anno	-8679
pended	-8680
REPLACE	-8681
different	-8682
JavaModule	-8683
activation	-8684
SUM	-8685
horn	-8686
backup	-8687
DEPENDEN	-8688
batchSize	-8689
Marshaller	-8690
accountUser	-8691
OC	-8692
fr	-8693
bot	-8694
ITER	-8695
Builtin	-8696
sibling	-8697
RootModel	-8698
ScriptCode	-8699
GroupPersistence	-8700
lies	-8701
myEnd	-8702
Delimiter	-8703
PortalUtil	-8704
Constructors	-8705
Trees	-8706
cookies	-8707
findByLt	-8708
Analyzers	-8709
StringLiteral	-8710
Workspace	-8711
PointerManager	-8712
myConfiguration	-8713
myFactory	-8714
ding	-8715
AndRe	-8716
loomFilter	-8717
TrainedModel	-8718
Opaque	-8719
tagName	-8720
termsOfUse	-8721
ServiceView	-8722
greaterThan	-8723
four	-8724
caron	-8725
major	-8726
getFamilyName	-8727
CommonClassNames	-8728
checkFor	-8729
OAuthUser	-8730
ProgressManager	-8731
td	-8732
Cent	-8733
built	-8734
Hashes	-8735
providers	-8736
removeByG	-8737
FindUsages	-8738
cpOptionService	-8739
MEN	-8740
Commun	-8741
IndexOf	-8742
myMessage	-8743
zzCurrent	-8744
extensions	-8745
zzCurrentPos	-8746
LOOKUP	-8747
scaled	-8748
VIR	-8749
tempt	-8750
period	-8751
getHost	-8752
Rendering	-8753
ouch	-8754
Liveness	-8755
testBean	-8756
SUC	-8757
unsp	-8758
uted	-8759
baseName	-8760
Criterion	-8761
CategoryId	-8762
buildingContext	-8763
JsonSchemaObject	-8764
sList	-8765
CONTAINER	-8766
customize	-8767
taxExempt	-8768
testEmpty	-8769
StringUtils	-8770
componentType	-8771
tw	-8772
Dao	-8773
BUILD	-8774
toolWrapper	-8775
pinot	-8776
another	-8777
FindModel	-8778
Suppressed	-8779
tokenService	-8780
ServiceException	-8781
isFile	-8782
rebuild	-8783
toolbar	-8784
Included	-8785
bb	-8786
Cls	-8787
TID	-8788
operatorId	-8789
MemoryLimit	-8790
deep	-8791
will	-8792
Schemas	-8793
parallel	-8794
queryFor	-8795
LettersISOCode	-8796
Fails	-8797
VIRTU	-8798
paren	-8799
PyFile	-8800
ssu	-8801
Repr	-8802
hter	-8803
Course	-8804
Reserve	-8805
primitive	-8806
insn	-8807
explain	-8808
Incoming	-8809
Strategies	-8810
searchCommerce	-8811
classDefinition	-8812
scoped	-8813
valueCount	-8814
ableBeanFactory	-8815
effect	-8816
compound	-8817
manifest	-8818
Sensitivity	-8819
myDescription	-8820
getApplication	-8821
Motion	-8822
VIRTUAL	-8823
Authenticator	-8824
ResolveMetadata	-8825
POW	-8826
treeRewriter	-8827
shipSeparately	-8828
outputPositions	-8829
myTabs	-8830
Eclipse	-8831
JBPopup	-8832
PrimitiveType	-8833
err	-8834
lee	-8835
Forced	-8836
Recent	-8837
decision	-8838
Overridden	-8839
pathAddress	-8840
descriptions	-8841
ITCH	-8842
lack	-8843
ATURE	-8844
Visit	-8845
getUuid	-8846
Detected	-8847
AGGREGATION	-8848
AnnotationType	-8849
PUSH	-8850
10003	-8851
Major	-8852
bounded	-8853
ddmForm	-8854
receive	-8855
supplier	-8856
registerProblem	-8857
getTokenType	-8858
CommonCodeStyle	-8859
Guard	-8860
SCHED	-8861
Composed	-8862
NAMESPACE	-8863
codeBlock	-8864
DiscoveryNodes	-8865
boundVariables	-8866
BasePersistence	-8867
BaseServiceImpl	-8868
starting	-8869
DocString	-8870
MemberValue	-8871
Outstanding	-8872
lType	-8873
metaTitleMap	-8874
getReturnType	-8875
Rol	-8876
attrs	-8877
DRIVER	-8878
expire	-8879
filterFunction	-8880
expectedReadOnly	-8881
DIFF	-8882
Elec	-8883
erman	-8884
compact	-8885
Electron	-8886
columnStatistics	-8887
CLA	-8888
coOr	-8889
Overrides	-8890
setString	-8891
Electronics	-8892
VariableName	-8893
elementFactory	-8894
OptionValueRels	-8895
coOrElectronics	-8896
GC	-8897
JNDI	-8898
myLib	-8899
Persisted	-8900
LevelCache	-8901
isInstance	-8902
Adjust	-8903
collapse	-8904
getFiles	-8905
summ	-8906
ertow	-8907
paramName	-8908
EstimateId	-8909
StagedModel	-8910
parameterName	-8911
CLE	-8912
IND	-8913
SYNC	-8914
Student	-8915
entityId	-8916
debugProcess	-8917
ilarity	-8918
myOutput	-8919
inference	-8920
expiration	-8921
LockOptions	-8922
setUserUuid	-8923
Bad	-8924
Detect	-8925
SWITCH	-8926
Observer	-8927
keyStore	-8928
SearchHit	-8929
myMarketplace	-8930
Coerc	-8931
SHIFT	-8932
dirty	-8933
quant	-8934
regular	-8935
absolute	-8936
addEntry	-8937
PostProcessor	-8938
UNDER	-8939
During	-8940
_11	-8941
UTING	-8942
PERSIST	-8943
Checkout	-8944
myVersion	-8945
LineNumber	-8946
sq	-8947
Wizard	-8948
lineOffsets	-8949
hdfsEnvironment	-8950
COUN	-8951
createNew	-8952
ContextImpl	-8953
viewProvider	-8954
IDEA	-8955
SPIL	-8956
Retrie	-8957
laRule	-8958
DENTIAL	-8959
setShow	-8960
RootType	-8961
extended	-8962
remainder	-8963
Consistent	-8964
utillaRule	-8965
skipped	-8966
findElementAt	-8967
LT	-8968
BRO	-8969
FontSize	-8970
download	-8971
GroupRelId	-8972
Explanation	-8973
TERMIN	-8974
ADLE	-8975
Login	-8976
QUOTE	-8977
imate	-8978
GRADLE	-8979
Permit	-8980
RootNode	-8981
filename	-8982
CREDENTIAL	-8983
RealmConfig	-8984
DocValueFormat	-8985
Demand	-8986
CpuTime	-8987
keychar	-8988
getOrder	-8989
producer	-8990
Predicates	-8991
randomLong	-8992
NamedWriteable	-8993
CER	-8994
UTC	-8995
CALE	-8996
Patches	-8997
getDate	-8998
rowGroup	-8999
artifactId	-9000
tel	-9001
DETE	-9002
TRACE	-9003
dimension	-9004
Attachments	-9005
getTemplate	-9006
RESP	-9007
infer	-9008
RESPON	-9009
setUse	-9010
Lighter	-9011
RowIterator	-9012
nodeSettings	-9013
DocumentListener	-9014
INDI	-9015
iders	-9016
ockJs	-9017
typed	-9018
Charsets	-9019
ASSIGNMENT	-9020
getHandler	-9021
registered	-9022
computeIfAbsent	-9023
TransportRequest	-9024
jx	-9025
Theme	-9026
sherman	-9027
Stateful	-9028
ITestBean	-9029
extractor	-9030
requiredType	-9031
rowPagesBuilder	-9032
Stock	-9033
isRow	-9034
unspsc	-9035
myScheme	-9036
createAnd	-9037
StackTrace	-9038
IMUM	-9039
PRECE	-9040
myLeft	-9041
cacheKey	-9042
dateTime	-9043
CommerceOrderId	-9044
pluginDescriptor	-9045
_0_1	-9046
myLock	-9047
affected	-9048
recurring	-9049
AreEquivalent	-9050
ObjectFactory	-9051
sara	-9052
JBColor	-9053
cheduling	-9054
FoldingModel	-9055
alt	-9056
HANDLE	-9057
getEnd	-9058
probeTypes	-9059
DC	-9060
fm	-9061
RunAs	-9062
Encoded	-9063
network	-9064
myOffset	-9065
converted	-9066
metastore	-9067
actionFilters	-9068
productTypeName	-9069
STO	-9070
myChild	-9071
myLocal	-9072
lifespan	-9073
rootType	-9074
addresses	-9075
localName	-9076
accessToken	-9077
ght	-9078
FONT	-9079
naming	-9080
Minimum	-9081
RUNTIME	-9082
Rollover	-9083
conditions	-9084
HEL	-9085
flag	-9086
SLASH	-9087
Compli	-9088
Envelope	-9089
getSimple	-9090
FOUND	-9091
Unsigned	-9092
AbsolutePath	-9093
UpdateRequest	-9094
MULTIP	-9095
Optimization	-9096
ImmutableOpenMap	-9097
Sl	-9098
GeoPoint	-9099
Handshake	-9100
sslService	-9101
Broker	-9102
reserved	-9103
peri	-9104
NATIVE	-9105
GridBag	-9106
TestData	-9107
WILDCARD	-9108
TabbedPane	-9109
bulkRequest	-9110
Initializing	-9111
MQ	-9112
Den	-9113
Received	-9114
IterationDate	-9115
defaultSession	-9116
shel	-9117
stopped	-9118
myHolder	-9119
AccountId	-9120
extracted	-9121
resultType	-9122
LAB	-9123
dwrf	-9124
SUCCESS	-9125
Waiting	-9126
myBuild	-9127
psiType	-9128
DATASOURCE	-9129
BODY	-9130
DISTRI	-9131
RolesStore	-9132
booleanProperty	-9133
myR	-9134
nari	-9135
SPORT	-9136
webApp	-9137
TRANSPORT	-9138
USED	-9139
Boost	-9140
myAuto	-9141
refExpr	-9142
conflict	-9143
ModuleIdentifier	-9144
Horizontal	-9145
planBuilder	-9146
setExpandoRow	-9147
called	-9148
getJob	-9149
CONTROL	-9150
testCase	-9151
targetField	-9152
testFetchBy	-9153
getFinderCache	-9154
resourceRequest	-9155
BTree	-9156
Reply	-9157
Stopped	-9158
setSize	-9159
throttle	-9160
addProperty	-9161
Instructions	-9162
getLocalName	-9163
lave	-9164
UpToDate	-9165
rpConfig	-9166
SourceFolder	-9167
CellEditor	-9168
StackFrame	-9169
Distributed	-9170
callSiteBinder	-9171
getParameterList	-9172
NAN	-9173
_20	-9174
RefEd	-9175
orElse	-9176
testParse	-9177
getOperation	-9178
getMap	-9179
getFull	-9180
assetVocabulary	-9181
childCalendarIds	-9182
GO	-9183
Adj	-9184
STOP	-9185
INSPE	-9186
phoneNumber	-9187
WHITE	-9188
FEATURE	-9189
Matchers	-9190
ColumnsMap	-9191
parserContext	-9192
internalCluster	-9193
countByCompanyId	-9194
reed	-9195
CHRON	-9196
Comma	-9197
JButton	-9198
periment	-9199
getHeader	-9200
myInstalled	-9201
Notifications	-9202
CustomMetadata	-9203
Was	-9204
rain	-9205
myLayout	-9206
putResult	-9207
Comparable	-9208
fun	-9209
pid	-9210
CHILD	-9211
forward	-9212
webRequest	-9213
getSnapshot	-9214
OptionsPanel	-9215
CTPreferences	-9216
getExpandoRow	-9217
ModuleDependency	-9218
NAMIC	-9219
JoinType	-9220
Username	-9221
JCalendar	-9222
AppBuilderAppId	-9223
WARD	-9224
Checks	-9225
Passed	-9226
ROUTING	-9227
indexes	-9228
readLong	-9229
truncate	-9230
isAncestor	-9231
sMap	-9232
LABEL	-9233
NanoTime	-9234
getUserUuid	-9235
isAuto	-9236
imported	-9237
SourcePosition	-9238
ByG	-9239
seq	-9240
aggs	-9241
GENERIC	-9242
topDocs	-9243
getClient	-9244
TermVectors	-9245
getStatistics	-9246
ros	-9247
Flavor	-9248
Alternative	-9249
updateStatus	-9250
JournalArticle	-9251
EXI	-9252
best	-9253
MvccVersion	-9254
notNullValue	-9255
ULAR	-9256
netPrice	-9257
Remaining	-9258
ATER	-9259
MARK	-9260
sessions	-9261
marshaller	-9262
TemporalType	-9263
InputDataSize	-9264
cookie	-9265
minValue	-9266
pluginDir	-9267
JTextField	-9268
many	-9269
ically	-9270
TestOnly	-9271
Collapsed	-9272
leftBlock	-9273
TypeDefinition	-9274
je	-9275
VOID	-9276
bose	-9277
rowIndex	-9278
Inheritor	-9279
VersionUID	-9280
RelativePath	-9281
steps	-9282
Signed	-9283
debugger	-9284
character	-9285
doExecute	-9286
leftResult	-9287
ConfigProvider	-9288
GradleExecuter	-9289
EAP	-9290
histo	-9291
unsafe	-9292
assertIs	-9293
CronTrigger	-9294
generics	-9295
conditional	-9296
synt	-9297
Learning	-9298
Rejected	-9299
splitter	-9300
PositionTo	-9301
checkedMethods	-9302
dr	-9303
ud	-9304
YAML	-9305
amount	-9306
setGroupId	-9307
BucketCount	-9308
GroupService	-9309
ModelArguments	-9310
reduced	-9311
Fallback	-9312
pf	-9313
Acked	-9314
orten	-9315
Finally	-9316
INTERFACE	-9317
MethodType	-9318
readRepair	-9319
resourceBundle	-9320
PHA	-9321
VCS	-9322
Align	-9323
ToDelete	-9324
TaskQueue	-9325
UpperCase	-9326
QueryState	-9327
LineHandler	-9328
lays	-9329
Favorite	-9330
asString	-9331
isActive	-9332
myBuffer	-9333
messageId	-9334
NSDescriptor	-9335
But	-9336
heap	-9337
logo	-9338
Extraction	-9339
coordinate	-9340
indentLevel	-9341
ResourceAdapter	-9342
createChildData	-9343
PRIORI	-9344
testIn	-9345
dividend	-9346
StatsResponse	-9347
like	-9348
forma	-9349
ForEach	-9350
using	-9351
RESPONSE	-9352
UtilCore	-9353
Synthetic	-9354
allFollowing	-9355
GitLineHandler	-9356
getEntityCache	-9357
MetadataBuilder	-9358
OperatorContext	-9359
CAT	-9360
forName	-9361
TextEditor	-9362
sqlFunction	-9363
HiveMetastore	-9364
ings	-9365
getEntry	-9366
Delimited	-9367
Computation	-9368
FontMetrics	-9369
InBackground	-9370
ReferenceType	-9371
ito	-9372
ToRe	-9373
havi	-9374
Clusters	-9375
formance	-9376
RetentionLeases	-9377
connectorSession	-9378
IALI	-9379
Attrs	-9380
Green	-9381
Sequential	-9382
outputFile	-9383
IndexSearcher	-9384
mappingDocument	-9385
distance	-9386
excludes	-9387
TreeBuilder	-9388
getCanonical	-9389
1_1	-9390
wer	-9391
Magic	-9392
Probe	-9393
states	-9394
QueryId	-9395
flatten	-9396
WebArchive	-9397
ordination	-9398
processorTag	-9399
TierPriceEntryId	-9400
Samp	-9401
assignments	-9402
ProviderType	-9403
TreeStructure	-9404
WithProperties	-9405
repe	-9406
Jackson	-9407
warnings	-9408
groupName	-9409
ByUserName	-9410
Tcp	-9411
isC	-9412
Quoted	-9413
owning	-9414
variants	-9415
union	-9416
Inplace	-9417
Postfix	-9418
OptionalLong	-9419
getNon	-9420
PerNode	-9421
HiveType	-9422
Supports	-9423
FileTemplate	-9424
IngestDocument	-9425
dump	-9426
pathElement	-9427
RangeTombstone	-9428
PLAIN	-9429
SUPER	-9430
pageSource	-9431
smallImage	-9432
Significant	-9433
PRECEDEN	-9434
cacheFile	-9435
publication	-9436
parameterType	-9437
RewriteContext	-9438
ctEntry	-9439
optimize	-9440
LogicalPlan	-9441
tupleDomain	-9442
getElementType	-9443
isLong	-9444
myRight	-9445
assertInstanceOf	-9446
UNI	-9447
myRef	-9448
Hex	-9449
middle	-9450
Anomaly	-9451
Singular	-9452
Preference	-9453
login	-9454
getItem	-9455
versioned	-9456
FieldNames	-9457
clipheight	-9458
zoo	-9459
mySdk	-9460
AtOffset	-9461
Pointcut	-9462
ProxyFactory	-9463
Flatten	-9464
Updating	-9465
SortedSet	-9466
findUsages	-9467
getBuckets	-9468
always	-9469
Prototype	-9470
hierarchy	-9471
ObjectType	-9472
Histo	-9473
myLog	-9474
prefer	-9475
Average	-9476
Algorithm	-9477
MessageId	-9478
changeInfo	-9479
getSelectSQL	-9480
httpResponse	-9481
FULL	-9482
DYNAMIC	-9483
MEGABYTE	-9484
transfer	-9485
anonymous	-9486
secondary	-9487
shardUuid	-9488
":"	-9489
injector	-9490
BiFunction	-9491
addElement	-9492
CompileContext	-9493
Idle	-9494
getPK	-9495
lette	-9496
PRIORITY	-9497
shortName	-9498
myProperty	-9499
nodeManager	-9500
mapTo	-9501
DBName	-9502
GROUPS	-9503
Sorter	-9504
EditorEx	-9505
BlobStore	-9506
getPKDBName	-9507
mouseinside	-9508
serialVersionUID	-9509
VY	-9510
az	-9511
myConsole	-9512
Production	-9513
RAN	-9514
OrGet	-9515
INTERCEP	-9516
getItems	-9517
PsiJavaFile	-9518
tableFuture	-9519
buildVisitor	-9520
PriceListFinder	-9521
ATT	-9522
reat	-9523
SCROLL	-9524
lessThan	-9525
setVersion	-9526
MetadataManager	-9527
beros	-9528
REGISTR	-9529
estimate	-9530
RestClient	-9531
INTERCEPTOR	-9532
outputStream	-9533
LDAP	-9534
SITIVE	-9535
resize	-9536
Guarded	-9537
resourceName	-9538
CircuitBreaker	-9539
eet	-9540
rix	-9541
Dump	-9542
Grow	-9543
boss	-9544
topic	-9545
ToolTip	-9546
setIcon	-9547
MODIFIED	-9548
BigArrays	-9549
ModulePath	-9550
pageBuilder	-9551
documentation	-9552
annotate	-9553
recursive	-9554
bulkPricing	-9555
getSubclass	-9556
PersistentClass	-9557
KIND	-9558
angling	-9559
OAuthConsumer	-9560
LIKE	-9561
DocTag	-9562
Detached	-9563
Unmapped	-9564
renderResponse	-9565
PERIO	-9566
Simpl	-9567
RPAREN	-9568
myClassName	-9569
TypeProvider	-9570
forStatement	-9571
ji	-9572
CheckStyle	-9573
JAR	-9574
dence	-9575
isUse	-9576
Leader	-9577
MavenDom	-9578
listOwner	-9579
ContentRoot	-9580
GroovyPsiElement	-9581
Eq	-9582
Mirror	-9583
getInfo	-9584
ruption	-9585
subPlan	-9586
framework	-9587
removeImpl	-9588
DumbAwareAction	-9589
Alter	-9590
autow	-9591
nario	-9592
correct	-9593
addAction	-9594
setActive	-9595
Uk	-9596
func	-9597
none	-9598
WHILE	-9599
myCaret	-9600
replaced	-9601
messaging	-9602
StandardCharsets	-9603
DN	-9604
WAY	-9605
Bool	-9606
deny	-9607
uspended	-9608
Accessors	-9609
Automaton	-9610
Corrupted	-9611
Unavailable	-9612
ById	-9613
Diag	-9614
iline	-9615
Merging	-9616
TempDir	-9617
Forecast	-9618
fetchByA	-9619
fromString	-9620
AllocationId	-9621
TextTemplate	-9622
oss	-9623
Reads	-9624
ScrollTo	-9625
Iterators	-9626
ingMethod	-9627
UriComponents	-9628
BaseInspection	-9629
alpha	-9630
Traversal	-9631
persisted	-9632
getDataSource	-9633
hiveClientConfig	-9634
HAS	-9635
Logo	-9636
supers	-9637
Enumeration	-9638
IntegTestCase	-9639
ProblemsHolder	-9640
TERS	-9641
ceed	-9642
Mixed	-9643
reply	-9644
Owners	-9645
ByteBuf	-9646
rottled	-9647
ParameterName	-9648
plus	-9649
CONTIN	-9650
bracket	-9651
shardSize	-9652
Avg	-9653
slash	-9654
filled	-9655
Persist	-9656
Literals	-9657
copyFrom	-9658
rootModel	-9659
transformed	-9660
pied	-9661
Abstr	-9662
OneToOne	-9663
iveMedia	-9664
setParent	-9665
sourceRoot	-9666
QueryString	-9667
NG	-9668
SOR	-9669
parquet	-9670
myWorking	-9671
deprecation	-9672
InterfaceType	-9673
DispatchThread	-9674
Far	-9675
JMX	-9676
Vend	-9677
reroute	-9678
ceptable	-9679
inserted	-9680
getLength	-9681
filterFindByC	-9682
Clock	-9683
Hosts	-9684
minor	-9685
keymap	-9686
AccessToken	-9687
TOM	-9688
cas	-9689
mix	-9690
sumed	-9691
INVOKE	-9692
multiple	-9693
myDisposed	-9694
getElements	-9695
toLowerCase	-9696
ESCA	-9697
ToBe	-9698
exact	-9699
soapModel	-9700
OAuthToken	-9701
BulkRequest	-9702
SplitSource	-9703
HandlerFunction	-9704
ERS	-9705
way	-9706
TopN	-9707
markup	-9708
webAppURL	-9709
Wa	-9710
hour	-9711
Joined	-9712
retain	-9713
stable	-9714
hip	-9715
mapho	-9716
modal	-9717
Divider	-9718
getHits	-9719
Positive	-9720
workingDir	-9721
AbstractVcs	-9722
LicenseState	-9723
ConcurrentMap	-9724
Lob	-9725
cpu	-9726
MEDI	-9727
fere	-9728
NORMAL	-9729
PREFER	-9730
Diagnost	-9731
InEditor	-9732
NoSuchApp	-9733
pts	-9734
slt	-9735
RefIng	-9736
accumu	-9737
Varargs	-9738
toSoapModel	-9739
INDICES	-9740
CopySpec	-9741
KeyStroke	-9742
MavenArtifact	-9743
myVirtualFile	-9744
myRepositories	-9745
ExecutionResult	-9746
oduces	-9747
myGroup	-9748
Sessions	-9749
Cpp	-9750
Feed	-9751
boost	-9752
DDMForm	-9753
PsiPoly	-9754
editable	-9755
preprocess	-9756
DIN	-9757
Ints	-9758
bian	-9759
disk	-9760
NClob	-9761
EqualTo	-9762
iteration	-9763
VALIDATION	-9764
SpeedSearch	-9765
getPosition	-9766
followerIndex	-9767
getArgumentList	-9768
handlers	-9769
psiField	-9770
OuterJoin	-9771
AutoFollow	-9772
CacheEntry	-9773
getHeaders	-9774
ResponseHandler	-9775
DISP	-9776
must	-9777
year	-9778
Recycle	-9779
reversed	-9780
ConfigFile	-9781
serverName	-9782
ProjectView	-9783
mbeanServer	-9784
JTS	-9785
NoOp	-9786
ells	-9787
aving	-9788
getPre	-9789
ManagerEx	-9790
Metamodel	-9791
committed	-9792
Cql	-9793
Shell	-9794
inject	-9795
Watches	-9796
KeyEvent	-9797
Keyboard	-9798
registrar	-9799
Performance	-9800
testResolve	-9801
nodeEnvironment	-9802
JavaF	-9803
PRODU	-9804
ullet	-9805
mySize	-9806
newBuilder	-9807
iny	-9808
PERIOD	-9809
Resume	-9810
ferenc	-9811
Holders	-9812
maphore	-9813
documents	-9814
RestStatus	-9815
writeExternal	-9816
OVERRI	-9817
enqueue	-9818
Comparing	-9819
CacheStats	-9820
hy	-9821
LAMB	-9822
SPECI	-9823
AROUND	-9824
hasher	-9825
preview	-9826
Importance	-9827
templateName	-9828
Ten	-9829
IsSet	-9830
Multic	-9831
Serbian	-9832
getWidth	-9833
Enclosing	-9834
commenter	-9835
ExecutionState	-9836
IVE	-9837
psis	-9838
COMPI	-9839
METRI	-9840
adding	-9841
contexts	-9842
getValues	-9843
showError	-9844
LineMarker	-9845
securityContext	-9846
BOT	-9847
IRD	-9848
Best	-9849
ICAL	-9850
BOTTOM	-9851
minute	-9852
Monitoring	-9853
ManagementClient	-9854
myNext	-9855
WebKeys	-9856
restart	-9857
Interner	-9858
setColor	-9859
aaaEntity	-9860
testQuery	-9861
DataOutput	-9862
LongRangeSet	-9863
ExpectedTypeInfo	-9864
xx	-9865
compaction	-9866
Most	-9867
getX	-9868
CLAUSE	-9869
rollover	-9870
getBackground	-9871
avg	-9872
NOOP	-9873
DEPRE	-9874
ively	-9875
ToSearch	-9876
basePath	-9877
myActions	-9878
fieldNames	-9879
testInvalid	-9880
AllocationIds	-9881
isDebugEnabled	-9882
gers	-9883
ToFile	-9884
varName	-9885
beanClass	-9886
parentClass	-9887
frutillaRule	-9888
PrestoException	-9889
ELY	-9890
MoveTo	-9891
OVERRIDE	-9892
IndexService	-9893
CommentTracker	-9894
StatsCalculator	-9895
BM	-9896
STEP	-9897
Slow	-9898
Symb	-9899
bits	-9900
pcts	-9901
INLINE	-9902
argTypes	-9903
CTProcess	-9904
asc	-9905
actionName	-9906
THAN	-9907
Behavi	-9908
Places	-9909
caller	-9910
enrich	-9911
mappedBy	-9912
scrollTo	-9913
closeSession	-9914
JP	-9915
isNew	-9916
myElements	-9917
BuilderImpl	-9918
actionResponse	-9919
getClassLoader	-9920
Mvc	-9921
SITE	-9922
lifecycleState	-9923
Nio	-9924
Decode	-9925
colors	-9926
Effects	-9927
TimeNanos	-9928
Embeddable	-9929
CommonDataKeys	-9930
LocalFileSystem	-9931
GitCommandResult	-9932
Hot	-9933
Blank	-9934
Acquire	-9935
InNanos	-9936
TabInfo	-9937
myFocus	-9938
soapModels	-9939
hqlExecutor	-9940
setSelection	-9941
handlerMethod	-9942
HandlerMapping	-9943
sr	-9944
Alt	-9945
jpa	-9946
Weigh	-9947
TRANSFORM	-9948
TotalHits	-9949
setSource	-9950
getExtension	-9951
BUT	-9952
pet	-9953
SEMI	-9954
myTop	-9955
getHelp	-9956
Returned	-9957
addInput	-9958
ersCache	-9959
Stateless	-9960
preferences	-9961
ColumnBitmask	-9962
PsiIfStatement	-9963
fn	-9964
pends	-9965
Installed	-9966
readObject	-9967
Overlapping	-9968
intermediate	-9969
ContainingClass	-9970
ddl	-9971
unused	-9972
getSearch	-9973
setContext	-9974
MessageListener	-9975
Above	-9976
TopDocs	-9977
requestor	-9978
ReadCommand	-9979
Merger	-9980
OfMonth	-9981
ScalarFunction	-9982
mic	-9983
getRole	-9984
Wrapping	-9985
readFrom	-9986
Containing	-9987
EntityGraph	-9988
propertiesFile	-9989
schemaTableName	-9990
days	-9991
ABSTR	-9992
About	-9993
getFor	-9994
DICTION	-9995
ABSTRACT	-9996
Overflow	-9997
ColumnInfo	-9998
Abstraction	-9999
Gate	-10000
revoke	-10001
HttpStatus	-10002
PsiNewExpression	-10003
Bra	-10004
wal	-10005
RBRACE	-10006
dataId	-10007
TaskManager	-10008
RequestHelper	-10009
due	-10010
rong	-10011
Cells	-10012
Corre	-10013
Pooled	-10014
commands	-10015
FileStore	-10016
PlanBuilder	-10017
UserTransaction	-10018
getDependencies	-10019
GRE	-10020
ume	-10021
EXIST	-10022
scalar	-10023
DISPLAY	-10024
tracking	-10025
BorderLayout	-10026
ServiceBuilder	-10027
DEL	-10028
SHAR	-10029
toInt	-10030
juncts	-10031
PRECEDENCE	-10032
ChangeEvent	-10033
TaskContext	-10034
contentRoot	-10035
finallyBlock	-10036
singletonMap	-10037
ServiceObjects	-10038
IES	-10039
Sios	-10040
ander	-10041
Prompt	-10042
Continu	-10043
getFrom	-10044
Inactive	-10045
testRemove	-10046
InitialContext	-10047
HIST	-10048
mySrc	-10049
IoFile	-10050
Appender	-10051
contract	-10052
bm	-10053
STACK	-10054
indexing	-10055
AccountUser	-10056
percentiles	-10057
","	-10058
treePath	-10059
immutable	-10060
useDefault	-10061
ContentRevision	-10062
Lat	-10063
ung	-10064
Affix	-10065
SqlQuery	-10066
getOwner	-10067
Frequency	-10068
paramType	-10069
RefEdEntity	-10070
createEditor	-10071
instanceIndex	-10072
Wrong	-10073
fuzzy	-10074
maxSize	-10075
Reserved	-10076
tableScan	-10077
Incremental	-10078
NamingException	-10079
RID	-10080
acc	-10081
tests	-10082
Phrase	-10083
Shortcuts	-10084
SnapshotRequest	-10085
>>>	-10086
Dereference	-10087
bufferFactory	-10088
synchronization	-10089
BROAD	-10090
CONST	-10091
pology	-10092
Navigate	-10093
BROADCAST	-10094
QueueEntryId	-10095
amel	-10096
peek	-10097
myRoots	-10098
InElement	-10099
ThreeState	-10100
rightResult	-10101
cate	-10102
Authn	-10103
Orient	-10104
newChild	-10105
findMethod	-10106
initialValue	-10107
actionManager	-10108
ResultsProvider	-10109
indexableAction	-10110
CATE	-10111
OrDir	-10112
Regions	-10113
toUserId	-10114
CopyOnWrite	-10115
propertyValue	-10116
Cr	-10117
tmd	-10118
grand	-10119
party	-10120
setUuid	-10121
possible	-10122
otherNode	-10123
DriverContext	-10124
WEB	-10125
CMAP	-10126
EndOf	-10127
REPOSI	-10128
fileId	-10129
Hovered	-10130
Parents	-10131
Overload	-10132
includes	-10133
myIgnore	-10134
REPOSITOR	-10135
OrganizationId	-10136
bi	-10137
ops	-10138
Thumb	-10139
myPre	-10140
REGISTRY	-10141
inheritor	-10142
prototype	-10143
PerPartition	-10144
Derived	-10145
forecast	-10146
postProcess	-10147
organizationId	-10148
CHUNK	-10149
IsNot	-10150
mapType	-10151
doCreate	-10152
Connected	-10153
ModuleName	-10154
incremental	-10155
selectionModel	-10156
hi	-10157
MSG	-10158
LISH	-10159
coll	-10160
myTab	-10161
LAMBDA	-10162
CONNECT	-10163
Suggestions	-10164
XBreakpoint	-10165
processKeyPress	-10166
Hi	-10167
sf	-10168
ASM	-10169
SYN	-10170
MULTILINE	-10171
loadState	-10172
fromUserId	-10173
readOptional	-10174
ROLES	-10175
MANAGED	-10176
initAction	-10177
Intersection	-10178
getAssetList	-10179
MessageHandler	-10180
memo	-10181
DEFIN	-10182
Pointers	-10183
credentials	-10184
getFileType	-10185
StorageFormat	-10186
deterministic	-10187
TWO	-10188
EXECUT	-10189
ortion	-10190
Leading	-10191
PsiAssignment	-10192
ann	-10193
rect	-10194
watcher	-10195
Instanti	-10196
RowGroup	-10197
lastIndexOf	-10198
addDependency	-10199
ENCO	-10200
CANCE	-10201
sFrom	-10202
smart	-10203
GENERATED	-10204
LinkedList	-10205
queryStart	-10206
MetadataSource	-10207
BOL	-10208
Res	-10209
myUn	-10210
10004	-10211
gered	-10212
getShard	-10213
riggered	-10214
skuContributor	-10215
GetterFunctions	-10216
TransportAddress	-10217
tra	-10218
pivot	-10219
yield	-10220
Lombok	-10221
isInside	-10222
Aggregated	-10223
ContentEntry	-10224
doInHibernate	-10225
toolti	-10226
REGULAR	-10227
describe	-10228
tooltipowner	-10229
ElementVisitor	-10230
persistenceUnit	-10231
Escaped	-10232
keyBlock	-10233
nowledge	-10234
InComments	-10235
CoreFunctional	-10236
queryDefinition	-10237
TRON	-10238
align	-10239
ially	-10240
ELYTRON	-10241
getRight	-10242
rectangle	-10243
skuExternal	-10244
intersection	-10245
PAN	-10246
jboss	-10247
enumer	-10248
Staging	-10249
buffers	-10250
FetchByC	-10251
combobox	-10252
threadId	-10253
GrReference	-10254
transformId	-10255
isApplicable	-10256
exc	-10257
upl	-10258
Pause	-10259
myTag	-10260
swing	-10261
staging	-10262
secureSettings	-10263
Goal	-10264
Opened	-10265
dField	-10266
Advance	-10267
Parenth	-10268
Launcher	-10269
WebRequest	-10270
cardinality	-10271
SocketAddress	-10272
getPositionCount	-10273
Fit	-10274
Jaxb	-10275
Luce	-10276
twos	-10277
Lucene	-10278
myInput	-10279
abovedot	-10280
CacheFile	-10281
Recurring	-10282
RowNumber	-10283
findByUUID	-10284
myContainer	-10285
LighterASTNode	-10286
PropertiesFile	-10287
suspendContext	-10288
ARE	-10289
Ann	-10290
KEYS	-10291
atis	-10292
MultiValueMap	-10293
mc	-10294
ByQuery	-10295
advisor	-10296
fromType	-10297
SystemInfo	-10298
Classification	-10299
ClusterSettings	-10300
MVC	-10301
Seen	-10302
frozen	-10303
Insertion	-10304
ALLY	-10305
UAGE	-10306
BRACK	-10307
Subscri	-10308
LANGUAGE	-10309
Mismatch	-10310
parseInt	-10311
setCache	-10312
replaceAll	-10313
TriggerContext	-10314
PriceListService	-10315
QueryImplementor	-10316
ASC	-10317
Sym	-10318
OrBuilder	-10319
getDouble	-10320
queryCache	-10321
sourceFile	-10322
factorySupplier	-10323
tact	-10324
NULLS	-10325
capital	-10326
without	-10327
Released	-10328
TestUtils	-10329
encrypted	-10330
myVisible	-10331
Influencers	-10332
actionGroup	-10333
RequestMapping	-10334
stageExecution	-10335
RowPagesBuilder	-10336
externalProject	-10337
Dark	-10338
CATED	-10339
clipy	-10340
StoredScript	-10341
BuildingContext	-10342
RECOR	-10343
unded	-10344
Extend	-10345
nameId	-10346
Configs	-10347
decorate	-10348
javaType	-10349
paration	-10350
numShards	-10351
superType	-10352
UpperBound	-10353
objectName	-10354
createCriteria	-10355
Meter	-10356
emble	-10357
ALLOWED	-10358
navigate	-10359
ToReplace	-10360
defaultSku	-10361
setVisible	-10362
testSearch	-10363
indexWriter	-10364
writeObject	-10365
TypeConversion	-10366
Sys	-10367
rad	-10368
Draw	-10369
GEOME	-10370
GEOMETRY	-10371
SCHEDULE	-10372
ActionName	-10373
getComment	-10374
masterNode	-10375
MouseMotion	-10376
StructureView	-10377
;"	-10378
Pin	-10379
Farsi	-10380
INSERT	-10381
Combined	-10382
assertFunction	-10383
attributeValue	-10384
FIXED	-10385
riting	-10386
RESSION	-10387
STARTED	-10388
Reactive	-10389
Exclusions	-10390
NamedQuery	-10391
myParameters	-10392
getLineNumber	-10393
licies	-10394
GraphQL	-10395
activity	-10396
reformat	-10397
branchName	-10398
fileResolver	-10399
resolveArgument	-10400
ADDR	-10401
DOLL	-10402
_2_0	-10403
ects	-10404
DOLLAR	-10405
Thrown	-10406
Locally	-10407
uplizer	-10408
Loadable	-10409
Everywhere	-10410
privileges	-10411
FromElement	-10412
discriminator	-10413
namedWriteable	-10414
AnalyticsConfig	-10415
ral	-10416
JavaFx	-10417
CHANGED	-10418
ingData	-10419
Countries	-10420
bytesRead	-10421
SecureSettings	-10422
RendererFactory	-10423
fetchByCommerce	-10424
MCC	-10425
GROO	-10426
JBUI	-10427
UPLE	-10428
InNon	-10429
Javac	-10430
XValue	-10431
NewLine	-10432
IfNotNull	-10433
HttpServer	-10434
auditTrail	-10435
Orientation	-10436
THE	-10437
anging	-10438
USERNAME	-10439
coverage	-10440
ALLOCATION	-10441
StageExecution	-10442
PrestoPrincipal	-10443
Dup	-10444
Applier	-10445
IRATION	-10446
SERIALI	-10447
cedence	-10448
JoinParts	-10449
myStorage	-10450
newMethod	-10451
getArtifact	-10452
modification	-10453
Xslt	-10454
Broken	-10455
GROOVY	-10456
Rebase	-10457
Mockito	-10458
Negated	-10459
CalendarId	-10460
getDisplay	-10461
initOffset	-10462
HeaderAccessor	-10463
StoredProcedure	-10464
calendarTimeout	-10465
ran	-10466
PROG	-10467
Semi	-10468
MATION	-10469
Rebuild	-10470
SEGMENT	-10471
Instrument	-10472
getCondition	-10473
Proper	-10474
EndpointsFor	-10475
authorization	-10476
igu	-10477
oring	-10478
DISTIN	-10479
CALLBACK	-10480
DISTINCT	-10481
maxValue	-10482
suggested	-10483
ClassNotFound	-10484
SmartPsiElement	-10485
oti	-10486
pom	-10487
classPath	-10488
GrVariable	-10489
addParameter	-10490
RequestPredicate	-10491
ATTE	-10492
JBoss	-10493
addAs	-10494
Upload	-10495
cascade	-10496
myFiles	-10497
DynamicObject	-10498
getPsiElement	-10499
GEOL	-10500
Deque	-10501
GEOLATTE	-10502
ImplUtil	-10503
GroupRole	-10504
testCount	-10505
OutputFile	-10506
deactivate	-10507
setContent	-10508
declareString	-10509
Synce	-10510
ByText	-10511
Subset	-10512
DOCUMENT	-10513
baseModel	-10514
transition	-10515
rowExpression	-10516
ByReferenceCode	-10517
los	-10518
SCALE	-10519
Writes	-10520
runTest	-10521
systemId	-10522
ClusterBlock	-10523
moduleIdentifier	-10524
CV	-10525
QUICK	-10526
COUNTER	-10527
escaped	-10528
seconds	-10529
Incompatible	-10530
badColumnNames	-10531
containsString	-10532
Wall	-10533
ssuer	-10534
Captor	-10535
SdkType	-10536
workflowInstance	-10537
LEA	-10538
eme	-10539
TURE	-10540
itely	-10541
RunWith	-10542
addFile	-10543
Delegating	-10544
NamedElement	-10545
Except	-10546
MapKey	-10547
sender	-10548
isClass	-10549
myLibrary	-10550
Experiment	-10551
bucketSpan	-10552
fileEditor	-10553
assertAcked	-10554
Installation	-10555
iff	-10556
SENSITIVE	-10557
bucketOrd	-10558
getPlugin	-10559
FileContent	-10560
handledException	-10561
sessionFunctions	-10562
Swap	-10563
Prior	-10564
Parallel	-10565
accepted	-10566
getFieldValue	-10567
operationName	-10568
cn	-10569
UNA	-10570
special	-10571
Undertow	-10572
subquery	-10573
JpsModule	-10574
myProvider	-10575
Termination	-10576
Representation	-10577
tn	-10578
Mic	-10579
BUND	-10580
Stale	-10581
clipx	-10582
getVcs	-10583
SideMCC	-10584
ErrorCode	-10585
fieldValue	-10586
ChangedEvent	-10587
GridConstraints	-10588
sur	-10589
beat	-10590
myTo	-10591
myUi	-10592
rack	-10593
lectable	-10594
authorize	-10595
readcrumb	-10596
MetricName	-10597
entryCount	-10598
joinCompiler	-10599
ech	-10600
Hook	-10601
STER	-10602
orph	-10603
TRACK	-10604
ilent	-10605
ioFile	-10606
Offline	-10607
restored	-10608
WildcardType	-10609
getCompletion	-10610
Comple	-10611
isInher	-10612
errorHandler	-10613
ContentManager	-10614
RELA	-10615
SHIP	-10616
DELIMI	-10617
oldName	-10618
stituted	-10619
keepAlive	-10620
Autoscaling	-10621
readExternal	-10622
maries	-10623
Writers	-10624
balloon	-10625
getCount	-10626
columnIds	-10627
testMulti	-10628
convention	-10629
ArrayUtilRt	-10630
GroupConfig	-10631
createModule	-10632
getNamespace	-10633
"1"	-10634
HBM	-10635
Jsp	-10636
copyTo	-10637
lenient	-10638
ToCreate	-10639
refreshAnd	-10640
getPrevious	-10641
authenticate	-10642
Utc	-10643
myItems	-10644
attrName	-10645
addComponent	-10646
firstTimeout	-10647
syncDLObject	-10648
CatalogMetadata	-10649
buildExpression	-10650
pin	-10651
Mail	-10652
edBy	-10653
look	-10654
Early	-10655
LIGHT	-10656
Units	-10657
lying	-10658
TaskMap	-10659
doInJPA	-10660
rootTag	-10661
getStats	-10662
SetupTask	-10663
FileChooser	-10664
columnHandle	-10665
PropertyValue	-10666
CUT	-10667
GeoShape	-10668
softWrap	-10669
testWith	-10670
decorator	-10671
OutputPath	-10672
restricted	-10673
getTextLength	-10674
CIP	-10675
DAR	-10676
myT	-10677
urls	-10678
Texts	-10679
YesNo	-10680
quoted	-10681
assetTag	-10682
getSuper	-10683
userObject	-10684
Equivalence	-10685
ResolveScope	-10686
WM	-10687
CII	-10688
EXTENDS	-10689
OffHeap	-10690
getLeft	-10691
rounded	-10692
spiller	-10693
Behavior	-10694
myActive	-10695
DateFormat	-10696
binaryExpression	-10697
rono	-10698
COMPIL	-10699
otherEntity	-10700
NoSuchDiscount	-10701
PH	-10702
ORDIN	-10703
newText	-10704
setBorder	-10705
myTemplate	-10706
sourceType	-10707
IndexResponse	-10708
ActionResponse	-10709
simp	-10710
Reflect	-10711
dataset	-10712
ferencing	-10713
setCurrent	-10714
searchContainer	-10715
TRA	-10716
_22	-10717
jobs	-10718
Levels	-10719
myAnchor	-10720
COMPRESSION	-10721
invokeLater	-10722
frequency	-10723
Compliance	-10724
getVisible	-10725
RequestBody	-10726
FOLDER	-10727
getRelative	-10728
tryStatement	-10729
testSingleValue	-10730
setS	-10731
Injections	-10732
ResourceGroup	-10733
findAnnotation	-10734
ExternalProject	-10735
DfaVariableValue	-10736
streamDescriptor	-10737
Due	-10738
PMI	-10739
Sender	-10740
atisfi	-10741
screen	-10742
Throttle	-10743
refClass	-10744
setFirst	-10745
TaskState	-10746
EXPIRATION	-10747
CandidateInfo	-10748
CommandAction	-10749
02	-10750
GH	-10751
eta	-10752
pyClass	-10753
LanguageUtil	-10754
ResolveState	-10755
ActionFilters	-10756
ParsedDocument	-10757
Elem	-10758
Subst	-10759
ocial	-10760
SHARDS	-10761
toList	-10762
Repaint	-10763
getRule	-10764
Construct	-10765
portletId	-10766
OptionRels	-10767
LayeredPane	-10768
ManagerUtil	-10769
placeholder	-10770
FunctionName	-10771
externalSystemId	-10772
JBO	-10773
plid	-10774
ListModel	-10775
broadcast	-10776
ModuleVersion	-10777
blockEncoding	-10778
SERV	-10779
SHEL	-10780
myLabel	-10781
received	-10782
rightBlock	-10783
newCommerce	-10784
timeProvider	-10785
SortBy	-10786
ValueMap	-10787
ClusterHealth	-10788
OriginalValue	-10789
SAMPLE	-10790
VarType	-10791
getRead	-10792
numeric	-10793
REPOSITORY	-10794
CenterPanel	-10795
CRY	-10796
CRYP	-10797
Focusable	-10798
ListPopup	-10799
queryState	-10800
verification	-10801
ActionToolbar	-10802
ParsingException	-10803
Whole	-10804
myAdd	-10805
ByPath	-10806
Outgoing	-10807
getSlice	-10808
setState	-10809
subtract	-10810
clusterName	-10811
readBoolean	-10812
BrowseButton	-10813
terminalBlock	-10814
DocId	-10815
authz	-10816
ortable	-10817
Dangling	-10818
Markdown	-10819
ScriptService	-10820
getReferences	-10821
DfaMemoryState	-10822
."	-10823
utf	-10824
Dash	-10825
help	-10826
JBOSS	-10827
thrift	-10828
RELATIVE	-10829
SYNCHRON	-10830
SecureString	-10831
StandardTypes	-10832
PainlessParser	-10833
RequestCallback	-10834
TINY	-10835
newIndex	-10836
getSchema	-10837
handshake	-10838
StringValue	-10839
psiDirectory	-10840
MCPK	-10841
INFINI	-10842
RUNNING	-10843
migrate	-10844
painless	-10845
Convertor	-10846
PyElement	-10847
Trackbacks	-10848
classNameIds	-10849
getAccessible	-10850
pd	-10851
_21	-10852
PREV	-10853
Coercion	-10854
Surround	-10855
emptySet	-10856
planNode	-10857
Pingbacks	-10858
cacheable	-10859
AstVisitor	-10860
SliceOutput	-10861
calendarIds	-10862
unsuccessful	-10863
TextComponent	-10864
maxOutstanding	-10865
ProjectStructure	-10866
assetCategoryIds	-10867
LAYOUT	-10868
Palette	-10869
Scr	-10870
setRe	-10871
SECTION	-10872
maxSeqNo	-10873
getLocale	-10874
myProcess	-10875
Positional	-10876
setReadOnly	-10877
Plot	-10878
abort	-10879
CATALOG	-10880
CHARSET	-10881
tDigest	-10882
ItemsCount	-10883
ModifiableModel	-10884
createStatement	-10885
cfm	-10886
CEPRI	-10887
NUMER	-10888
CHARAC	-10889
Spring	-10890
getAdd	-10891
Sections	-10892
StreamEx	-10893
findFirst	-10894
COMMERCEPRI	-10895
MavenProjects	-10896
FQN	-10897
Popu	-10898
have	-10899
zero	-10900
NoMore	-10901
Opcodes	-10902
EnrichPolicy	-10903
phaseContext	-10904
slot	-10905
large	-10906
times	-10907
Raptor	-10908
getView	-10909
KeyValue	-10910
ListJoinColumn	-10911
ACCOUN	-10912
olation	-10913
ANNOTATIONS	-10914
UserDataHolder	-10915
Jre	-10916
gle	-10917
COPY	-10918
Fork	-10919
Saved	-10920
artbeat	-10921
nonNull	-10922
writable	-10923
Traverser	-10924
configured	-10925
SpillerFactory	-10926
myFont	-10927
between	-10928
ClassWith	-10929
FileTypes	-10930
autodetect	-10931
contextPath	-10932
TypeVariable	-10933
TaskExecution	-10934
PropertyValues	-10935
getDataContext	-10936
03	-10937
dup	-10938
Both	-10939
Plural	-10940
focused	-10941
applyFix	-10942
relevant	-10943
Unbounded	-10944
totalSize	-10945
Percentile	-10946
ShrinkWrap	-10947
permissions	-10948
Ask	-10949
SGR	-10950
CACH	-10951
Emit	-10952
JDOM	-10953
Keyed	-10954
extend	-10955
LogEntry	-10956
putValue	-10957
LineBreak	-10958
Associated	-10959
actualType	-10960
providerType	-10961
ServerResponse	-10962
emf	-10963
Chosen	-10964
nation	-10965
readInt	-10966
Suggested	-10967
multipart	-10968
RefIngEntity	-10969
adj	-10970
Simu	-10971
NAMED	-10972
getHash	-10973
ShardSize	-10974
constructors	-10975
MergedAnnotation	-10976
gn	-10977
TIT	-10978
Answ	-10979
dirs	-10980
remum	-10981
boundary	-10982
EntityKey	-10983
projections	-10984
HighlightType	-10985
presentStream	-10986
Shif	-10987
ircle	-10988
ToRemove	-10989
Effective	-10990
SingleRow	-10991
Transitive	-10992
UniqueFind	-10993
ddmStructureId	-10994
cacheUniqueFind	-10995
ArgumentResolver	-10996
IOP	-10997
NEST	-10998
shell	-10999
myEvent	-11000
Estimates	-11001
timeValue	-11002
capability	-11003
getShipping	-11004
getAdditional	-11005
PsiTypeElement	-11006
SB	-11007
Aop	-11008
cols	-11009
getAnd	-11010
itized	-11011
backing	-11012
myColor	-11013
DATAFEED	-11014
Variation	-11015
TableSchema	-11016
TestFixture	-11017
FILL	-11018
REST	-11019
yybegin	-11020
Keyspaces	-11021
ActiveShards	-11022
refreshToken	-11023
BlobContainer	-11024
BundleContext	-11025
RetentionDays	-11026
RulePersistence	-11027
ellij	-11028
third	-11029
Linear	-11030
edNote	-11031
linked	-11032
HISTORY	-11033
inbound	-11034
getPrefix	-11035
methodWriter	-11036
spillEnabled	-11037
FilterFactory	-11038
DV	-11039
WAYS	-11040
Party	-11041
ALWAYS	-11042
ToSelect	-11043
Isolation	-11044
Highlights	-11045
TasksEntry	-11046
ExecuteStatus	-11047
Bigint	-11048
Reroute	-11049
ression	-11050
Wrappers	-11051
zzBuffer	-11052
ctsContent	-11053
DBManagerUtil	-11054
JVM	-11055
NET	-11056
Goss	-11057
SAME	-11058
area	-11059
IfSet	-11060
dummy	-11061
reedy	-11062
opType	-11063
OVERRID	-11064
Executors	-11065
Characters	-11066
MemberInfo	-11067
SearchShard	-11068
getColumnValue	-11069
TransformConfig	-11070
ORG	-11071
ELSE	-11072
RECORD	-11073
commits	-11074
PageSize	-11075
DatafeedConfig	-11076
ProcessCanceled	-11077
CompressionCodec	-11078
referenceElement	-11079
mid	-11080
Quotes	-11081
endIndex	-11082
getColor	-11083
ificator	-11084
gadgetKey	-11085
Recurrence	-11086
inputMessage	-11087
deploymentName	-11088
createComponent	-11089
BORDER	-11090
Counting	-11091
ENCODING	-11092
testIndex	-11093
FieldCount	-11094
createFrom	-11095
Percentiles	-11096
rightPosition	-11097
cach	-11098
cond	-11099
myForce	-11100
nextInt	-11101
Hierarch	-11102
fullName	-11103
subtitle	-11104
RelService	-11105
componentClass	-11106
executorService	-11107
Pick	-11108
SOFT	-11109
Spel	-11110
ByKey	-11111
unset	-11112
ASSERT	-11113
getTab	-11114
myHide	-11115
COMPILE	-11116
ication	-11117
RecordSet	-11118
getFields	-11119
createMethod	-11120
FileViewProvider	-11121
Tw	-11122
RIES	-11123
getNum	-11124
getJoin	-11125
printer	-11126
Replacer	-11127
categories	-11128
testDefault	-11129
RenderRequest	-11130
RouterFunction	-11131
SelectionState	-11132
ka	-11133
Answer	-11134
BuiltIn	-11135
TDigest	-11136
Analyzed	-11137
setAllow	-11138
getPattern	-11139
orderEntry	-11140
FileAttributes	-11141
RepositoryData	-11142
NoSuchPriceList	-11143
hard	-11144
evict	-11145
cluding	-11146
scanner	-11147
Features	-11148
Scrollbar	-11149
Subscript	-11150
WithEmpty	-11151
testSingle	-11152
BodyBuilder	-11153
consoleView	-11154
TaxFixedRate	-11155
Envs	-11156
rease	-11157
igible	-11158
viewer	-11159
GroupRels	-11160
SnapshotId	-11161
fetchSource	-11162
OutputBuffers	-11163
ResponseEntity	-11164
EVAL	-11165
Phone	-11166
noMore	-11167
compose	-11168
Preserve	-11169
DEPRECATED	-11170
LAR	-11171
capa	-11172
bullet	-11173
Assigns	-11174
Servers	-11175
getMeta	-11176
testNon	-11177
getLabel	-11178
memtable	-11179
Exclusion	-11180
SYNCHRONI	-11181
getSingle	-11182
intersect	-11183
byteBuffer	-11184
errorState	-11185
Coordinates	-11186
isInterface	-11187
ProjectModel	-11188
capabilities	-11189
CPDefinitions	-11190
SYM	-11191
tester	-11192
Ordinals	-11193
Changelist	-11194
NodeClient	-11195
whiteSpace	-11196
RESTE	-11197
Fetcher	-11198
ExprDown	-11199
OnDemand	-11200
modelNode	-11201
removeByUUID	-11202
requestContext	-11203
ENG	-11204
splits	-11205
WriteTo	-11206
Definitely	-11207
associated	-11208
TreeCellRenderer	-11209
bor	-11210
CORE	-11211
Uses	-11212
bable	-11213
addNode	-11214
myFrame	-11215
Initialize	-11216
ContainerFactory	-11217
tex	-11218
Dead	-11219
CTAuto	-11220
PROGRESS	-11221
RESTEASY	-11222
aggBuilder	-11223
discovered	-11224
getPackage	-11225
friendlyURL	-11226
FileRevision	-11227
testMultiple	-11228
AlreadyExists	-11229
PsiDeclaration	-11230
AssignsVariable	-11231
rel	-11232
doNot	-11233
ESCAPE	-11234
Lenient	-11235
blobName	-11236
taskName	-11237
CacheSize	-11238
TimeInMillis	-11239
serviceTarget	-11240
Cors	-11241
Pivot	-11242
Suites	-11243
WEIGHT	-11244
counts	-11245
Protected	-11246
QueryInfo	-11247
webServer	-11248
getPortlet	-11249
CachedValue	-11250
getAttachment	-11251
setUserService	-11252
Decl	-11253
zoom	-11254
spans	-11255
zzStart	-11256
DataStreams	-11257
totalShards	-11258
zzStartRead	-11259
COMMERCEACCOUNT	-11260
uc	-11261
fqn	-11262
Tpch	-11263
Denied	-11264
lipsis	-11265
macron	-11266
PyNames	-11267
Expander	-11268
PerSecond	-11269
Queryable	-11270
licability	-11271
getPriority	-11272
refreshAndFind	-11273
Fs	-11274
Pix	-11275
oda	-11276
ono	-11277
ippet	-11278
JTable	-11279
OfWeek	-11280
Vendor	-11281
ENTRIES	-11282
FileInfo	-11283
myStatus	-11284
myRequest	-11285
CPInstances	-11286
izedIndices	-11287
CacheManager	-11288
ShardRequest	-11289
weDeployAuth	-11290
assetPublisher	-11291
coursePreferred	-11292
MY	-11293
fd	-11294
Deps	-11295
loor	-11296
wise	-11297
QUALI	-11298
TOPIC	-11299
enforce	-11300
setData	-11301
BucketOrd	-11302
IdeBundle	-11303
arrayType	-11304
getCompany	-11305
MavenServer	-11306
myPluginModel	-11307
categorization	-11308
dataStreamName	-11309
Dr	-11310
Addr	-11311
Druid	-11312
Eager	-11313
Around	-11314
PRESTO	-11315
getServer	-11316
myExcluded	-11317
getDelegate	-11318
httpRequest	-11319
propertyType	-11320
FilterFunction	-11321
VISI	-11322
_1_1	-11323
ually	-11324
getByUuid	-11325
getHeight	-11326
restRequest	-11327
Initializers	-11328
ActionManager	-11329
WebApplication	-11330
repositoryData	-11331
incrementAndGet	-11332
succ	-11333
Desce	-11334
imize	-11335
GREATER	-11336
UserHome	-11337
sections	-11338
callbacks	-11339
DocumentContent	-11340
sd	-11341
ANI	-11342
THRO	-11343
Codes	-11344
IfNot	-11345
alone	-11346
toPath	-11347
monitor	-11348
BlockNode	-11349
NoSuchOrder	-11350
Kit	-11351
pbr	-11352
JPQL	-11353
PsiTree	-11354
MESSAGES	-11355
textField	-11356
cpOptionId	-11357
getPending	-11358
MessageDialog	-11359
columnHandles	-11360
compareAndSet	-11361
ANG	-11362
six	-11363
TIMER	-11364
Signal	-11365
getOrc	-11366
solete	-11367
warded	-11368
dataStreams	-11369
allowPingbacks	-11370
MappedSuperclass	-11371
vf	-11372
STOR	-11373
Infin	-11374
Strip	-11375
gging	-11376
DEFINED	-11377
renamed	-11378
myPresentation	-11379
PrimaryKeysWith	-11380
WithBrowseButton	-11381
Another	-11382
Matched	-11383
Temporal	-11384
vertical	-11385
accumulate	-11386
cancellation	-11387
ScopedSettings	-11388
getUserService	-11389
NoSuchCPInstance	-11390
TimeoutException	-11391
emit	-11392
Symbols	-11393
getOnly	-11394
watchId	-11395
clipwidth	-11396
IfSetOrGet	-11397
targetBuilder	-11398
JAV	-11399
drag	-11400
Clauses	-11401
Building	-11402
myIndent	-11403
FullValue	-11404
OPERATORS	-11405
Selective	-11406
addAttribute	-11407
derr	-11408
ENTER	-11409
SLASHY	-11410
castTo	-11411
CREMENT	-11412
Closing	-11413
evaluator	-11414
CONNECTIONS	-11415
NoSuchInventory	-11416
illed	-11417
Negoti	-11418
SPACES	-11419
TENTRY	-11420
FORWARD	-11421
myCommit	-11422
unresolved	-11423
DiffContent	-11424
StepHandler	-11425
objectMapper	-11426
routingNodes	-11427
ByteBufferUtil	-11428
secondLevelCache	-11429
Hunk	-11430
getY	-11431
PRIMI	-11432
myUrl	-11433
runAs	-11434
Kernel	-11435
AndView	-11436
Gadgets	-11437
xmlFile	-11438
Calculate	-11439
Commenter	-11440
PRIMITIVE	-11441
MANAGEMENT	-11442
ActionEvent	-11443
AsyncAction	-11444
TimingStats	-11445
unsupported	-11446
prepareSearch	-11447
dbi	-11448
accur	-11449
VALUED	-11450
cleanUp	-11451
exitCode	-11452
leftType	-11453
mySrcDir	-11454
Collision	-11455
bucketName	-11456
targetFile	-11457
createRandom	-11458
taskExecutor	-11459
CPOptionService	-11460
Utf	-11461
more	-11462
myRb	-11463
Manual	-11464
InRange	-11465
Autowire	-11466
Deciders	-11467
countByUUID	-11468
PAIR	-11469
eval	-11470
rType	-11471
Scorer	-11472
ceeded	-11473
POSITIONS	-11474
intention	-11475
GrStatement	-11476
myHighlighter	-11477
GutterComponent	-11478
AndConfiguration	-11479
AX	-11480
TAGS	-11481
Paren	-11482
manent	-11483
records	-11484
tection	-11485
Executed	-11486
channels	-11487
setFilter	-11488
Normalizer	-11489
createDefault	-11490
NamingStrategy	-11491
"}	-11492
Dep	-11493
Hql	-11494
JSP	-11495
Mat	-11496
URLY	-11497
LARGE	-11498
orders	-11499
lastName	-11500
OnPrimary	-11501
SMTestProxy	-11502
ChangeSignature	-11503
lytron	-11504
Keystore	-11505
searchFor	-11506
IndexReader	-11507
PathComponent	-11508
AssetVocabulary	-11509
ReflectionIndex	-11510
NotificationType	-11511
awt	-11512
Jump	-11513
placement	-11514
Os	-11515
MIS	-11516
SCRE	-11517
unce	-11518
fours	-11519
myHost	-11520
UserType	-11521
bytecode	-11522
intellij	-11523
SortOrder	-11524
syncDevice	-11525
Propagation	-11526
getInternal	-11527
ErrorHandler	-11528
ASSET	-11529
MAPPER	-11530
aliased	-11531
myCancel	-11532
fileIndex	-11533
assertRows	-11534
InfoService	-11535
addDocument	-11536
entityPersister	-11537
kh	-11538
Need	-11539
PLUS	-11540
getN	-11541
stmt	-11542
sModel	-11543
latable	-11544
inferred	-11545
myHelper	-11546
getAddress	-11547
ServiceHttp	-11548
NodeSelector	-11549
jaxb	-11550
decomp	-11551
Combine	-11552
grantee	-11553
restClient	-11554
journalArticle	-11555
LocalizedFields	-11556
documentManager	-11557
heel	-11558
views	-11559
JBTabs	-11560
machine	-11561
myPrefix	-11562
Semaphore	-11563
endElement	-11564
getGeneric	-11565
getMapping	-11566
BinaryStream	-11567
updateShipping	-11568
SAX	-11569
onek	-11570
ying	-11571
Pixel	-11572
CANCEL	-11573
ogonek	-11574
Commands	-11575
embedded	-11576
Inclusive	-11577
FileWriter	-11578
UpdateTask	-11579
complement	-11580
containing	-11581
ivy	-11582
rypt	-11583
ously	-11584
applyTo	-11585
preserve	-11586
LogFactory	-11587
dispatcher	-11588
myLanguage	-11589
versService	-11590
RecordCursor	-11591
uncompressed	-11592
UnknownFields	-11593
cd	-11594
xp	-11595
Quest	-11596
Stick	-11597
Cipher	-11598
PREPARE	-11599
trackbacks	-11600
Generations	-11601
TableWriter	-11602
Authenticate	-11603
CacheService	-11604
DDMStructure	-11605
ScrollingModel	-11606
beanDefinition	-11607
LF	-11608
DnD	-11609
hold	-11610
undo	-11611
TITLE	-11612
myHead	-11613
startX	-11614
PERCENT	-11615
TException	-11616
tableAlias	-11617
upperBound	-11618
FileEntries	-11619
getProxyProvider	-11620
bcc	-11621
ees	-11622
IIOP	-11623
Receiver	-11624
StdArrangement	-11625
TablePrivileges	-11626
Deep	-11627
FUNCTIONS	-11628
setCustom	-11629
foreground	-11630
headerName	-11631
incomplete	-11632
createClass	-11633
selectionStart	-11634
ClassDefinition	-11635
AnnotatedElement	-11636
HINT	-11637
ISca	-11638
Pairs	-11639
THROWS	-11640
Weights	-11641
newClusterState	-11642
hosts	-11643
Labels	-11644
SHARED	-11645
provided	-11646
sourceNode	-11647
newArrayList	-11648
NCY	-11649
myB	-11650
Promo	-11651
STORAGE	-11652
getTasks	-11653
Ascending	-11654
nameIndex	-11655
GutterIcon	-11656
myRenderer	-11657
DialogTitle	-11658
fileSourceRoot	-11659
scopedSettings	-11660
leter	-11661
Joiner	-11662
Operands	-11663
Semantic	-11664
deepCopy	-11665
JavaArchive	-11666
TaskFactory	-11667
RecordReader	-11668
getWriteable	-11669
myDescriptor	-11670
BuilderFactory	-11671
hn	-11672
sess	-11673
Auditor	-11674
findByR	-11675
Provided	-11676
captured	-11677
SoftWraps	-11678
myIndicator	-11679
Requirements	-11680
myDisposable	-11681
retentionLease	-11682
OfLengthBetween	-11683
WarningCollector	-11684
vDir	-11685
DELTA	-11686
early	-11687
flavor	-11688
Related	-11689
ToRight	-11690
shuffle	-11691
actionGet	-11692
fromElement	-11693
SocketBinding	-11694
myDebugProcess	-11695
serializedSize	-11696
ARGS	-11697
LESS	-11698
asMap	-11699
getPsi	-11700
AEntity	-11701
AtNanos	-11702
Placement	-11703
TreeDepth	-11704
categoryId	-11705
ReferenceTo	-11706
elasticsearch	-11707
GRA	-11708
mySub	-11709
shorten	-11710
buffered	-11711
Iterables	-11712
DebugSession	-11713
MessageLogger	-11714
ShipmentFinder	-11715
circuitBreaker	-11716
lambdaExpression	-11717
Scal	-11718
ibly	-11719
vised	-11720
SERVLET	-11721
invoked	-11722
ChangeSet	-11723
ServiceKey	-11724
shardManager	-11725
ssr	-11726
wac	-11727
SIDE	-11728
poll	-11729
Bounded	-11730
TestFile	-11731
deprecated	-11732
CaretOffset	-11733
BufferedImage	-11734
SelectionStart	-11735
Rc	-11736
Mech	-11737
revi	-11738
BEGIN	-11739
expiry	-11740
beanType	-11741
DefaultList	-11742
HttpHandler	-11743
cancellable	-11744
ClusterPrivilege	-11745
LICE	-11746
zzInput	-11747
ClassVisitor	-11748
PlanFragment	-11749
PropertyType	-11750
exportAction	-11751
TUPLE	-11752
UniqueKey	-11753
EditorWindow	-11754
addOperation	-11755
SystemProperties	-11756
Hieu	-11757
Hieuh	-11758
oogle	-11759
delayed	-11760
getPoint	-11761
OrderQuantity	-11762
StockQuantity	-11763
CommonAttributes	-11764
Specs	-11765
HEIGHT	-11766
predic	-11767
Recover	-11768
fraction	-11769
aliasName	-11770
descender	-11771
popupmenu	-11772
assetCategoryId	-11773
Ki	-11774
ANON	-11775
CODEC	-11776
MINUS	-11777
appId	-11778
mbigu	-11779
Transp	-11780
hashes	-11781
Bracket	-11782
editors	-11783
CharArray	-11784
InProject	-11785
Substring	-11786
interrupt	-11787
calculated	-11788
Deterministic	-11789
createMessage	-11790
tty	-11791
EventLog	-11792
ForImport	-11793
ForeignKey	-11794
PrintStream	-11795
NamedParameter	-11796
actionListener	-11797
REGION	-11798
markAs	-11799
toggle	-11800
marshal	-11801
Tuplizer	-11802
Substitutions	-11803
readerContext	-11804
getInitializer	-11805
bookmarksFolder	-11806
RuleLocalService	-11807
getPrimaryKeyObj	-11808
lw	-11809
Prox	-11810
goal	-11811
Water	-11812
Doclet	-11813
isDone	-11814
getByte	-11815
TailType	-11816
ClassNode	-11817
DEPENDENCY	-11818
processing	-11819
finishElement	-11820
propertyHolder	-11821
ius	-11822
san	-11823
SEQU	-11824
swap	-11825
Matrix	-11826
PinotQuery	-11827
resolvable	-11828
ObjectArray	-11829
StorageTime	-11830
collectionType	-11831
hiveStorageTime	-11832
DUP	-11833
udt	-11834
rolled	-11835
RowType	-11836
Notifier	-11837
Question	-11838
AfterTest	-11839
mySession	-11840
getDialect	-11841
sourceClass	-11842
myTargetClass	-11843
Tun	-11844
cumul	-11845
TimeMs	-11846
slices	-11847
REFRESH	-11848
dropped	-11849
Includes	-11850
LocalTime	-11851
getModules	-11852
isFinished	-11853
myExpected	-11854
memoryLimit	-11855
LookupSource	-11856
GradleProject	-11857
serviceBuilder	-11858
createConcurrent	-11859
uest	-11860
onomy	-11861
FINISH	-11862
Subfield	-11863
pagination	-11864
indexSearcher	-11865
elseExpression	-11866
allowTrackbacks	-11867
leep	-11868
ToShow	-11869
OneLine	-11870
SUBSCRIP	-11871
IdConnect	-11872
childType	-11873
connectTo	-11874
Immediately	-11875
IMA	-11876
prod	-11877
Facets	-11878
Folded	-11879
RENDER	-11880
reject	-11881
getJdbc	-11882
jxFolder	-11883
getLibrary	-11884
resolveScope	-11885
AccessStrategy	-11886
SD	-11887
affix	-11888
InfoImpl	-11889
Memtable	-11890
doUpdate	-11891
isSearch	-11892
Multiline	-11893
VARBINARY	-11894
newOffset	-11895
rightType	-11896
ByExternal	-11897
getFolders	-11898
myLibAdditional	-11899
Locked	-11900
detail	-11901
getBad	-11902
staged	-11903
Dropped	-11904
MaxSize	-11905
pendsOn	-11906
setAuto	-11907
RecordId	-11908
Published	-11909
Subfields	-11910
DebugValue	-11911
hashChannel	-11912
serviceType	-11913
primaryShard	-11914
writeBoolean	-11915
Clay	-11916
EXIT	-11917
Feel	-11918
roid	-11919
Appro	-11920
every	-11921
DELETED	-11922
CONTINUE	-11923
KeepAlive	-11924
Customizer	-11925
pagesIndex	-11926
removeFrom	-11927
JavaVersion	-11928
getSupported	-11929
variableName	-11930
LayoutManager	-11931
SnapshotStatus	-11932
CR	-11933
equ	-11934
SockJs	-11935
general	-11936
rootDir	-11937
BuildTarget	-11938
DocCountError	-11939
vocableMemory	-11940
codeStyleManager	-11941
EXPI	-11942
JECTED	-11943
Realms	-11944
tocols	-11945
Bundled	-11946
PyString	-11947
Replaced	-11948
currentName	-11949
MergeRequest	-11950
getConnector	-11951
getShortName	-11952
AliasesRequest	-11953
retentionLeases	-11954
stdout	-11955
Dropdown	-11956
myPackage	-11957
QueryCache	-11958
WK	-11959
del	-11960
getL	-11961
THROW	-11962
comma	-11963
assume	-11964
recent	-11965
Chained	-11966
diaeresis	-11967
dataBuffer	-11968
OpenIdConnect	-11969
TypeAnnotation	-11970
AW	-11971
Hard	-11972
Mime	-11973
isUn	-11974
CREATED	-11975
CtClass	-11976
PROFILE	-11977
constants	-11978
functional	-11979
updateEntry	-11980
PreviewEntry	-11981
availability	-11982
probeHashEnabled	-11983
SCAN	-11984
yled	-11985
AndFeel	-11986
Writing	-11987
GroupNode	-11988
Navigator	-11989
getSecond	-11990
expectedValue	-11991
textAttributes	-11992
04	-11993
verb	-11994
agers	-11995
TypeId	-11996
titles	-11997
PsiJava	-11998
DELIMITER	-11999
allocated	-12000
LocaleUtil	-12001
insertString	-12002
Rpc	-12003
Sol	-12004
Dict	-12005
layer	-12006
repeat	-12007
ActionId	-12008
isSameAs	-12009
joinNode	-12010
urlTitle	-12011
InCurrent	-12012
buildFile	-12013
Dimensions	-12014
Sig	-12015
Compute	-12016
EXECUTOR	-12017
myWindow	-12018
Intervals	-12019
engineKey	-12020
Intentions	-12021
RestChannel	-12022
CountryFinder	-12023
queryExecution	-12024
InjectedLanguage	-12025
elt	-12026
tailed	-12027
ACTIONS	-12028
Interim	-12029
outputs	-12030
Formatted	-12031
childNode	-12032
ActionKeys	-12033
NonNegative	-12034
rave	-12035
tempts	-12036
Subtype	-12037
fileOrDir	-12038
RoleMapping	-12039
WriteRequest	-12040
getDeprecation	-12041
thenExpression	-12042
LocalChangeList	-12043
numberOfReplicas	-12044
HIER	-12045
Buildable	-12046
publisher	-12047
Implementations	-12048
SOLE	-12049
does	-12050
leon	-12051
newP	-12052
Stubs	-12053
obtain	-12054
tracer	-12055
grantor	-12056
updater	-12057
Signatures	-12058
TokenMetadata	-12059
writeOptional	-12060
UpdateSettings	-12061
setExpandoBridge	-12062
FRE	-12063
VLong	-12064
BRANCH	-12065
Braces	-12066
NESTED	-12067
Placed	-12068
REGEXP	-12069
Gateway	-12070
related	-12071
myShould	-12072
ronology	-12073
getMappings	-12074
InjectionHost	-12075
orcDataSource	-12076
CodeStyleManager	-12077
ff	-12078
fic	-12079
folding	-12080
multiply	-12081
Adjustment	-12082
Invalidate	-12083
accessible	-12084
ArtifactSet	-12085
qualifierType	-12086
zed	-12087
CURLY	-12088
Touch	-12089
arest	-12090
setMin	-12091
Buffers	-12092
breaker	-12093
creator	-12094
locator	-12095
REDIRECT	-12096
bindings	-12097
latitude	-12098
typeInfo	-12099
facetable	-12100
isRunning	-12101
patternSet	-12102
OptionValues	-12103
unmodifiableMap	-12104
abs	-12105
SORT	-12106
aves	-12107
decom	-12108
Lexeme	-12109
MEMBER	-12110
AndWait	-12111
RESULTS	-12112
etition	-12113
lecting	-12114
setFont	-12115
AssetTag	-12116
SMALLINT	-12117
componentId	-12118
searchCount	-12119
getExtensions	-12120
treat	-12121
Grants	-12122
Prefer	-12123
expose	-12124
sPanel	-12125
MasterNode	-12126
getRevision	-12127
ParameterType	-12128
UserException	-12129
remoteAddress	-12130
selectedValue	-12131
TInt	-12132
aspect	-12133
Maximum	-12134
Reverse	-12135
verbose	-12136
entities	-12137
MissCount	-12138
NullValue	-12139
addColumn	-12140
PagesIndex	-12141
testRoundTrip	-12142
caseInsensitive	-12143
Bul	-12144
ely	-12145
isMac	-12146
USERID	-12147
invert	-12148
testSet	-12149
HeapSize	-12150
PutCount	-12151
exporter	-12152
sToRemove	-12153
isInheritor	-12154
getAbsolutePath	-12155
ARCHIVE	-12156
dueDate	-12157
itemname	-12158
tombstone	-12159
ShortcutSet	-12160
myReference	-12161
PartitionKey	-12162
AVAI	-12163
Guid	-12164
aron	-12165
toXml	-12166
BUTTON	-12167
CACHED	-12168
waiting	-12169
computed	-12170
myAnnotation	-12171
contentLength	-12172
za	-12173
Mean	-12174
points	-12175
readers	-12176
Topology	-12177
influence	-12178
classifier	-12179
visibility	-12180
isPrimitive	-12181
StatsRequest	-12182
migrationType	-12183
ChangesBrowser	-12184
portletResource	-12185
hg	-12186
cel	-12187
Noop	-12188
BUNDLE	-12189
OrEmpty	-12190
superset	-12191
longValue	-12192
Negotiation	-12193
resultBuilder	-12194
CollectionType	-12195
KernelServices	-12196
getWriteableName	-12197
Bulb	-12198
spat	-12199
Adapt	-12200
broker	-12201
getCode	-12202
spatial	-12203
Dashboard	-12204
Pipelines	-12205
BytecodeNode	-12206
ModelVersion	-12207
cm	-12208
iet	-12209
LENI	-12210
iring	-12211
Accumul	-12212
OrEqual	-12213
domains	-12214
natural	-12215
ToDisplay	-12216
indexReader	-12217
Transformers	-12218
AE	-12219
PART	-12220
olon	-12221
getTag	-12222
oneKey	-12223
attempt	-12224
micolon	-12225
OfUpdates	-12226
CefBrowser	-12227
PartitionUpdate	-12228
Sce	-12229
udu	-12230
ADOC	-12231
ised	-12232
taxId	-12233
inSync	-12234
ksName	-12235
JAVADOC	-12236
arrange	-12237
setObject	-12238
FriendlyURL	-12239
MajorVersion	-12240
isAccessible	-12241
trainedModel	-12242
FilterEnabled	-12243
InWriteAction	-12244
parallelBuild	-12245
fam	-12246
TAIL	-12247
PyPsi	-12248
slave	-12249
dfType	-12250
HIERARCH	-12251
SEQUENCE	-12252
ToProject	-12253
Warehouses	-12254
notNullize	-12255
CriteriaBuilder	-12256
AMP	-12257
zzAt	-12258
copied	-12259
Limiter	-12260
Natural	-12261
sEntries	-12262
connected	-12263
jsonArray	-12264
hasDefined	-12265
StateAction	-12266
ComponentType	-12267
parationResult	-12268
RefactoringUtil	-12269
ShardFollowTask	-12270
mar	-12271
ESTI	-12272
THIS	-12273
sers	-12274
COMPO	-12275
health	-12276
myQueue	-12277
newSize	-12278
requent	-12279
Suitable	-12280
reporter	-12281
unitPrice	-12282
arithmetic	-12283
getMethods	-12284
isWritable	-12285
coordinates	-12286
currentNode	-12287
persistentTasks	-12288
getExpandoBridge	-12289
Route	-12290
OnStack	-12291
COMPILER	-12292
CONTAINS	-12293
OrUpdate	-12294
Expansion	-12295
getConfig	-12296
Implements	-12297
Precedence	-12298
caretModel	-12299
SUBSCRIPTION	-12300
CaretPosition	-12301
RefreshPolicy	-12302
AttributeSource	-12303
GATE	-12304
angle	-12305
doAdd	-12306
Adding	-12307
myBorder	-12308
Specified	-12309
QueryContext	-12310
getException	-12311
ResolveContext	-12312
TypeFor	-12313
realmId	-12314
Business	-12315
Contained	-12316
TreeVisitor	-12317
connections	-12318
AuditingData	-12319
ArgumentTypes	-12320
orderByFields	-12321
qualifierCall	-12322
Dra	-12323
RATE	-12324
Netty	-12325
Regexp	-12326
EntityWith	-12327
Inheritors	-12328
trustStore	-12329
SearchAction	-12330
getOrDefault	-12331
Suc	-12332
amond	-12333
MapType	-12334
SPLITTER	-12335
bindUuid	-12336
getFrame	-12337
setField	-12338
writeInt	-12339
buildTypes	-12340
substituted	-12341
testResponse	-12342
DocletOptions	-12343
StandardJavadoc	-12344
TICS	-12345
beans	-12346
Backing	-12347
Dragged	-12348
setFile	-12349
getCause	-12350
privilege	-12351
WebService	-12352
isOptimize	-12353
normalizer	-12354
readValues	-12355
testFilter	-12356
underlying	-12357
ChooseByName	-12358
NotSupported	-12359
FB	-12360
simu	-12361
sible	-12362
getSQL	-12363
Elapsed	-12364
average	-12365
isFirst	-12366
findByCP	-12367
testFrom	-12368
childName	-12369
proximate	-12370
Proportion	-12371
RuleFinder	-12372
getInitial	-12373
visitField	-12374
JsonCreator	-12375
MatchResult	-12376
buildRequest	-12377
prefixLength	-12378
getFirstChild	-12379
AssetPublisher	-12380
CapacityInBytes	-12381
SyntaxException	-12382
Dotted	-12383
hasMore	-12384
CallSite	-12385
Retained	-12386
blocking	-12387
isClosed	-12388
LineRange	-12389
determinism	-12390
processField	-12391
DebuggerUtils	-12392
createProject	-12393
AssertionError	-12394
contentManager	-12395
outputChannels	-12396
ActualProperties	-12397
setB	-12398
BREAK	-12399
pathTo	-12400
snitch	-12401
myRange	-12402
unicode	-12403
FileIndex	-12404
LongArray	-12405
construct	-12406
myResults	-12407
RangeQuery	-12408
Stacktrace	-12409
Deployments	-12410
createValue	-12411
putIfAbsent	-12412
CurrentValue	-12413
IOR	-12414
Fire	-12415
groovy	-12416
online	-12417
MenuItem	-12418
restrict	-12419
allocator	-12420
Acceptable	-12421
psiPackage	-12422
InputDialog	-12423
nodeTaskMap	-12424
leftPosition	-12425
OrderRootType	-12426
family	-12427
Cookies	-12428
temporal	-12429
testThat	-12430
BuildFile	-12431
SqlParser	-12432
totalHits	-12433
Experimental	-12434
StringBuffer	-12435
instructions	-12436
toCacheModel	-12437
XDebugSession	-12438
securityToken	-12439
FunctionHolder	-12440
InventoryEngine	-12441
PsiPrimitiveType	-12442
LS	-12443
Pie	-12444
cing	-12445
Macros	-12446
Prices	-12447
opcode	-12448
CONSOLE	-12449
DataSet	-12450
SubPlan	-12451
ToTrash	-12452
Lifespans	-12453
TermQuery	-12454
addModule	-12455
EditorImpl	-12456
sToProcess	-12457
sourceTypes	-12458
ExportImport	-12459
StartException	-12460
MethodInvocation	-12461
ProgressListener	-12462
RESI	-12463
three	-12464
isUnder	-12465
negated	-12466
HIERARCHY	-12467
eventType	-12468
FileProvider	-12469
FunctionCall	-12470
ListSelection	-12471
datafeedConfig	-12472
visitReference	-12473
dy	-12474
asy	-12475
DENT	-12476
HELP	-12477
ggers	-12478
QUOTED	-12479
Produce	-12480
failedTo	-12481
ClassInfo	-12482
getUnique	-12483
ActionButton	-12484
TemplateImpl	-12485
myJavaFacade	-12486
ParserContext	-12487
SearchContainer	-12488
ILM	-12489
prot	-12490
brevi	-12491
ENCRYP	-12492
elcome	-12493
PARENTH	-12494
vcsRoot	-12495
DumbMode	-12496
myBefore	-12497
WriteInfo	-12498
KeySetting	-12499
isAbstract	-12500
myExternal	-12501
createEmpty	-12502
myMainPanel	-12503
newChildren	-12504
modelClassPK	-12505
ActionFactory	-12506
ServiceBaseImpl	-12507
getPropertyName	-12508
setPrimaryKeyObj	-12509
Dfs	-12510
IFY	-12511
dOut	-12512
Initi	-12513
BUTION	-12514
equality	-12515
Statistic	-12516
findByLtE	-12517
paramTypes	-12518
showDialog	-12519
projectName	-12520
RadContainer	-12521
globalSettings	-12522
Itr	-12523
Rev	-12524
rFT	-12525
Less	-12526
unary	-12527
READER	-12528
ipFile	-12529
myCall	-12530
rebase	-12531
StepInto	-12532
checkBox	-12533
pageSink	-12534
Executions	-12535
Replicated	-12536
LongSupplier	-12537
PrestoThrift	-12538
powwowServerId	-12539
Nav	-12540
goto	-12541
Owned	-12542
OnDisk	-12543
cfName	-12544
Elytron	-12545
SetOnce	-12546
ByScroll	-12547
fromName	-12548
myDialog	-12549
negative	-12550
JobRequest	-12551
beanPortlet	-12552
getNumberOf	-12553
toXmlString	-12554
InsertHandler	-12555
refreshPolicy	-12556
UnsafeSupplier	-12557
countByGroupId	-12558
TableStatistics	-12559
cy	-12560
OPS	-12561
jmx	-12562
BITS	-12563
ATTACH	-12564
getIndexed	-12565
fileVersion	-12566
idGenerator	-12567
Communication	-12568
SearchResults	-12569
isEntityCache	-12570
commentTracker	-12571
DataInputStream	-12572
yped	-12573
fqName	-12574
PRESENT	-12575
Ellipsis	-12576
Something	-12577
chunkSize	-12578
getEstimated	-12579
LineBreakpoint	-12580
DictionaryBlock	-12581
Clazz	-12582
isOpen	-12583
getCell	-12584
REQUIRED	-12585
RESOLVER	-12586
integers	-12587
Violation	-12588
Wildcards	-12589
getWindow	-12590
myToolbar	-12591
assertBusy	-12592
myDebugger	-12593
DataHandler	-12594
Instantiation	-12595
returnStatement	-12596
onor	-12597
urge	-12598
zzState	-12599
builders	-12600
outgoing	-12601
assertion	-12602
fromIndex	-12603
innerClass	-12604
TimeInNanos	-12605
getContainer	-12606
responseBody	-12607
CompositeElement	-12608
YY	-12609
200	-12610
CAP	-12611
Mul	-12612
pipe	-12613
samp	-12614
myInner	-12615
enterRule	-12616
RunContent	-12617
getIndices	-12618
coordination	-12619
Applicability	-12620
LearningClient	-12621
CTSchemaVersion	-12622
outputVariables	-12623
NumericDocValues	-12624
GINE	-12625
LOWER	-12626
eight	-12627
ANCHOR	-12628
RowMap	-12629
MISMATCH	-12630
UnitTest	-12631
dataNode	-12632
SortedMap	-12633
partitioned	-12634
ObjectException	-12635
QueryParameters	-12636
getTableMetadata	-12637
GEN	-12638
eted	-12639
Fatal	-12640
Occur	-12641
OutPos	-12642
myUser	-12643
toMove	-12644
SUPPORTS	-12645
Autowired	-12646
tmpOutPos	-12647
grokPattern	-12648
methodHandle	-12649
MethodBuilder	-12650
localRepository	-12651
DRA	-12652
SPR	-12653
WARE	-12654
NODES	-12655
COMMON	-12656
Vararg	-12657
isLeaf	-12658
HttpGet	-12659
DISABLED	-12660
Designer	-12661
getUpdate	-12662
nodeStats	-12663
navigation	-12664
GrokPattern	-12665
entityClass	-12666
ExecutionTime	-12667
isConstructor	-12668
lineStartOffset	-12669
messagingVersion	-12670
setConfiguration	-12671
"["	-12672
Cfs	-12673
EXTR	-12674
fast	-12675
vari	-12676
EXACT	-12677
ESTIMA	-12678
keleton	-12679
usageView	-12680
testNested	-12681
willReturn	-12682
lastModified	-12683
myBranchName	-12684
getAssetEntry	-12685
Car	-12686
YES	-12687
oud	-12688
Echo	-12689
Scores	-12690
chosen	-12691
cketed	-12692
combin	-12693
finger	-12694
ENGLISH	-12695
Eviction	-12696
testBind	-12697
Retriever	-12698
ForRemoval	-12699
BuildScript	-12700
actualValue	-12701
tp	-12702
Lon	-12703
ARTI	-12704
ByIndex	-12705
dfaLeft	-12706
flatMap	-12707
checkNot	-12708
assertAll	-12709
MessageEvent	-12710
kit	-12711
THON	-12712
ROWMAP	-12713
EXCLUDE	-12714
LineEnd	-12715
bindInfo	-12716
procedure	-12717
sslContext	-12718
BeforeClass	-12719
testValidate	-12720
toSoapModels	-12721
AttributeType	-12722
sim	-12723
Defs	-12724
Evict	-12725
junct	-12726
ndant	-12727
proto	-12728
ENGINE	-12729
Backoff	-12730
getHttp	-12731
INFINITY	-12732
verified	-12733
COMPLETION	-12734
superclass	-12735
AsciiStream	-12736
GroupFinder	-12737
colorsScheme	-12738
adaptiveMedia	-12739
Baz	-12740
Boxed	-12741
lists	-12742
myHint	-12743
ticker	-12744
findByM	-12745
weights	-12746
OKAction	-12747
expansion	-12748
sortField	-12749
catenation	-12750
firstChild	-12751
getMinimum	-12752
ParseContext	-12753
emailAddress	-12754
initializing	-12755
setBackground	-12756
DescriptorImpl	-12757
QueryExecution	-12758
getModifierList	-12759
targetDirectory	-12760
Prun	-12761
sired	-12762
Footer	-12763
SYMBOL	-12764
timing	-12765
SPECIAL	-12766
myAlarm	-12767
newExpr	-12768
overlap	-12769
Counters	-12770
CTMessage	-12771
HiveSplit	-12772
lineHeight	-12773
ExtractMethod	-12774
CB	-12775
phan	-12776
Domains	-12777
PerTask	-12778
subList	-12779
WRAPPING	-12780
getFetch	-12781
propagate	-12782
autoFollow	-12783
sByUuidAnd	-12784
findMethods	-12785
DISTRIBUTION	-12786
localVariable	-12787
QuickFixAction	-12788
wc	-12789
FOO	-12790
isTest	-12791
enhance	-12792
proxied	-12793
dataType	-12794
WriteAccess	-12795
snapshotInfo	-12796
RelativePoint	-12797
ignoreMissing	-12798
ChannelService	-12799
AppLocalService	-12800
pi	-12801
gmt	-12802
Unnest	-12803
advice	-12804
rootPath	-12805
myEnabled	-12806
Diagnostic	-12807
TRUSTSTORE	-12808
popupowner	-12809
ReadRequests	-12810
ingestService	-12811
TransportAction	-12812
SwitchExpression	-12813
LING	-12814
Slot	-12815
ALITY	-12816
scopes	-12817
ARTIFAC	-12818
windows	-12819
FileTail	-12820
ClusterName	-12821
Conflicting	-12822
minDocCount	-12823
getModification	-12824
LEASE	-12825
vides	-12826
BaseDir	-12827
OnClose	-12828
PREVIEW	-12829
myProjects	-12830
getStatement	-12831
pageProcessor	-12832
alf	-12833
dev	-12834
CLOSED	-12835
BUILTIN	-12836
FILTERS	-12837
TokenId	-12838
inputId	-12839
castType	-12840
testArray	-12841
BasicBlock	-12842
HttpEntity	-12843
docComment	-12844
getPsiFile	-12845
ProjectNode	-12846
TrustManager	-12847
TierPriceEntries	-12848
Dum	-12849
Fade	-12850
SURE	-12851
macro	-12852
BRACES	-12853
InFile	-12854
myBlock	-12855
Consumed	-12856
nextLine	-12857
subscript	-12858
HashStrategy	-12859
StaticColumns	-12860
ctPreferences	-12861
pendingRepair	-12862
toEscapedModel	-12863
IOUS	-12864
Being	-12865
CATCH	-12866
Refer	-12867
BREAKS	-12868
Heartbeat	-12869
PopupMenu	-12870
immediate	-12871
lowerBound	-12872
nullAllowed	-12873
resolverCtx	-12874
ModelAndView	-12875
readAttribute	-12876
createTempFile	-12877
switchStatement	-12878
authn	-12879
cipher	-12880
AtLeast	-12881
sEnabled	-12882
Recursion	-12883
filtering	-12884
targetName	-12885
uniqueResult	-12886
removeByGroupId	-12887
AnnotationHolder	-12888
ListCellRenderer	-12889
bid	-12890
NATURE	-12891
MULTIPLI	-12892
ToInsert	-12893
toRemove	-12894
StatusCode	-12895
assertFile	-12896
CONDITIONAL	-12897
getRetained	-12898
presentable	-12899
highlightType	-12900
resultHandler	-12901
IndicesService	-12902
activeProfiles	-12903
ignoreMalformed	-12904
ScreenNavigation	-12905
getReferenceName	-12906
HY	-12907
hunk	-12908
PATCH	-12909
rowId	-12910
Recycler	-12911
ToUpdate	-12912
nextLong	-12913
Stackable	-12914
setTarget	-12915
ByCommerce	-12916
Classifier	-12917
RelativeTo	-12918
Terminated	-12919
addContent	-12920
intersects	-12921
HttpMessage	-12922
TimeProvider	-12923
discoveryNode	-12924
StatusException	-12925
initialCapacity	-12926
lop	-12927
EXPAND	-12928
Modify	-12929
unnest	-12930
JBLabel	-12931
staticRow	-12932
ClassUtils	-12933
MemoryPool	-12934
Regression	-12935
createProxy	-12936
propagation	-12937
BaseCommerce	-12938
StepListener	-12939
myScrollPane	-12940
getEntityName	-12941
serialization	-12942
SecurityContext	-12943
CommandProcessor	-12944
Squ	-12945
Kiye	-12946
cass	-12947
esis	-12948
THREE	-12949
Kiyeog	-12950
NavBar	-12951
hasSet	-12952
mitted	-12953
Combobox	-12954
Unloaded	-12955
locating	-12956
TierPrice	-12957
testProxy	-12958
AutoUpdate	-12959
Mutability	-12960
ShardStats	-12961
DataManager	-12962
EntityEntry	-12963
assertQuery	-12964
orderByType	-12965
participant	-12966
artifactType	-12967
ManagerListener	-12968
configureByFile	-12969
executeOperation	-12970
setParameterList	-12971
Bg	-12972
EDT	-12973
STRO	-12974
orth	-12975
Tunnel	-12976
divide	-12977
MINIMUM	-12978
ByGroupId	-12979
inclusive	-12980
visitNode	-12981
Reflective	-12982
SystemItem	-12983
mySplitter	-12984
tableNames	-12985
myProjectPom	-12986
getDependency	-12987
referenceName	-12988
EntityDescriptor	-12989
transportRequest	-12990
getG	-12991
qname	-12992
InParent	-12993
checkbox	-12994
myConfig	-12995
observer	-12996
EmptyText	-12997
Navigable	-12998
ShardCount	-12999
GlobalState	-13000
myParameter	-13001
RecoveryState	-13002
ServerRequest	-13003
TextStructure	-13004
clientSideMCC	-13005
getGroupEntries	-13006
updateCPInstance	-13007
Stre	-13008
Verb	-13009
pies	-13010
sDir	-13011
Inherit	-13012
ToCheck	-13013
example	-13014
INCREMENT	-13015
IntStream	-13016
myDirectory	-13017
valueIsNull	-13018
AfterTestRun	-13019
humanReadable	-13020
declaringClass	-13021
QueryInfluencers	-13022
qb	-13023
Mid	-13024
nanos	-13025
Revoke	-13026
myAllow	-13027
findModule	-13028
BindingResult	-13029
UnaryExpression	-13030
CONF	-13031
RowId	-13032
TESTS	-13033
resume	-13034
getPage	-13035
myAfter	-13036
Resolving	-13037
waitUntil	-13038
isNotEmpty	-13039
PrintWriter	-13040
DeleteEnabled	-13041
getInputStream	-13042
transformConfig	-13043
MAND	-13044
zzEnd	-13045
Passes	-13046
chunks	-13047
decess	-13048
myCopy	-13049
python	-13050
CHILDREN	-13051
TestSuite	-13052
lineStart	-13053
zzEndRead	-13054
PsiComment	-13055
SigningKey	-13056
nullability	-13057
ByPrimaryKey	-13058
AnnotatedClass	-13059
revisionNumber	-13060
REPO	-13061
laps	-13062
ASYNC	-13063
Adder	-13064
PREDI	-13065
Higher	-13066
parenthe	-13067
formatted	-13068
Breadcrumb	-13069
RefElement	-13070
symbolTable	-13071
isFinderCache	-13072
VirtualMachine	-13073
defaultBilling	-13074
metadataBuilder	-13075
Tie	-13076
Coerce	-13077
SECURE	-13078
jobTask	-13079
assemble	-13080
testLong	-13081
BuildEvent	-13082
SearchTask	-13083
RequiresEdt	-13084
elementName	-13085
isAscending	-13086
PeerRecovery	-13087
deserialized	-13088
modelSizeStats	-13089
internalPosition	-13090
Reasons	-13091
AndIndex	-13092
Starting	-13093
TextDiff	-13094
newParent	-13095
MessageBus	-13096
myVertical	-13097
MetadataSources	-13098
uld	-13099
IMAGE	-13100
serde	-13101
MinMax	-13102
processors	-13103
DeltaDelete	-13104
TokenStream	-13105
attachments	-13106
setExternal	-13107
getTableHandle	-13108
XContentFactory	-13109
rightExpression	-13110
testDynamicQuery	-13111
EAR	-13112
SPEC	-13113
Locks	-13114
click	-13115
chooser	-13116
formula	-13117
SHORTCUT	-13118
Simulate	-13119
subClass	-13120
uzziness	-13121
Selectable	-13122
currentStep	-13123
builderClass	-13124
COMMERCEPRICE	-13125
FieldTypeName	-13126
concreteIndex	-13127
BufferedReader	-13128
EditorTextField	-13129
concreteIndices	-13130
Stmt	-13131
Wild	-13132
clic	-13133
inVar	-13134
IScale	-13135
walker	-13136
entrant	-13137
getTool	-13138
Checking	-13139
myForced	-13140
JBUIScale	-13141
myHistory	-13142
Containers	-13143
JBIterable	-13144
myArtifact	-13145
testSelect	-13146
MessageType	-13147
getAffected	-13148
XMLAttribute	-13149
TableScanNode	-13150
visitAnnotation	-13151
ExceptionsHelper	-13152
WebSocketHandler	-13153
Fn	-13154
Syn	-13155
rpc	-13156
rand	-13157
vial	-13158
const	-13159
CONVEN	-13160
Supers	-13161
SPILLER	-13162
legated	-13163
myPatch	-13164
Truncate	-13165
CONVENTION	-13166
httpMethod	-13167
BloomFilter	-13168
ErrorStripe	-13169
FromContext	-13170
WithDefault	-13171
myTreeModel	-13172
getRuleIndex	-13173
assertInvalid	-13174
commitContext	-13175
GeneratedValue	-13176
getConstructor	-13177
CHA	-13178
Ign	-13179
btn	-13180
trl	-13181
take	-13182
Boxing	-13183
ELEMENTS	-13184
IntArray	-13185
docValue	-13186
iaeresis	-13187
GuardedBy	-13188
stateWith	-13189
getDocCount	-13190
GradleVersion	-13191
ListAttribute	-13192
ConstructorArg	-13193
ExpressionUtils	-13194
SearchEverywhere	-13195
unmodifiableList	-13196
IDLE	-13197
mKey	-13198
Abort	-13199
SIGNED	-13200
Renames	-13201
Forwarded	-13202
GroupName	-13203
visitShow	-13204
GroovyFile	-13205
Repeatable	-13206
domElement	-13207
percentile	-13208
ensureGreen	-13209
getCalendar	-13210
ColumnReader	-13211
DeclaringClass	-13212
ModuleMetadata	-13213
"__	-13214
reds	-13215
alter	-13216
ispan	-13217
sorts	-13218
myCount	-13219
JndiName	-13220
anyMatch	-13221
FilePatch	-13222
isEmptyOr	-13223
Enhancement	-13224
FocusManager	-13225
WeDeployAuthApp	-13226
methodSignature	-13227
getPropertyValue	-13228
OGC	-13229
Smile	-13230
Minimal	-13231
Recurses	-13232
appendTo	-13233
mbstones	-13234
suppress	-13235
JavaBundle	-13236
intSetting	-13237
inheritance	-13238
functionHandle	-13239
Ws	-13240
HOL	-13241
NEGA	-13242
PROTE	-13243
Struc	-13244
NEGATIVE	-13245
Sampling	-13246
enclosing	-13247
endpoints	-13248
testReset	-13249
CompileScope	-13250
IPartitioner	-13251
getContentType	-13252
"(	-13253
Seq	-13254
UDT	-13255
Opts	-13256
ught	-13257
theme	-13258
CONVER	-13259
EQUALS	-13260
Silent	-13261
Contact	-13262
TINYINT	-13263
ChildRole	-13264
Subselect	-13265
parentType	-13266
ErrorString	-13267
getResolved	-13268
consistencyLevel	-13269
RF	-13270
ments	-13271
Activa	-13272
LogLog	-13273
alesce	-13274
bridge	-13275
HEADERS	-13276
PsiLiter	-13277
profiles	-13278
NodeIndex	-13279
myIgnored	-13280
MediaTypes	-13281
Similarity	-13282
TestResult	-13283
dlFileRank	-13284
stackTrace	-13285
executeUpdate	-13286
PostfixTemplate	-13287
SCREEN	-13288
Visited	-13289
findByF	-13290
exitRule	-13291
SIGNATURE	-13292
filePaths	-13293
getCommon	-13294
Structural	-13295
AssetEntryId	-13296
CPDEFINITION	-13297
ColumnAliases	-13298
RealmSettings	-13299
OperationCount	-13300
roleLocalService	-13301
statusByUserName	-13302
ux	-13303
Kudu	-13304
geom	-13305
muted	-13306
simpl	-13307
TestNG	-13308
METRICS	-13309
toSelect	-13310
ANALYTICS	-13311
SmartList	-13312
fetchSize	-13313
DICTIONARY	-13314
SdkVersion	-13315
Identifiers	-13316
Invalidation	-13317
SplitManager	-13318
bookmarksEntry	-13319
PsiNamedElement	-13320
partitionValues	-13321
AnalyticsMessage	-13322
took	-13323
pager	-13324
Frames	-13325
orient	-13326
steasy	-13327
barrier	-13328
readable	-13329
testData	-13330
cacheName	-13331
PlotConfig	-13332
newHashSet	-13333
expectedInt	-13334
WithProgress	-13335
gradleModule	-13336
DataExtractor	-13337
FocusListener	-13338
ESIntegTestCase	-13339
extractedFields	-13340
Ccr	-13341
Grok	-13342
endOf	-13343
REPORT	-13344
LENIENT	-13345
MODULES	-13346
getLive	-13347
myViewer	-13348
IfPresent	-13349
PythonSdk	-13350
RelFinder	-13351
ShortName	-13352
isBoolean	-13353
queryName	-13354
SSLContext	-13355
regionName	-13356
Transferable	-13357
myPsiManager	-13358
softTreeDepth	-13359
policyMetadata	-13360
xa	-13361
ABC	-13362
Tiny	-13363
Mappers	-13364
eventId	-13365
uristic	-13366
NodeTask	-13367
allScope	-13368
DISCOVERY	-13369
FilePaths	-13370
displayId	-13371
replicate	-13372
Normalized	-13373
getStandard	-13374
TreeRewriter	-13375
operatorType	-13376
resolveMethod	-13377
Ss	-13378
ims	-13379
Pieub	-13380
IMPORTS	-13381
ameleon	-13382
getPrev	-13383
isTrace	-13384
Attempts	-13385
TextWith	-13386
getFinal	-13387
getPrice	-13388
myRemote	-13389
getLookup	-13390
Validators	-13391
toIntExact	-13392
dlFileEntry	-13393
subSequence	-13394
testExecute	-13395
PsiArrayType	-13396
ejbComponent	-13397
WriteRequests	-13398
ocialActivity	-13399
PaymentRequest	-13400
RenderResponse	-13401
RowExpressions	-13402
RequestException	-13403
Tick	-13404
cogn	-13405
gree	-13406
USERS	-13407
Ukrain	-13408
shelve	-13409
isArray	-13410
branches	-13411
IMPLEMENT	-13412
Ukrainian	-13413
loadClass	-13414
PrivateKey	-13415
getClasses	-13416
Multicaster	-13417
getFileName	-13418
JavaCompiler	-13419
SnapshotInfo	-13420
bucketNumber	-13421
JavaParameters	-13422
getExpressions	-13423
VA	-13424
Jmx	-13425
too	-13426
arent	-13427
Managers	-13428
replicated	-13429
targetPath	-13430
SystemIndex	-13431
InternalNode	-13432
LivenessInfo	-13433
randomString	-13434
RemoteCluster	-13435
mm	-13436
Rem	-13437
HEAP	-13438
SYNT	-13439
Needs	-13440
loser	-13441
Shelve	-13442
realms	-13443
Receive	-13444
isLegacy	-13445
yledText	-13446
Bookmarks	-13447
myLocation	-13448
LookAndFeel	-13449
ModelNodeUtil	-13450
myStartOffset	-13451
extensionPoint	-13452
FontPreferences	-13453
Lw	-13454
Cli	-13455
NUL	-13456
OneOf	-13457
TASKS	-13458
Paging	-13459
ardown	-13460
getAge	-13461
newAdd	-13462
nsible	-13463
cussion	-13464
ENDPOINT	-13465
Filename	-13466
getProxy	-13467
keyCount	-13468
FORMATION	-13469
addHeader	-13470
getCommit	-13471
setOutput	-13472
Collecting	-13473
Subqueries	-13474
boundNames	-13475
production	-13476
readOffset	-13477
FBUtilities	-13478
OrdersCount	-13479
VfsUtilCore	-13480
randomValue	-13481
totalDrivers	-13482
FileVersionId	-13483
RuleStatement	-13484
SourceHandler	-13485
ALG	-13486
InTime	-13487
ndered	-13488
elytron	-13489
decodedRow	-13490
drawString	-13491
queryResult	-13492
splitManager	-13493
BlockEncoding	-13494
OptimizedWriter	-13495
SchemaVersionId	-13496
buildErrorString	-13497
setPreferredSize	-13498
Minus	-13499
links	-13500
MASTER	-13501
getURL	-13502
getMain	-13503
PREVIOUS	-13504
writeUTF	-13505
PROTECTED	-13506
arraycopy	-13507
setRequest	-13508
ShouldMatch	-13509
getRowCount	-13510
bulkResponse	-13511
ProcedureCall	-13512
outputMessage	-13513
requestEntity	-13514
zzCurrentPosL	-13515
localCheckpoint	-13516
:"	-13517
Ns	-13518
fk	-13519
jta	-13520
gutter	-13521
Untyped	-13522
expired	-13523
setDate	-13524
ForWrite	-13525
rOperand	-13526
shouldBe	-13527
Decisions	-13528
extraInfo	-13529
stackName	-13530
DataCounts	-13531
statusDate	-13532
vocabulary	-13533
CommitContext	-13534
MappingMetadata	-13535
defaultSettings	-13536
Dev	-13537
crc	-13538
Revo	-13539
Again	-13540
MONIT	-13541
Uuids	-13542
phrase	-13543
losable	-13544
HomePath	-13545
ThreeSide	-13546
fileManager	-13547
testExtract	-13548
testMissing	-13549
versionType	-13550
stepRegistry	-13551
visitVariable	-13552
Externalizable	-13553
Dock	-13554
ORITH	-13555
hyper	-13556
Logout	-13557
Stress	-13558
finity	-13559
marked	-13560
IntList	-13561
WINDOWS	-13562
getGrid	-13563
setTime	-13564
ALGORITH	-13565
myHeader	-13566
getActual	-13567
sortOrder	-13568
startNode	-13569
TextMessage	-13570
jsonBuilder	-13571
targetMethod	-13572
assertOrdered	-13573
createBuilder	-13574
startPosition	-13575
BAL	-13576
Aler	-13577
moji	-13578
nail	-13579
DIALOG	-13580
ForAll	-13581
Titles	-13582
myTool	-13583
DirName	-13584
MavenId	-13585
Changing	-13586
ValueSet	-13587
getAfter	-13588
classText	-13589
getChange	-13590
intercept	-13591
nodeIndex	-13592
visitType	-13593
strategies	-13594
textLength	-13595
processList	-13596
codeFragment	-13597
ProcessOutput	-13598
setFieldValue	-13599
DistributionType	-13600
Err	-13601
SEQ	-13602
CIES	-13603
Dwrf	-13604
vend	-13605
SUITE	-13606
HOLDER	-13607
CHECKER	-13608
toModel	-13609
composed	-13610
NodeCount	-13611
StatusBar	-13612
longitude	-13613
PromoPrice	-13614
peedSearch	-13615
getOptional	-13616
scaleFactor	-13617
createRequest	-13618
IndexLifecycle	-13619
resourceLoader	-13620
owningBucketOrd	-13621
RSP	-13622
idp	-13623
Accessed	-13624
Existent	-13625
getChars	-13626
retained	-13627
Recording	-13628
SCHEDULED	-13629
fieldData	-13630
isIgnored	-13631
Instanceof	-13632
RunProfile	-13633
DumbService	-13634
hasDocValues	-13635
highlighters	-13636
TestFramework	-13637
FileTailSource	-13638
PropertyMetadata	-13639
&=	-13640
fum	-13641
scr	-13642
Clip	-13643
ongo	-13644
RETRI	-13645
Snitch	-13646
ingBox	-13647
sqlType	-13648
getWrite	-13649
CHARACTER	-13650
getIndent	-13651
CLASSNAMEID	-13652
dateHistogram	-13653
classification	-13654
defaultShipping	-13655
isEmptyOrSpaces	-13656
1.	-13657
BV	-13658
Cut	-13659
Jax	-13660
WATCH	-13661
Enforce	-13662
Getters	-13663
minSize	-13664
trimmed	-13665
webSocket	-13666
parentTask	-13667
Continuation	-13668
getEffective	-13669
CodeConstants	-13670
createProblem	-13671
costCalculator	-13672
addAccountEntry	-13673
Hbm	-13674
img	-13675
SCORE	-13676
rValue	-13677
DotName	-13678
percentage	-13679
FactoryImpl	-13680
ModelAction	-13681
invokeMethod	-13682
addOperations	-13683
enversService	-13684
executeStatus	-13685
ModelSizeStats	-13686
"[	-13687
PAD	-13688
EDIT	-13689
bund	-13690
ToInt	-13691
nonce	-13692
rance	-13693
Locals	-13694
testId	-13695
finalize	-13696
ctProcess	-13697
setLayout	-13698
disconnect	-13699
BeanManager	-13700
getProvider	-13701
leftOperand	-13702
testContext	-13703
CatalogService	-13704
ClientProperty	-13705
TemporaryTable	-13706
NodeEnvironment	-13707
HighlightDisplay	-13708
Va	-13709
HIT	-13710
PAS	-13711
weak	-13712
callee	-13713
runWith	-13714
Feedback	-13715
Reported	-13716
checkout	-13717
interpre	-13718
Enrolment	-13719
Predefined	-13720
UpdateCount	-13721
doubleValue	-13722
orientation	-13723
ToggleAction	-13724
myMethodName	-13725
BenchmarkData	-13726
FromTimestamp	-13727
PyStringLiter	-13728
TerminalBlock	-13729
updateExternal	-13730
getCanonicalText	-13731
runConfiguration	-13732
CYCLE	-13733
Sticky	-13734
bindTo	-13735
ClassIn	-13736
Padding	-13737
testMove	-13738
SQLHelper	-13739
TestOutput	-13740
getOptions	-13741
ProjectTask	-13742
AssetEntries	-13743
BlockWrapper	-13744
myDispatcher	-13745
perPartition	-13746
DocumentEvent	-13747
TargetElement	-13748
inTransaction	-13749
getPackageName	-13750
initialization	-13751
CollectionUtils	-13752
IndexedTestBean	-13753
DF	-13754
Wheel	-13755
toMap	-13756
maxDoc	-13757
Unified	-13758
markers	-13759
refName	-13760
ternary	-13761
addRange	-13762
consumes	-13763
PlainText	-13764
getScript	-13765
isWindows	-13766
doTestYaml	-13767
SwitchLabeled	-13768
ConnectTimeout	-13769
sourceSnapshot	-13770
getAppBuilderApp	-13771
Sheet	-13772
PARTIAL	-13773
jackson	-13774
myPlace	-13775
combined	-13776
nextIndex	-13777
sigDigits	-13778
DataAccess	-13779
myCallback	-13780
Highlighted	-13781
HyperLogLog	-13782
classMember	-13783
navigatable	-13784
ProjectLevel	-13785
AliasMetadata	-13786
JavaRefactoring	-13787
serviceProvider	-13788
AssetListEntryId	-13789
4_	-13790
defs	-13791
AGING	-13792
CHARS	-13793
ATTEMP	-13794
NodeMap	-13795
AndCheck	-13796
Diffable	-13797
getRegion	-13798
mutations	-13799
myPreview	-13800
Independent	-13801
OptionIndex	-13802
TestListener	-13803
itemSelector	-13804
rightOperand	-13805
PricingClasses	-13806
isTraceEnabled	-13807
mappingVersion	-13808
Fqn	-13809
rnd	-13810
ENVI	-13811
ENVIRON	-13812
MINUTES	-13813
jarFile	-13814
ulative	-13815
Isolated	-13816
toSystem	-13817
BlockSize	-13818
termQuery	-13819
getEntries	-13820
mySourceDir	-13821
PluginManager	-13822
lineSeparator	-13823
outputBuffers	-13824
ProjectFileIndex	-13825
employ	-13826
setNext	-13827
JavaType	-13828
showYesNo	-13829
clusterInfo	-13830
]"	-13831
Win	-13832
COME	-13833
DAYS	-13834
HYPER	-13835
getSet	-13836
fixture	-13837
myButton	-13838
summation	-13839
IndexInput	-13840
[...]
